<unk>	0
<s>	0
</s>	0
<pad>	0
▁t	-0
▁a	-1
he	-2
in	-3
on	-4
er	-5
▁the	-6
re	-7
at	-8
▁s	-9
or	-10
is	-11
es	-12
en	-13
it	-14
▁c	-15
▁w	-16
an	-17
▁o	-18
▁f	-19
al	-20
▁b	-21
▁an	-22
ar	-23
ed	-24
▁p	-25
ing	-26
▁in	-27
ion	-28
▁to	-29
▁of	-30
▁d	-31
le	-32
▁m	-33
ic	-34
ou	-35
▁and	-36
om	-37
as	-38
▁h	-39
▁th	-40
▁T	-41
ct	-42
ro	-43
ent	-44
il	-45
▁is	-46
st	-47
▁S	-48
et	-49
▁A	-50
▁re	-51
▁l	-52
▁n	-53
el	-54
▁I	-55
▁e	-56
ut	-57
am	-58
im	-59
ac	-60
▁C	-61
ot	-62
od	-63
ol	-64
ow	-65
▁g	-66
ation	-67
us	-68
▁M	-69
ve	-70
ly	-71
▁1	-72
▁(	-73
▁<	-74
▁for	-75
ri	-76
un	-77
ver	-78
▁P	-79
▁on	-80
▁be	-81
ur	-82
ad	-83
ith	-84
ay	-85
id	-86
her	-87
▁The	-88
▁that	-89
▁B	-90
</	-91
ch	-92
▁st	-93
ter	-94
ig	-95
ul	-96
ce	-97
▁with	-98
▁as	-99
▁D	-100
ir	-101
um	-102
▁H	-103
em	-104
if	-105
▁2	-106
▁wh	-107
▁it	-108
▁al	-109
▁R	-110
ag	-111
th	-112
ist	-113
▁pro	-114
est	-115
qu	-116
▁con	-117
▁$	-118
▁W	-119
▁y	-120
ode	-121
▁F	-122
▁L	-123
os	-124
ab	-125
▁by	-126
and	-127
▁at	-128
▁v	-129
ec	-130
▁he	-131
ers	-132
ra	-133
ht	-134
▁com	-135
▁E	-136
rom	-137
▁ex	-138
pp	-139
▁N	-140
oc	-141
ate	-142
00	-143
▁us	-144
pt	-145
▁G	-146
▁are	-147
code	-148
▁or	-149
ect	-150
oun	-151
ess	-152
ke	-153
ill	-154
res	-155
ain	-156
▁J	-157
ity	-158
▁was	-159
iv	-160
▁de	-161
ant	-162
▁r	-163
▁you	-164
op	-165
▁from	-166
▁O	-167
▁his	-168
se	-169
▁\	-170
ld	-171
▁=	-172
▁su	-173
ack	-174
▁"	-175
ies	-176
art	-177
all	-178
▁In	-179
ore	-180
end	-181
pl	-182
ort	-183
▁19	-184
▁ha	-185
ie	-186
▁this	-187
ary	-188
▁se	-189
ive	-190
▁un	-191
▁not	-192
▁ne	-193
▁can	-194
ich	-195
ction	-196
ment	-197
ally	-198
ang	-199
ine	-200
▁ch	-201
te	-202
ame	-203
▁le	-204
og	-205
ass	-206
ak	-207
per	-208
▁sh	-209
▁K	-210
ile	-211
▁but	-212
ure	-213
ud	-214
ard	-215
low	-216
▁whe	-217
ind	-218
ple	-219
ial	-220
▁do	-221
▁k	-222
pre	-223
▁have	-224
▁#	-225
▁her	-226
age	-227
ry	-228
▁U	-229
ork	-230
ust	-231
▁-	-232
ated	-233
ong	-234
der	-235
ome	-236
▁pl	-237
li	-238
▁ab	-239
▁which	-240
ber	-241
▁sp	-242
ould	-243
..	-244
fer	-245
are	-246
▁has	-247
ther	-248
ell	-249
up	-250
our	-251
▁ar	-252
ire	-253
iz	-254
orm	-255
so	-256
▁An	-257
▁we	-258
ue	-259
ost	-260
ov	-261
ap	-262
out	-263
ge	-264
yth	-265
▁3	-266
ult	-267
ath	-268
cc	-269
ound	-270
▁ad	-271
int	-272
ip	-273
▁cl	-274
to	-275
ia	-276
ous	-277
ions	-278
ff	-279
▁V	-280
01	-281
ast	-282
▁Th	-283
ime	-284
ide	-285
ans	-286
vers	-287
gh	-288
able	-289
▁app	-290
▁en	-291
ear	-292
rou	-293
ok	-294
av	-295
ice	-296
▁j	-297
ach	-298
ations	-299
▁im	-300
▁comp	-301
du	-302
ython	-303
),	-304
ub	-305
▁res	-306
ph	-307
ib	-308
▁out	-309
ite	-310
.</	-311
ight	-312
cl	-313
ord	-314
▁one	-315
act	-316
▁me	-317
▁cont	-318
▁tr	-319
ical	-320
ence	-321
▁'	-322
ace	-323
ft	-324
▁him	-325
one	-326
▁who	-327
xt	-328
form	-329
▁also	-330
ory	-331
gt	-332
▁if	-333
▁St	-334
ance	-335
ru	-336
▁Ch	-337
▁</	-338
ep	-339
▁sc	-340
ign	-341
ens	-342
ish	-343
▁go	-344
▁up	-345
▁their	-346
▁qu	-347
wo	-348
▁they	-349
▁so	-350
▁sy	-351
//	-352
ase	-353
▁man	-354
).	-355
tp	-356
ian	-357
ict	-358
ks	-359
▁other	-360
▁He	-361
▁will	-362
▁all	-363
own	-364
eth	-365
><	-366
://	-367
$$	-368
urn	-369
ject	-370
▁dis	-371
fr	-372
irst	-373
▁ser	-374
fter	-375
▁work	-376
▁0	-377
▁It	-378
▁fil	-379
▁she	-380
▁fun	-381
▁per	-382
▁Y	-383
ght	-384
gr	-385
nt	-386
▁4	-387
▁att	-388
ail	-389
></	-390
▁mod	-391
▁when	-392
ake	-393
▁lo	-394
}{	-395
▁te	-396
▁into	-397
▁part	-398
▁use	-399
▁[	-400
ces	-401
ition	-402
com	-403
--	-404
ress	-405
▁inter	-406
▁Q	-407
mer	-408
http	-409
ree	-410
▁two	-411
port	-412
ates	-413
ely	-414
▁$$	-415
stem	-416
ents	-417
▁there	-418
##	-419
ount	-420
▁get	-421
="	-422
sw	-423
ollow	-424
▁Re	-425
▁•	-426
esc	-427
▁ev	-428
ond	-429
▁comm	-430
▁first	-431
ari	-432
▁201	-433
ere	-434
▁200	-435
▁acc	-436
▁$\	-437
▁ro	-438
ose	-439
▁some	-440
ll	-441
▁li	-442
▁pre	-443
ne	-444
▁def	-445
etw	-446
ni	-447
▁may	-448
ript	-449
ob	-450
rit	-451
▁then	-452
vel	-453
elf	-454
▁function	-455
estion	-456
▁&	-457
▁time	-458
▁about	-459
yp	-460
▁num	-461
▁kn	-462
-1	-463
ener	-464
__	-465
▁over	-466
▁rel	-467
▁5	-468
ors	-469
erm	-470
wn	-471
▁ag	-472
▁more	-473
▁set	-474
▁pr	-475
ater	-476
▁its	-477
▁would	-478
▁x	-479
▁dat	-480
▁them	-481
aus	-482
tern	-483
frac	-484
▁where	-485
swer	-486
▁ret	-487
ys	-488
les	-489
org	-490
▁This	-491
▁+	-492
▁.	-493
ild	-494
ick	-495
str	-496
▁Qu	-497
▁co	-498
ings	-499
ble	-500
▁Pl	-501
▁any	-502
▁ob	-503
oint	-504
right	-505
▁–	-506
ution	-507
▁system	-508
▁bec	-509
▁using	-510
▁like	-511
▁new	-512
lic	-513
very	-514
▁only	-515
ex	-516
▁,	-517
hen	-518
▁val	-519
ics	-520
▁loc	-521
▁find	-522
▁sec	-523
99	-524
}$	-525
▁how	-526
▁dif	-527
ays	-528
ased	-529
ew	-530
rib	-531
▁your	-532
▁rec	-533
▁form	-534
▁been	-535
hed	-536
▁bo	-537
{\	-538
()	-539
▁cre	-540
clud	-541
▁does	-542
▁As	-543
old	-544
att	-545
ont	-546
ating	-547
▁what	-548
▁off	-549
▁used	-550
ific	-551
▁sub	-552
ons	-553
ock	-554
▁dec	-555
▁were	-556
iss	-557
:</	-558
▁after	-559
▁am	-560
▁under	-561
roup	-562
ark	-563
igh	-564
▁6	-565
ref	-566
▁call	-567
umm	-568
▁my	-569
ug	-570
...	-571
een	-572
▁sim	-573
als	-574
▁ele	-575
▁add	-576
▁than	-577
cess	-578
▁class	-579
riv	-580
▁pos	-581
▁produ	-582
put	-583
ovie	-584
▁inst	-585
▁way	-586
▁Al	-587
;&	-588
other	-589
▁rem	-590
▁act	-591
▁ass	-592
ife	-593
hes	-594
▁We	-595
▁such	-596
▁film	-597
▁return	-598
ck	-599
▁had	-600
ever	-601
▁need	-602
▁(1	-603
ular	-604
ning	-605
▁equ	-606
ious	-607
gin	-608
ethod	-609
▁Python	-610
0,	-611
rough	-612
oth	-613
▁includ	-614
▁run	-615
▁Ar	-616
▁year	-617
▁follow	-618
ative	-619
ample	-620
▁gener	-621
ced	-622
iel	-623
▁Ex	-624
▁Com	-625
▁want	-626
ink	-627
aw	-628
▁code	-629
uring	-630
ool	-631
▁Question	-632
ational	-633
ily	-634
▁ind	-635
irect	-636
of	-637
its	-638
1,	-639
▁sol	-640
ove	-641
▁vari	-642
etween	-643
▁Wh	-644
▁Pro	-645
▁exp	-646
▁differ	-647
get	-648
math	-649
ange	-650
row	-651
_{	-652
▁###	-653
▁Plot	-654
▁dist	-655
^{	-656
ather	-657
):	-658
ause	-659
▁Answer	-660
ade	-661
▁Ad	-662
▁data	-663
▁Un	-664
ough	-665
▁{	-666
ummary	-667
▁through	-668
▁str	-669
itation	-670
▁number	-671
▁each	-672
▁between	-673
ility	-674
▁cons	-675
lo	-676
ren	-677
▁col	-678
ise	-679
▁mat	-680
▁list	-681
▁no	-682
ual	-683
ract	-684
ince	-685
▁pol	-686
▁just	-687
ax	-688
ix	-689
ert	-690
▁18	-691
▁file	-692
ited	-693
▁Summary	-694
▁back	-695
▁Movie	-696
▁href	-697
blem	-698
▁play	-699
land	-700
02	-701
ident	-702
▁trans	-703
▁inv	-704
▁int	-705
',	-706
ible	-707
ote	-708
▁spec	-709
▁How	-710
▁serv	-711
0.	-712
ield	-713
▁Sh	-714
▁De	-715
gram	-716
▁reg	-717
ities	-718
ute	-719
amp	-720
▁same	-721
▁giv	-722
^2	-723
▁7	-724
▁tri	-725
raph	-726
">	-727
▁allow	-728
orn	-729
pro	-730
▁bu	-731
text	-732
▁point	-733
▁prov	-734
ually	-735
▁fin	-736
cept	-737
fore	-738
▁ke	-739
over	-740
▁know	-741
ward	-742
ues	-743
▁fe	-744
ures	-745
",	-746
akes	-747
▁For	-748
arch	-749
▁end	-750
au	-751
ied	-752
}\	-753
lp	-754
olog	-755
▁tra	-756
io	-757
▁ac	-758
els	-759
ences	-760
ave	-761
ize	-762
oy	-763
▁while	-764
▁En	-765
▁199	-766
hem	-767
▁problem	-768
ages	-769
▁If	-770
iew	-771
▁method	-772
resent	-773
ruct	-774
niqu	-775
▁ent	-776
▁look	-777
escript	-778
ww	-779
▁det	-780
▁em	-781
Citation	-782
▁char	-783
de	-784
▁ph	-785
riend	-786
▁rep	-787
VE	-788
itt	-789
▁(2	-790
ices	-791
ments	-792
▁start	-793
▁result	-794
ient	-795
chniqu	-796
▁par	-797
meric	-798
▁group	-799
ros	-800
▁line	-801
▁show	-802
▁these	-803
?</	-804
▁help	-805
▁Se	-806
▁Le	-807
▁des	-808
ik	-809
aries	-810
▁well	-811
orld	-812
▁disc	-813
man	-814
red	-815
▁aut	-816
▁bl	-817
way	-818
▁see	-819
▁Sp	-820
self	-821
ner	-822
▁pass	-823
ful	-824
▁stud	-825
ator	-826
▁typ	-827
escription	-828
▁i	-829
▁CVE	-830
air	-831
▁cur	-832
eng	-833
▁program	-834
ran	-835
▁most	-836
2,	-837
▁mem	-838
▁sm	-839
chool	-840
▁different	-841
▁8	-842
----	-843
▁supp	-844
reat	-845
ined	-846
ection	-847
uch	-848
velop	-849
▁Americ	-850
▁import	-851
▁inc	-852
eop	-853
ines	-854
ower	-855
10	-856
sp	-857
000	-858
▁direct	-859
▁Jo	-860
ouse	-861
the	-862
▁should	-863
▁cor	-864
▁oper	-865
▁being	-866
▁gr	-867
▁Z	-868
ision	-869
imes	-870
▁name	-871
▁again	-872
formation	-873
ically	-874
▁fam	-875
▁process	-876
▁example	-877
hip	-878
▁make	-879
▁At	-880
▁could	-881
bers	-882
rent	-883
ten	-884
▁attack	-885
eople	-886
erv	-887
ets	-888
▁own	-889
▁9	-890
rop	-891
ars	-892
▁op	-893
▁Cl	-894
▁found	-895
aj	-896
▁|	-897
ood	-898
▁When	-899
oot	-900
ames	-901
▁She	-902
The	-903
app	-904
yn	-905
▁both	-906
▁ext	-907
any	-908
▁requ	-909
▁real	-910
pr	-911
▁try	-912
▁comple	-913
▁before	-914
▁Sc	-915
sc	-916
ty	-917
▁because	-918
ale	-919
ason	-920
▁On	-921
▁New	-922
▁bel	-923
ton	-924
▁ed	-925
▁exec	-926
▁Description	-927
ule	-928
ann	-929
read	-930
ains	-931
ting	-932
▁conf	-933
▁sur	-934
▁Is	-935
▁const	-936
▁eff	-937
▁sign	-938
▁##	-939
ins	-940
▁z	-941
▁many	-942
ash	-943
mit	-944
ists	-945
▁After	-946
ger	-947
▁gu	-948
ml	-949
▁som	-950
ides	-951
▁develop	-952
▁10	-953
strong	-954
ving	-955
)$	-956
▁expl	-957
ah	-958
cy	-959
▁Tr	-960
https	-961
▁print	-962
ument	-963
ware	-964
15	-965
▁years	-966
lect	-967
▁Te	-968
▁now	-969
▁lar	-970
ta	-971
ral	-972
▁down	-973
▁object	-974
2.	-975
▁writ	-976
==	-977
ron	-978
▁cent	-979
▁command	-980
▁perform	-981
bo	-982
ature	-983
ross	-984
▁kill	-985
▁value	-986
ier	-987
bl	-988
▁access	-989
▁long	-990
▁mult	-991
▁following	-992
▁test	-993
▁local	-994
ives	-995
ism	-996
line	-997
indow	-998
ts	-999
angu	-1000
▁min	-1001
left	-1002
▁ra	-1003
▁*	-1004
ider	-1005
▁order	-1006
▁fl	-1007
▁fr	-1008
▁read	-1009
}}	-1010
arn	-1011
▁sing	-1012
urity	-1013
ters	-1014
▁$$\	-1015
▁poss	-1016
ished	-1017
)(	-1018
rary	-1019
▁life	-1020
ization	-1021
▁very	-1022
aking	-1023
my	-1024
▁mar	-1025
▁second	-1026
▁high	-1027
▁Con	-1028
▁est	-1029
▁However	-1030
▁American	-1031
▁main	-1032
py	-1033
▁during	-1034
abl	-1035
▁el	-1036
▁...	-1037
be	-1038
ify	-1039
python	-1040
▁three	-1041
ement	-1042
ull	-1043
▁1.	-1044
ource	-1045
3,	-1046
▁They	-1047
▁Mar	-1048
▁X	-1049
▁friend	-1050
▁car	-1051
▁people	-1052
ror	-1053
ven	-1054
▁inte	-1055
ething	-1056
▁don	-1057
ctions	-1058
inu	-1059
ability	-1060
▁198	-1061
▁dep	-1062
12	-1063
▁tell	-1064
▁even	-1065
▁applic	-1066
ric	-1067
▁lead	-1068
aces	-1069
az	-1070
▁given	-1071
inal	-1072
ern	-1073
ferences	-1074
▁pub	-1075
▁term	-1076
etwork	-1077
▁>	-1078
▁fact	-1079
▁take	-1080
-2	-1081
erson	-1082
rol	-1083
gg	-1084
▁appro	-1085
▁2.	-1086
ional	-1087
▁information	-1088
ized	-1089
side	-1090
▁files	-1091
atic	-1092
ired	-1093
arly	-1094
orth	-1095
▁family	-1096
play	-1097
▁later	-1098
▁product	-1099
oci	-1100
lt	-1101
▁Col	-1102
▁mon	-1103
ma	-1104
1.	-1105
min	-1106
▁partic	-1107
▁model	-1108
▁You	-1109
versaries	-1110
▁open	-1111
▁much	-1112
ially	-1113
rite	-1114
irc	-1115
ves	-1116
▁called	-1117
▁0.	-1118
▁So	-1119
▁home	-1120
chniques	-1121
▁12	-1122
▁orig	-1123
▁resp	-1124
▁known	-1125
▁197	-1126
▁small	-1127
▁head	-1128
con	-1129
▁Ind	-1130
▁child	-1131
▁something	-1132
ray	-1133
ality	-1134
▁vers	-1135
▁/	-1136
amed	-1137
▁right	-1138
gan	-1139
▁hand	-1140
▁rele	-1141
▁case	-1142
pos	-1143
▁without	-1144
11	-1145
eter	-1146
val	-1147
aper	-1148
ank	-1149
rid	-1150
▁web	-1151
▁bro	-1152
ene	-1153
▁charact	-1154
▁begin	-1155
ential	-1156
](	-1157
by	-1158
▁Can	-1159
▁python	-1160
▁:	-1161
▁another	-1162
ane	-1163
▁av	-1164
▁Ab	-1165
▁196	-1166
▁opt	-1167
4,	-1168
▁non	-1169
empt	-1170
/2	-1171
yle	-1172
hn	-1173
▁proper	-1174
▁count	-1175
▁user	-1176
wh	-1177
vent	-1178
ury	-1179
▁school	-1180
▁15	-1181
eb	-1182
alc	-1183
))	-1184
sh	-1185
▁Ph	-1186
▁since	-1187
▁around	-1188
▁father	-1189
▁log	-1190
attack	-1191
▁every	-1192
istr	-1193
▁But	-1194
▁Uni	-1195
".	-1196
uss	-1197
ccess	-1198
ffic	-1199
▁current	-1200
ately	-1201
oman	-1202
af	-1203
gor	-1204
ister	-1205
ole	-1206
▁Eng	-1207
▁langu	-1208
nof	-1209
mitre	-1210
nofollow	-1211
ital	-1212
indows	-1213
amb	-1214
par	-1215
▁17	-1216
▁question	-1217
▁art	-1218
▁self	-1219
▁Sec	-1220
▁che	-1221
▁via	-1222
ared	-1223
▁unt	-1224
uc	-1225
▁support	-1226
(\	-1227
▁good	-1228
ved	-1229
▁based	-1230
▁field	-1231
apt	-1232
ology	-1233
▁think	-1234
ords	-1235
ural	-1236
▁our	-1237
{1	-1238
son	-1239
▁eas	-1240
▁allows	-1241
▁beh	-1242
▁old	-1243
▁To	-1244
ball	-1245
ges	-1246
ret	-1247
versity	-1248
ring	-1249
▁last	-1250
ulation	-1251
itle	-1252
atch	-1253
▁multi	-1254
1)	-1255
ead	-1256
▁sever	-1257
inks	-1258
▁enc	-1259
▁elect	-1260
▁exper	-1261
▁16	-1262
▁}	-1263
▁pop	-1264
▁made	-1265
▁References	-1266
▁er	-1267
ected	-1268
▁stand	-1269
▁still	-1270
▁There	-1271
▁met	-1272
▁inf	-1273
▁seem	-1274
und	-1275
▁stat	-1276
ases	-1277
▁vis	-1278
itive	-1279
outh	-1280
▁series	-1281
html	-1282
irl	-1283
▁house	-1284
▁state	-1285
▁priv	-1286
▁prot	-1287
▁No	-1288
▁here	-1289
▁Be	-1290
mathb	-1291
▁design	-1292
3.	-1293
▁including	-1294
rt	-1295
$.	-1296
▁Man	-1297
▁until	-1298
ps	-1299
▁conn	-1300
▁John	-1301
hor	-1302
▁day	-1303
istory	-1304
enn	-1305
ody	-1306
ithm	-1307
5,	-1308
▁ident	-1309
▁script	-1310
unic	-1311
techniques	-1312
▁And	-1313
▁turn	-1314
doc	-1315
gy	-1316
mp	-1317
▁What	-1318
▁youn	-1319
ively	-1320
▁attempt	-1321
_2	-1322
ternal	-1323
▁care	-1324
▁network	-1325
19	-1326
oo	-1327
=\	-1328
alk	-1329
▁love	-1330
set	-1331
▁best	-1332
▁doc	-1333
da	-1334
arm	-1335
ley	-1336
ified	-1337
▁comput	-1338
▁place	-1339
▁answer	-1340
ai	-1341
▁202	-1342
▁cr	-1343
▁dr	-1344
rypt	-1345
▁must	-1346
ants	-1347
stand	-1348
ior	-1349
In	-1350
▁Me	-1351
▁United	-1352
▁area	-1353
▁(19	-1354
ots	-1355
▁195	-1356
tain	-1357
▁top	-1358
▁four	-1359
cent	-1360
ym	-1361
rect	-1362
arent	-1363
▁takes	-1364
▁solution	-1365
▁did	-1366
▁team	-1367
▁world	-1368
▁Su	-1369
www	-1370
▁20	-1371
▁med	-1372
▁sw	-1373
▁text	-1374
view	-1375
**	-1376
ilt	-1377
RE	-1378
ison	-1379
▁systems	-1380
▁bre	-1381
ape	-1382
led	-1383
▁several	-1384
rix	-1385
ness	-1386
▁build	-1387
▁struct	-1388
16	-1389
not	-1390
▁prom	-1391
8,	-1392
▁di	-1393
ience	-1394
ata	-1395
▁ref	-1396
▁Bl	-1397
▁prob	-1398
ctor	-1399
▁exist	-1400
▁Adversaries	-1401
ety	-1402
IT	-1403
▁arg	-1404
▁won	-1405
rodu	-1406
▁town	-1407
itions	-1408
▁consider	-1409
ining	-1410
▁appear	-1411
▁within	-1412
▁against	-1413
32	-1414
▁“	-1415
▁adv	-1416
▁let	-1417
▁large	-1418
Th	-1419
for	-1420
ided	-1421
ength	-1422
▁service	-1423
▁possible	-1424
isc	-1425
vious	-1426
▁book	-1427
ference	-1428
vert	-1429
▁Car	-1430
part	-1431
▁key	-1432
ables	-1433
▁left	-1434
▁post	-1435
ograph	-1436
bum	-1437
ott	-1438
ived	-1439
ster	-1440
▁bet	-1441
▁University	-1442
14	-1443
sq	-1444
mod	-1445
ured	-1446
work	-1447
AT	-1448
▁ide	-1449
▁single	-1450
key	-1451
}$$	-1452
let	-1453
here	-1454
▁mother	-1455
ples	-1456
▁general	-1457
▁cond	-1458
▁project	-1459
ser	-1460
▁Or	-1461
▁represent	-1462
ised	-1463
ina	-1464
▁having	-1465
▁Ed	-1466
7,	-1467
lib	-1468
▁1,	-1469
▁named	-1470
yl	-1471
▁194	-1472
bit	-1473
ency	-1474
▁version	-1475
▁functions	-1476
▁tem	-1477
▁path	-1478
▁mov	-1479
▁type	-1480
▁values	-1481
time	-1482
$,	-1483
uck	-1484
osed	-1485
net	-1486
▁becom	-1487
anc	-1488
▁Jun	-1489
iron	-1490
usic	-1491
_1	-1492
▁@	-1493
ask	-1494
ense	-1495
▁lib	-1496
▁power	-1497
▁works	-1498
▁string	-1499
ols	-1500
▁Res	-1501
13	-1502
▁bus	-1503
5.	-1504
aid	-1505
urs	-1506
plic	-1507
▁event	-1508
▁interest	-1509
▁May	-1510
ently	-1511
▁leav	-1512
idd	-1513
ird	-1514
alcul	-1515
▁lim	-1516
inc	-1517
plement	-1518
▁control	-1519
6,	-1520
▁space	-1521
less	-1522
ystem	-1523
▁anal	-1524
▁desc	-1525
▁ve	-1526
▁young	-1527
17	-1528
ilar	-1529
ero	-1530
ium	-1531
augh	-1532
itor	-1533
▁One	-1534
▁next	-1535
▁application	-1536
▁rad	-1537
("	-1538
▁dem	-1539
andom	-1540
aut	-1541
ume	-1542
▁able	-1543
▁rece	-1544
▁effect	-1545
▁sl	-1546
mber	-1547
▁level	-1548
▁3.	-1549
▁became	-1550
br	-1551
")	-1552
TT	-1553
▁et	-1554
.(	-1555
▁incre	-1556
gorithm	-1557
ype	-1558
▁along	-1559
estions	-1560
eed	-1561
▁integr	-1562
2}	-1563
▁Jan	-1564
iving	-1565
▁pres	-1566
30	-1567
▁present	-1568
ably	-1569
ything	-1570
▁Windows	-1571
18	-1572
ries	-1573
aster	-1574
▁away	-1575
999	-1576
▁Ge	-1577
ault	-1578
3)	-1579
lish	-1580
ission	-1581
('	-1582
▁fall	-1583
sqrt	-1584
▁girl	-1585
▁view	-1586
▁chang	-1587
▁success	-1588
▁those	-1589
▁death	-1590
▁dev	-1591
▁occ	-1592
▁simple	-1593
--------	-1594
▁div	-1595
▁prof	-1596
▁album	-1597
▁graph	-1598
▁language	-1599
▁specific	-1600
tr	-1601
iness	-1602
▁cle	-1603
▁eng	-1604
▁happ	-1605
▁cap	-1606
▁working	-1607
jang	-1608
ither	-1609
▁son	-1610
ittle	-1611
▁bound	-1612
▁change	-1613
▁tells	-1614
▁States	-1615
."	-1616
eg	-1617
med	-1618
▁person	-1619
cd	-1620
▁Pr	-1621
▁input	-1622
▁All	-1623
▁init	-1624
olution	-1625
▁common	-1626
▁really	-1627
▁put	-1628
▁mean	-1629
ee	-1630
ways	-1631
▁users	-1632
▁establ	-1633
▁sk	-1634
4.	-1635
▁meas	-1636
chn	-1637
ried	-1638
▁Mat	-1639
▁leg	-1640
▁goes	-1641
▁pack	-1642
▁above	-1643
▁links	-1644
')	-1645
oss	-1646
▁win	-1647
ember	-1648
hemat	-1649
▁doesn	-1650
▁character	-1651
reen	-1652
▁esc	-1653
ended	-1654
viron	-1655
▁implement	-1656
▁ins	-1657
▁mal	-1658
▁city	-1659
▁trying	-1660
25	-1661
▁write	-1662
ajor	-1663
▁wife	-1664
▁public	-1665
day	-1666
rist	-1667
▁offic	-1668
▁With	-1669
▁game	-1670
ends	-1671
▁cour	-1672
▁story	-1673
▁%	-1674
▁Comm	-1675
▁finds	-1676
▁express	-1677
face	-1678
ribut	-1679
▁manag	-1680
ches	-1681
ored	-1682
▁vol	-1683
▁po	-1684
.,	-1685
dis	-1686
▁output	-1687
ending	-1688
ague	-1689
class	-1690
▁Brit	-1691
ival	-1692
▁few	-1693
▁vill	-1694
though	-1695
▁former	-1696
▁algorithm	-1697
ats	-1698
ope	-1699
▁say	-1700
▁Ste	-1701
nal	-1702
▁numbers	-1703
20	-1704
wards	-1705
icle	-1706
▁avail	-1707
▁makes	-1708
▁introdu	-1709
ules	-1710
▁results	-1711
-0	-1712
▁Bo	-1713
chan	-1714
▁mag	-1715
acy	-1716
▁plan	-1717
▁contain	-1718
▁include	-1719
▁give	-1720
▁equation	-1721
ploy	-1722
▁del	-1723
▁uses	-1724
ertain	-1725
▁create	-1726
iver	-1727
▁Par	-1728
itional	-1729
▁instead	-1730
▁App	-1731
▁colle	-1732
▁His	-1733
▁14	-1734
▁11	-1735
2)	-1736
▁My	-1737
▁Ass	-1738
▁Aust	-1739
▁circ	-1740
▁module	-1741
▁points	-1742
▁By	-1743
▁comes	-1744
▁night	-1745
9,	-1746
icro	-1747
▁similar	-1748
▁keep	-1749
ream	-1750
que	-1751
▁dom	-1752
▁too	-1753
▁rest	-1754
ftware	-1755
▁iss	-1756
▁Count	-1757
▁determ	-1758
▁understand	-1759
▁National	-1760
omet	-1761
▁invol	-1762
▁means	-1763
▁become	-1764
▁better	-1765
pi	-1766
▁security	-1767
▁u	-1768
▁land	-1769
ites	-1770
{1}{	-1771
▁search	-1772
imal	-1773
▁record	-1774
▁den	-1775
▁pat	-1776
▁standard	-1777
ek	-1778
▁der	-1779
▁going	-1780
▁param	-1781
por	-1782
icious	-1783
▁World	-1784
rm	-1785
lev	-1786
▁install	-1787
▁Oct	-1788
▁comb	-1789
chnique	-1790
6.	-1791
▁Co	-1792
▁aff	-1793
▁gets	-1794
▁bas	-1795
▁reve	-1796
gether	-1797
▁together	-1798
▁across	-1799
name	-1800
▁foot	-1801
▁might	-1802
ling	-1803
ambda	-1804
▁account	-1805
▁War	-1806
▁less	-1807
▁short	-1808
▁himself	-1809
▁gl	-1810
▁near	-1811
▁)	-1812
ery	-1813
▁original	-1814
▁due	-1815
▁hum	-1816
aughter	-1817
▁models	-1818
▁particular	-1819
▁fail	-1820
▁execut	-1821
oid	-1822
ming	-1823
▁great	-1824
ST	-1825
ober	-1826
▁Am	-1827
-1999	-1828
arget	-1829
▁check	-1830
▁song	-1831
atures	-1832
▁environ	-1833
▁Gr	-1834
▁Char	-1835
▁port	-1836
▁available	-1837
34	-1838
35	-1839
WE	-1840
ney	-1841
stract	-1842
jango	-1843
▁company	-1844
▁Bar	-1845
style	-1846
▁mark	-1847
iction	-1848
':	-1849
▁Germ	-1850
▁break	-1851
▁frame	-1852
▁jo	-1853
▁becomes	-1854
raw	-1855
oney	-1856
mathbb	-1857
▁however	-1858
def	-1859
use	-1860
▁correct	-1861
rie	-1862
▁br	-1863
▁Aug	-1864
▁describ	-1865
iod	-1866
▁fre	-1867
ought	-1868
▁learn	-1869
▁External	-1870
▁belie	-1871
epend	-1872
▁various	-1873
▁Intern	-1874
cos	-1875
file	-1876
▁While	-1877
▁complex	-1878
▁hard	-1879
▁remote	-1880
0)	-1881
ged	-1882
ynam	-1883
▁relations	-1884
ey	-1885
▁built	-1886
7.	-1887
▁II	-1888
====	-1889
▁Let	-1890
▁norm	-1891
amples	-1892
▁seems	-1893
omen	-1894
vern	-1895
▁Fran	-1896
▁Canad	-1897
istic	-1898
▁Cont	-1899
▁size	-1900
co	-1901
▁ang	-1902
ula	-1903
▁season	-1904
▁friends	-1905
rem	-1906
ribution	-1907
eta	-1908
▁la	-1909
word	-1910
earch	-1911
ths	-1912
▁men	-1913
▁come	-1914
ilities	-1915
▁Reg	-1916
▁cho	-1917
angle	-1918
▁side	-1919
alth	-1920
▁sym	-1921
▁woman	-1922
8.	-1923
▁Im	-1924
back	-1925
imate	-1926
▁often	-1927
ification	-1928
>,	-1929
iter	-1930
▁calcul	-1931
},	-1932
aken	-1933
▁sugg	-1934
▁British	-1935
▁4.	-1936
▁server	-1937
▁document	-1938
aced	-1939
▁pot	-1940
▁sum	-1941
▁why	-1942
▁organ	-1943
pha	-1944
____	-1945
▁2,	-1946
▁sequ	-1947
▁Gu	-1948
▁imp	-1949
based	-1950
PI	-1951
lor	-1952
▁released	-1953
ung	-1954
▁York	-1955
ources	-1956
▁error	-1957
▁opp	-1958
▁caus	-1959
▁repl	-1960
urther	-1961
▁brother	-1962
▁running	-1963
ators	-1964
iting	-1965
▁sent	-1966
▁School	-1967
▁invest	-1968
sin	-1969
▁conc	-1970
▁police	-1971
▁returns	-1972
most	-1973
▁Fil	-1974
▁Min	-1975
▁continu	-1976
▁methods	-1977
ler	-1978
▁written	-1979
aim	-1980
aps	-1981
▁13	-1982
▁Cent	-1983
uments	-1984
▁gives	-1985
▁govern	-1986
▁children	-1987
Wh	-1988
▁Ne	-1989
▁never	-1990
load	-1991
▁looking	-1992
)</	-1993
duct	-1994
▁law	-1995
ament	-1996
▁music	-1997
▁address	-1998
▁host	-1999
▁move	-2000
ises	-2001
ivity	-2002
▁behav	-2003
▁below	-2004
▁either	-2005
▁Apr	-2006
▁squ	-2007
▁ht	-2008
ergy	-2009
imens	-2010
▁These	-2011
anks	-2012
ysis	-2013
▁Feb	-2014
▁Will	-2015
▁step	-2016
▁daughter	-2017
esp	-2018
▁Sam	-2019
icult	-2020
▁mess	-2021
▁Do	-2022
▁Pol	-2023
▁random	-2024
ms	-2025
▁mechan	-2026
stit	-2027
▁diff	-2028
▁La	-2029
born	-2030
ready	-2031
ike	-2032
▁Sim	-2033
▁author	-2034
▁business	-2035
▁ri	-2036
▁times	-2037
CK	-2038
▁Rec	-2039
▁meet	-2040
▁little	-2041
▁ear	-2042
\\	-2043
}^{	-2044
▁tot	-2045
igure	-2046
inary	-2047
],	-2048
yd	-2049
▁CWE	-2050
▁See	-2051
▁range	-2052
▁special	-2053
4)	-2054
SE	-2055
ination	-2056
▁Br	-2057
▁Dr	-2058
▁etc	-2059
IN	-2060
urch	-2061
▁South	-2062
▁accept	-2063
▁memory	-2064
iam	-2065
izes	-2066
▁length	-2067
▁source	-2068
▁(201	-2069
▁arch	-2070
▁cost	-2071
▁once	-2072
▁money	-2073
▁tries	-2074
▁English	-2075
▁actually	-2076
cdot	-2077
▁ever	-2078
▁begins	-2079
roll	-2080
▁sure	-2081
ention	-2082
display	-2083
▁Security	-2084
go	-2085
comm	-2086
▁Mod	-2087
▁band	-2088
▁free	-2089
▁cover	-2090
ires	-2091
▁Mc	-2092
▁paper	-2093
▁things	-2094
log	-2095
serv	-2096
▁Tom	-2097
▁always	-2098
▁compon	-2099
ean	-2100
▁Eu	-2101
ests	-2102
▁target	-2103
▁though	-2104
▁already	-2105
50	-2106
na	-2107
▁Ang	-2108
▁ask	-2109
ances	-2110
arrow	-2111
▁parent	-2112
5)	-2113
ML	-2114
▁track	-2115
▁County	-2116
36	-2117
unity	-2118
▁Part	-2119
▁flow	-2120
▁remain	-2121
(1	-2122
▁uni	-2123
▁gain	-2124
▁mass	-2125
▁advers	-2126
▁History	-2127
docs	-2128
uation	-2129
▁pract	-2130
▁reason	-2131
▁Dav	-2132
▁light	-2133
▁provide	-2134
▁capt	-2135
▁done	-2136
▁major	-2137
▁period	-2138
▁multiple	-2139
St	-2140
cle	-2141
▁Em	-2142
pect	-2143
▁Ser	-2144
▁dig	-2145
▁doing	-2146
▁polit	-2147
▁cou	-2148
nd	-2149
}{\	-2150
rict	-2151
▁Bro	-2152
▁MIT	-2153
▁early	-2154
▁variable	-2155
cer	-2156
▁Cal	-2157
▁bir	-2158
▁relationship	-2159
ache	-2160
▁Aut	-2161
▁located	-2162
▁members	-2163
urb	-2164
▁tw	-2165
ards	-2166
▁Gener	-2167
▁North	-2168
▁water	-2169
ama	-2170
col	-2171
rel	-2172
▁El	-2173
chie	-2174
raft	-2175
9.	-2176
▁deb	-2177
istor	-2178
inter	-2179
▁Then	-2180
▁cred	-2181
▁Christ	-2182
▁making	-2183
arg	-2184
▁bit	-2185
▁arriv	-2186
istrict	-2187
▁`	-2188
▁ATT	-2189
▁far	-2190
▁defin	-2191
▁problems	-2192
umb	-2193
▁--	-2194
▁hig	-2195
▁war	-2196
ON	-2197
ony	-2198
▁district	-2199
opy	-2200
url	-2201
ted	-2202
band	-2203
sing	-2204
▁job	-2205
ublic	-2206
▁perm	-2207
▁separ	-2208
▁cannot	-2209
omb	-2210
▁mur	-2211
▁miss	-2212
▁final	-2213
▁quant	-2214
▁study	-2215
ording	-2216
▁engine	-2217
▁played	-2218
▁Technique	-2219
▁performance	-2220
ians	-2221
▁Not	-2222
ocial	-2223
▁else	-2224
▁fore	-2225
▁phys	-2226
▁site	-2227
▁unit	-2228
rees	-2229
▁bar	-2230
ering	-2231
▁MITRE	-2232
▁previous	-2233
site	-2234
▁####	-2235
▁report	-2236
▁important	-2237
▁environment	-2238
▁US	-2239
This	-2240
▁films	-2241
▁associ	-2242
itch	-2243
▁100	-2244
33	-2245
ilit	-2246
reet	-2247
▁library	-2248
bar	-2249
▁config	-2250
▁That	-2251
▁Go	-2252
flow	-2253
▁total	-2254
▁rather	-2255
▁station	-2256
odes	-2257
path	-2258
▁dri	-2259
ustom	-2260
▁matrix	-2261
▁Mr	-2262
▁refer	-2263
▁village	-2264
▁said	-2265
ishing	-2266
▁least	-2267
▁services	-2268
ava	-2269
pped	-2270
▁grow	-2271
ana	-2272
▁body	-2273
▁Austral	-2274
displaystyle	-2275
date	-2276
▁seen	-2277
▁soon	-2278
▁match	-2279
▁terms	-2280
iment	-2281
▁West	-2282
▁exact	-2283
-\	-2284
ogle	-2285
pper	-2286
▁ver	-2287
abase	-2288
▁shows	-2289
▁During	-2290
▁malicious	-2291
theta	-2292
▁King	-2293
▁created	-2294
▁District	-2295
▁ste	-2296
▁execute	-2297
▁Abstract	-2298
29	-2299
enc	-2300
inux	-2301
▁Har	-2302
▁ann	-2303
▁admin	-2304
▁obtain	-2305
aches	-2306
block	-2307
▁page	-2308
ales	-2309
soft	-2310
▁Dec	-2311
▁got	-2312
7)	-2313
ox	-2314
ging	-2315
search	-2316
▁career	-2317
lex	-2318
▁Bu	-2319
▁techn	-2320
▁country	-2321
24	-2322
imum	-2323
▁compet	-2324
▁except	-2325
8)	-2326
dom	-2327
erry	-2328
▁(200	-2329
▁lines	-2330
oud	-2331
ush	-2332
ties	-2333
▁pri	-2334
▁true	-2335
▁energy	-2336
levision	-2337
ighb	-2338
▁cli	-2339
lease	-2340
lying	-2341
ories	-2342
times	-2343
:4	-2344
ector	-2345
▁contains	-2346
ica	-2347
ops	-2348
resp	-2349
▁mach	-2350
icrosoft	-2351
▁development	-2352
>.	-2353
add	-2354
▁pay	-2355
begin	-2356
friend	-2357
LL	-2358
ij	-2359
ump	-2360
▁Ju	-2361
lambda	-2362
▁State	-2363
▁profess	-2364
=0	-2365
orph	-2366
▁Med	-2367
▁leave	-2368
ography	-2369
How	-2370
orem	-2371
▁max	-2372
▁fight	-2373
▁whose	-2374
++	-2375
aul	-2376
ius	-2377
▁City	-2378
▁leaves	-2379
▁club	-2380
▁days	-2381
▁load	-2382
alf	-2383
▁Val	-2384
▁fix	-2385
▁hold	-2386
▁sett	-2387
lished	-2388
mathrm	-2389
▁impro	-2390
▁super	-2391
▁approach	-2392
do	-2393
list	-2394
▁decides	-2395
▁position	-2396
equ	-2397
ideo	-2398
rest	-2399
▁quick	-2400
▁variables	-2401
ny	-2402
sum	-2403
head	-2404
▁base	-2405
sub	-2406
▁25	-2407
▁Ag	-2408
Is	-2409
0000	-2410
wise	-2411
▁Acc	-2412
▁lab	-2413
aring	-2414
▁full	-2415
▁equal	-2416
▁certain	-2417
▁eventually	-2418
verse	-2419
▁idea	-2420
ounter	-2421
ration	-2422
▁cross	-2423
80	-2424
dd	-2425
hent	-2426
▁discover	-2427
uk	-2428
unk	-2429
unch	-2430
Python	-2431
illion	-2432
ruction	-2433
ze	-2434
che	-2435
ino	-2436
uary	-2437
ising	-2438
▁contin	-2439
▁software	-2440
used	-2441
alpha	-2442
▁runs	-2443
hentic	-2444
idence	-2445
▁autom	-2446
▁taken	-2447
▁defined	-2448
AR	-2449
Pro	-2450
etime	-2451
usion	-2452
▁killed	-2453
▁secret	-2454
▁air	-2455
import	-2456
_0	-2457
▁Sw	-2458
dict	-2459
inally	-2460
▁table	-2461
▁football	-2462
met	-2463
▁follows	-2464
▁respect	-2465
▁structure	-2466
39	-2467
6)	-2468
SS	-2469
ael	-2470
▁http	-2471
▁element	-2472
▁framework	-2473
If	-2474
uth	-2475
▁Comp	-2476
▁June	-2477
▁pair	-2478
▁pers	-2479
utions	-2480
unction	-2481
=1	-2482
}_{	-2483
▁Serv	-2484
▁five	-2485
▁vict	-2486
▁member	-2487
like	-2488
▁grad	-2489
▁redu	-2490
lement	-2491
cal	-2492
▁zero	-2493
▁extens	-2494
iles	-2495
▁Post	-2496
▁crit	-2497
ological	-2498
▁elements	-2499
ram	-2500
▁Rep	-2501
ulner	-2502
▁party	-2503
▁regular	-2504
37	-2505
▁==	-2506
▁nec	-2507
▁root	-2508
▁sets	-2509
▁Colle	-2510
▁title	-2511
1]	-2512
aff	-2513
oph	-2514
▁sit	-2515
omial	-2516
▁dest	-2517
▁distance	-2518
eder	-2519
▁Title	-2520
+\	-2521
22	-2522
bol	-2523
▁item	-2524
▁Since	-2525
▁names	-2526
fty	-2527
osp	-2528
▁achie	-2529
xim	-2530
▁\\	-2531
ille	-2532
▁low	-2533
iddle	-2534
▁Mich	-2535
ya	-2536
▁lot	-2537
▁conv	-2538
▁murder	-2539
▁connect	-2540
▁require	-2541
200	-2542
▁camp	-2543
▁tried	-2544
▁features	-2545
new	-2546
▁iter	-2547
▁itself	-2548
▁content	-2549
edd	-2550
oad	-2551
ones	-2552
▁Ben	-2553
▁box	-2554
action	-2555
plit	-2556
▁says	-2557
▁neighb	-2558
▁strong	-2559
▁privile	-2560
sequ	-2561
▁Div	-2562
▁Now	-2563
▁deg	-2564
▁Here	-2565
▁offer	-2566
▁valid	-2567
▁encrypt	-2568
ham	-2569
quote	-2570
▁room	-2571
▁course	-2572
▁inside	-2573
▁commands	-2574
▁population	-2575
opt	-2576
medi	-2577
▁Per	-2578
▁mot	-2579
▁From	-2580
▁kind	-2581
▁Europ	-2582
▁block	-2583
▁century	-2584
88	-2585
▁Raj	-2586
while	-2587
▁rate	-2588
)\	-2589
reg	-2590
ours	-2591
umber	-2592
▁past	-2593
▁independ	-2594
▁distribution	-2595
bra	-2596
elta	-2597
▁Her	-2598
▁System	-2599
fficient	-2600
64	-2601
>&	-2602
box	-2603
▁Sm	-2604
aged	-2605
lymp	-2606
nown	-2607
▁Mac	-2608
▁wid	-2609
atter	-2610
infty	-2611
▁cell	-2612
▁link	-2613
▁press	-2614
uration	-2615
▁currently	-2616
ER	-2617
irt	-2618
ude	-2619
▁big	-2620
ouble	-2621
▁Trans	-2622
▁theory	-2623
▁instance	-2624
▁ge	-2625
▁hor	-2626
▁prim	-2627
usband	-2628
▁enough	-2629
▁measure	-2630
▁students	-2631
▁adversary	-2632
▁directory	-2633
▁ant	-2634
acing	-2635
ournal	-2636
▁First	-2637
▁March	-2638
▁looks	-2639
60	-2640
ky	-2641
ili	-2642
QL	-2643
ci	-2644
hood	-2645
▁Sch	-2646
▁trad	-2647
lu	-2648
▁ut	-2649
alse	-2650
▁nat	-2651
▁among	-2652
▁whether	-2653
▁writing	-2654
▁flo	-2655
▁Olymp	-2656
▁force	-2657
▁frequ	-2658
▁thing	-2659
▁August	-2660
▁groups	-2661
ply	-2662
ceed	-2663
init	-2664
order	-2665
▁third	-2666
▁30	-2667
ffer	-2668
▁abs	-2669
▁saf	-2670
▁sem	-2671
▁lower	-2672
▁initial	-2673
▁__	-2674
ails	-2675
asing	-2676
eters	-2677
▁normal	-2678
▁discuss	-2679
▁building	-2680
ground	-2681
verage	-2682
▁applications	-2683
:5	-2684
uff	-2685
▁Jul	-2686
▁clos	-2687
▁live	-2688
▁objects	-2689
ivid	-2690
▁lives	-2691
▁Research	-2692
▁government	-2693
ha	-2694
rew	-2695
iff	-2696
iki	-2697
now	-2698
oring	-2699
ession	-2700
▁feature	-2701
▁husband	-2702
▁players	-2703
blockquote	-2704
Ex	-2705
eak	-2706
lin	-2707
▁deal	-2708
▁added	-2709
▁cause	-2710
▁analysis	-2711
▁database	-2712
iet	-2713
ocal	-2714
▁Art	-2715
iding	-2716
▁pret	-2717
▁claim	-2718
▁January	-2719
▁outside	-2720
ara	-2721
phi	-2722
▁phot	-2723
▁human	-2724
▁select	-2725
▁finally	-2726
▁difficult	-2727
+1	-2728
}^	-2729
▁came	-2730
▁observ	-2731
OS	-2732
xy	-2733
estern	-2734
▁signific	-2735
']	-2736
ki	-2737
▁Math	-2738
hematics	-2739
▁ter	-2740
ordin	-2741
▁arbit	-2742
▁disco	-2743
▁vector	-2744
su	-2745
rong	-2746
▁sus	-2747
▁shown	-2748
▁further	-2749
AN	-2750
▁cy	-2751
▁eval	-2752
▁assum	-2753
▁dynam	-2754
▁sequence	-2755
▁construct	-2756
ald	-2757
▁Fr	-2758
raction	-2759
▁custom	-2760
ook	-2761
▁Cor	-2762
▁neg	-2763
▁born	-2764
aterial	-2765
▁married	-2766
);	-2767
gen	-2768
▁Act	-2769
rench	-2770
▁served	-2771
oon	-2772
array	-2773
cember	-2774
▁default	-2775
▁characters	-2776
▁21	-2777
apan	-2778
▁Sol	-2779
▁thought	-2780
▁constant	-2781
▁required	-2782
ae	-2783
uses	-2784
conom	-2785
▁entire	-2786
▁existing	-2787
27	-2788
40	-2789
What	-2790
attle	-2791
gebra	-2792
▁effic	-2793
▁region	-2794
▁equations	-2795
ris	-2796
▁Op	-2797
▁sold	-2798
▁player	-2799
me	-2800
▁Def	-2801
▁July	-2802
▁dire	-2803
▁positive	-2804
ills	-2805
▁aud	-2806
▁High	-2807
▁easy	-2808
▁late	-2809
atform	-2810
▁close	-2811
▁questions	-2812
▁Mon	-2813
▁boy	-2814
respond	-2815
▁Ac	-2816
....	-2817
▁meets	-2818
▁anyone	-2819
▁getting	-2820
▁investig	-2821
▁television	-2822
▁—	-2823
ayer	-2824
▁Jack	-2825
▁Russ	-2826
▁League	-2827
▁others	-2828
▁mechanism	-2829
iol	-2830
lim	-2831
▁mer	-2832
▁image	-2833
▁history	-2834
▁computer	-2835
▁included	-2836
▁Microsoft	-2837
▁Mark	-2838
▁Mean	-2839
▁wants	-2840
▁communic	-2841
ares	-2842
▁Dan	-2843
▁Don	-2844
uture	-2845
arning	-2846
▁started	-2847
201	-2848
amer	-2849
ounds	-2850
▁role	-2851
▁events	-2852
▁related	-2853
▁considered	-2854
28	-2855
hi	-2856
igma	-2857
ached	-2858
▁German	-2859
▁changes	-2860
▁section	-2861
▁December	-2862
rap	-2863
uel	-2864
orts	-2865
▁David	-2866
▁anything	-2867
▁probability	-2868
▁5.	-2869
lier	-2870
rupt	-2871
▁hom	-2872
▁April	-2873
ico	-2874
arth	-2875
▁lik	-2876
▁star	-2877
▁interpre	-2878
adem	-2879
▁Mag	-2880
▁rob	-2881
▁simply	-2882
▁General	-2883
▁popular	-2884
▁os	-2885
ched	-2886
rang	-2887
▁Tur	-2888
▁coll	-2889
▁ship	-2890
▁Linux	-2891
▁black	-2892
▁Canada	-2893
▁states	-2894
▁threat	-2895
ID	-2896
iem	-2897
▁Sept	-2898
ribute	-2899
▁propos	-2900
▁thread	-2901
unt	-2902
pose	-2903
type	-2904
istry	-2905
▁Sing	-2906
▁numer	-2907
ovember	-2908
▁reveal	-2909
▁attacks	-2910
▁significant	-2911
)$$	-2912
▁Sub	-2913
▁red	-2914
▁ren	-2915
dfrac	-2916
where	-2917
▁women	-2918
▁developed	-2919
ese	-2920
iers	-2921
▁Web	-2922
known	-2923
▁sens	-2924
▁solve	-2925
26	-2926
open	-2927
rror	-2928
▁Hel	-2929
igned	-2930
▁taking	-2931
▁administr	-2932
▁International	-2933
eps	-2934
▁San	-2935
acher	-2936
▁fire	-2937
▁took	-2938
▁word	-2939
▁Japan	-2940
cript	-2941
itted	-2942
process	-2943
▁French	-2944
▁employ	-2945
▁display	-2946
▁equival	-2947
.)	-2948
▁types	-2949
ampions	-2950
▁production	-2951
}(	-2952
from	-2953
iven	-2954
▁dead	-2955
▁travel	-2956
▁College	-2957
▁property	-2958
Cl	-2959
ele	-2960
ift	-2961
off	-2962
ogn	-2963
▁Some	-2964
▁higher	-2965
▁spaces	-2966
▁provides	-2967
▁conditions	-2968
▁List	-2969
▁House	-2970
▁began	-2971
ilitary	-2972
▁directly	-2973
▁difference	-2974
05	-2975
aly	-2976
han	-2977
obal	-2978
omin	-2979
▁#####	-2980
▁Inter	-2981
▁escape	-2982
▁usually	-2983
▁probably	-2984
top	-2985
▁wa	-2986
▁upon	-2987
▁individ	-2988
▁approxim	-2989
▁research	-2990
38	-2991
[0	-2992
comp	-2993
ortun	-2994
▁speed	-2995
▁turns	-2996
▁behind	-2997
▁necess	-2998
▁vulner	-2999
▁package	-3000
▁pattern	-3001
▁private	-3002
▁correspond	-3003
▁successful	-3004
21	-3005
▁tool	-3006
▁limit	-3007
▁William	-3008
▁formula	-3009
▁attackers	-3010
▁established	-3011
abs	-3012
▁mom	-3013
▁feel	-3014
▁domain	-3015
ien	-3016
▁ago	-3017
▁rev	-3018
▁row	-3019
▁six	-3020
▁Class	-3021
▁needs	-3022
-1999-1	-3023
▁addition	-3024
ores	-3025
▁Che	-3026
▁Find	-3027
▁store	-3028
▁sister	-3029
▁website	-3030
/00	-3031
You	-3032
ief	-3033
ateg	-3034
lied	-3035
▁Mal	-3036
lands	-3037
▁talk	-3038
▁assist	-3039
▁figure	-3040
▁Michael	-3041
abilities	-3042
hentication	-3043
04	-3044
mar	-3045
var	-3046
▁ens	-3047
unicip	-3048
▁calls	-3049
▁action	-3050
▁appears	-3051
▁consist	-3052
▁November	-3053
umn	-3054
▁Gl	-3055
▁bi	-3056
cing	-3057
eloc	-3058
ican	-3059
▁pain	-3060
▁synt	-3061
▁wrong	-3062
ibility	-3063
▁Pre	-3064
▁educ	-3065
▁demon	-3066
▁issue	-3067
▁moved	-3068
▁video	-3069
ynomial	-3070
▁million	-3071
▁material	-3072
▁produced	-3073
▁arbitrary	-3074
▁execution	-3075
sy	-3076
umer	-3077
▁yet	-3078
ruary	-3079
▁linear	-3080
▁starts	-3081
▁leaving	-3082
cast	-3083
▁Dep	-3084
▁kid	-3085
▁led	-3086
▁nov	-3087
▁polic	-3088
▁proof	-3089
▁machine	-3090
09	-3091
59	-3092
we	-3093
urg	-3094
▁3,	-3095
****	-3096
ying	-3097
▁Att	-3098
▁ways	-3099
▁whole	-3100
▁almost	-3101
▁depend	-3102
▁October	-3103
▁potential	-3104
)=	-3105
For	-3106
edia	-3107
onse	-3108
izing	-3109
print	-3110
▁Paper	-3111
▁accom	-3112
▁tools	-3113
▁Meanwhile	-3114
ken	-3115
rote	-3116
level	-3117
▁center	-3118
▁training	-3119
▁reference	-3120
▁properties	-3121
ands	-3122
itect	-3123
▁ends	-3124
▁cases	-3125
book	-3126
cont	-3127
gress	-3128
pping	-3129
▁Just	-3130
▁fund	-3131
▁thus	-3132
mathbf	-3133
▁index	-3134
▁attempts	-3135
/"	-3136
ners	-3137
▁explain	-3138
▁parents	-3139
▁February	-3140
▁includes	-3141
▁ep	-3142
▁ill	-3143
▁rat	-3144
overn	-3145
▁half	-3146
▁privileges	-3147
-4	-3148
ME	-3149
▁enter	-3150
▁complete	-3151
▁September	-3152
ags	-3153
har	-3154
down	-3155
▁Jim	-3156
▁isn	-3157
▁Also	-3158
▁someone	-3159
▁Afr	-3160
▁sort	-3161
mathcal	-3162
▁compil	-3163
▁classes	-3164
▁behavior	-3165
,\	-3166
78	-3167
mat	-3168
ders	-3169
rown	-3170
▁Paul	-3171
▁asks	-3172
▁road	-3173
istics	-3174
▁coach	-3175
▁although	-3176
▁programming	-3177
▁sex	-3178
▁ball	-3179
▁falls	-3180
▁style	-3181
▁Indian	-3182
▁amount	-3183
▁context	-3184
75	-3185
▁API	-3186
▁Det	-3187
▁date	-3188
▁stay	-3189
▁front	-3190
mu	-3191
tt	-3192
ext	-3193
ades	-3194
year	-3195
▁argument	-3196
AC	-3197
ho	-3198
▁Sl	-3199
hern	-3200
▁pur	-3201
▁north	-3202
▁factor	-3203
cil	-3204
▁Cons	-3205
ifying	-3206
itting	-3207
▁clear	-3208
▁games	-3209
ecially	-3210
▁earlier	-3211
▁condition	-3212
▁Gree	-3213
▁None	-3214
▁plot	-3215
▁conver	-3216
▁indust	-3217
▁prison	-3218
▁worked	-3219
It	-3220
exe	-3221
sel	-3222
▁Kar	-3223
▁Law	-3224
▁Mary	-3225
▁held	-3226
change	-3227
ociety	-3228
▁Angel	-3229
▁future	-3230
])	-3231
ev	-3232
gu	-3233
rian	-3234
utes	-3235
▁Dem	-3236
▁Nov	-3237
▁Phil	-3238
▁stop	-3239
elocity	-3240
▁additional	-3241
ED	-3242
LM	-3243
arily	-3244
▁larg	-3245
▁week	-3246
▁words	-3247
▁transl	-3248
▁learning	-3249
agon	-3250
rain	-3251
▁cat	-3252
▁fac	-3253
▁foc	-3254
▁sat	-3255
antic	-3256
range	-3257
▁draw	-3258
▁Govern	-3259
▁option	-3260
▁college	-3261
eff	-3262
▁movie	-3263
▁schem	-3264
▁review	-3265
▁location	-3266
▁parameter	-3267
AS	-3268
db	-3269
otes	-3270
pass	-3271
▁Expl	-3272
▁Prov	-3273
library	-3274
▁social	-3275
▁operations	-3276
▁$(	-3277
▁22	-3278
▁${\	-3279
▁Out	-3280
▁Open	-3281
▁went	-3282
▁India	-3283
▁wrote	-3284
▁couple	-3285
▁dimens	-3286
▁victim	-3287
▁maintain	-3288
▁Mart	-3289
▁Thanks	-3290
▁programs	-3291
▁published	-3292
AL	-3293
writ	-3294
▁10.	-3295
ested	-3296
▁viol	-3297
▁altern	-3298
▁market	-3299
▁exactly	-3300
▁received	-3301
▁community	-3302
100	-3303
▁{\	-3304
aker	-3305
light	-3306
▁array	-3307
▁recent	-3308
▁definition	-3309
86	-3310
ocol	-3311
field	-3312
▁Other	-3313
▁indic	-3314
▁shoot	-3315
▁natural	-3316
▁surface	-3317
▁Red	-3318
▁Tex	-3319
▁age	-3320
oding	-3321
older	-3322
▁2006	-3323
▁gang	-3324
▁lost	-3325
▁quite	-3326
ression	-3327
aves	-3328
▁Nor	-3329
▁tree	-3330
partial	-3331
▁subject	-3332
▁expression	-3333
oll	-3334
tic	-3335
ford	-3336
itar	-3337
uate	-3338
with	-3339
▁Bel	-3340
▁esp	-3341
group	-3342
ledge	-3343
ridge	-3344
▁deriv	-3345
atively	-3346
▁useful	-3347
▁missing	-3348
▁Division	-3349
oted	-3350
▁stri	-3351
▁incor	-3352
▁living	-3353
uri	-3354
▁map	-3355
▁round	-3356
▁trust	-3357
▁temper	-3358
▁America	-3359
▁respons	-3360
▁operation	-3361
55	-3362
ady	-3363
aging	-3364
asons	-3365
▁More	-3366
▁pick	-3367
▁remov	-3368
▁needed	-3369
▁collect	-3370
▁coordin	-3371
OR	-3372
()</	-3373
olds	-3374
quad	-3375
test	-3376
urrent	-3377
▁parts	-3378
▁prove	-3379
▁associated	-3380
▁Up	-3381
fact	-3382
ilon	-3383
▁Port	-3384
▁avoid	-3385
▁chall	-3386
▁occur	-3387
▁Django	-3388
▁arrives	-3389
^3	-3390
vec	-3391
amma	-3392
gers	-3393
▁File	-3394
▁Rich	-3395
▁ring	-3396
▁Black	-3397
▁password	-3398
----------------	-3399
Con	-3400
fect	-3401
▁Scott	-3402
▁apart	-3403
▁happen	-3404
▁quickly	-3405
▁theorem	-3406
▁demonstr	-3407
▁examples	-3408
LE	-3409
──	-3410
aby	-3411
}$.	-3412
▁sil	-3413
▁Data	-3414
▁send	-3415
▁charge	-3416
▁_	-3417
fig	-3418
fil	-3419
▁Pat	-3420
▁Roy	-3421
ondon	-3422
▁face	-3423
▁Using	-3424
▁detect	-3425
▁format	-3426
▁direction	-3427
▁languages	-3428
▁transform	-3429
▁everything	-3430
IS	-3431
▁24	-3432
▁Ev	-3433
▁prec	-3434
iation	-3435
▁activ	-3436
stitute	-3437
▁immedi	-3438
▁described	-3439
lie	-3440
ued	-3441
▁Mo	-3442
orge	-3443
▁Dig	-3444
▁gen	-3445
▁Year	-3446
▁sample	-3447
▁complet	-3448
▁student	-3449
▁designed	-3450
▁ax	-3451
riage	-3452
write	-3453
▁(199	-3454
▁Film	-3455
▁Spec	-3456
entials	-3457
▁longer	-3458
▁establish	-3459
▁adversaries	-3460
66	-3461
ams	-3462
aur	-3463
olf	-3464
inst	-3465
▁dog	-3466
ander	-3467
osing	-3468
ranch	-3469
▁Pres	-3470
▁James	-3471
▁estim	-3472
▁reveals	-3473
▁component	-3474
Tr	-3475
men	-3476
space	-3477
▁surv	-3478
source	-3479
▁birth	-3480
orthern	-3481
▁message	-3482
▁official	-3483
2\	-3484
89	-3485
▁Lu	-3486
▁Int	-3487
▁Vol	-3488
▁Alex	-3489
▁died	-3490
▁months	-3491
▁velocity	-3492
As	-3493
^{\	-3494
ibly	-3495
ensity	-3496
▁train	-3497
▁release	-3498
hematical	-3499
▁transfer	-3500
▁Australia	-3501
▁discovers	-3502
ET	-3503
more	-3504
▁Bob	-3505
ouncil	-3506
▁Frank	-3507
▁online	-3508
========	-3509
▁platform	-3510
▁statement	-3511
,"	-3512
emb	-3513
▁Joe	-3514
▁treat	-3515
▁client	-3516
▁easily	-3517
▁screen	-3518
entially	-3519
▁average	-3520
▁involved	-3521
▁4,	-3522
bert	-3523
host	-3524
uated	-3525
▁Java	-3526
▁Park	-3527
▁whom	-3528
artment	-3529
▁London	-3530
▁volume	-3531
▁Although	-3532
▁polynomial	-3533
ivil	-3534
icles	-3535
ously	-3536
▁slow	-3537
▁Group	-3538
▁Peter	-3539
▁scene	-3540
▁views	-3541
BC	-3542
{{	-3543
▁Li	-3544
hing	-3545
▁Mex	-3546
color	-3547
point	-3548
▁cand	-3549
▁driv	-3550
▁insp	-3551
▁south	-3552
▁recogn	-3553
▁signal	-3554
mail	-3555
▁cut	-3556
▁ris	-3557
ensive	-3558
omorph	-3559
▁econom	-3560
▁equivalent	-3561
▁independent	-3562
84	-3563
87	-3564
win	-3565
).</	-3566
▁Are	-3567
▁Stud	-3568
▁reach	-3569
▁sense	-3570
▁finite	-3571
▁moment	-3572
▁leading	-3573
▁national	-3574
▁solutions	-3575
ena	-3576
vis	-3577
▁hit	-3578
Error	-3579
astic	-3580
▁mind	-3581
▁marry	-3582
▁shell	-3583
▁sound	-3584
▁intern	-3585
▁creating	-3586
▁identity	-3587
▁determine	-3588
▁especially	-3589
""	-3590
▁Bec	-3591
▁Ber	-3592
▁Two	-3593
▁trou	-3594
object	-3595
▁Texas	-3596
▁yield	-3597
ception	-3598
▁device	-3599
▁prompt	-3600
▁square	-3601
▁comment	-3602
▁provided	-3603
eat	-3604
▁bad	-3605
▁hot	-3606
which	-3607
▁analy	-3608
▁visit	-3609
▁Comput	-3610
▁integer	-3611
▁operating	-3612
[[	-3613
cher	-3614
icks	-3615
elling	-3616
▁heart	-3617
-3	-3618
CP	-3619
}}{	-3620
▁Its	-3621
▁Pal	-3622
▁gre	-3623
▁fine	-3624
▁loop	-3625
▁grand	-3626
▁princ	-3627
▁simpl	-3628
▁separate	-3629
▁configuration	-3630
:\	-3631
zz	-3632
oul	-3633
rug	-3634
string	-3635
▁spect	-3636
▁matter	-3637
▁accident	-3638
rightarrow	-3639
▁resources	-3640
ager	-3641
▁rule	-3642
▁sees	-3643
▁Direct	-3644
▁inform	-3645
▁military	-3646
ett	-3647
▁emb	-3648
▁Note	-3649
▁appe	-3650
▁areas	-3651
▁England	-3652
▁conduct	-3653
▁experiment	-3654
65	-3655
DE	-3656
ils	-3657
van	-3658
▁||	-3659
▁Thom	-3660
▁acqu	-3661
ructure	-3662
▁degree	-3663
▁office	-3664
▁pretty	-3665
▁municip	-3666
▁request	-3667
▁electron	-3668
script	-3669
▁modern	-3670
23	-3671
gi	-3672
lood	-3673
▁Ori	-3674
▁mis	-3675
plate	-3676
▁cult	-3677
▁River	-3678
▁angle	-3679
▁beaut	-3680
▁forms	-3681
▁prior	-3682
▁ground	-3683
▁reading	-3684
ampionship	-3685
▁architect	-3686
$$,	-3687
▁27	-3688
▁6.	-3689
▁Rem	-3690
ellow	-3691
▁Miss	-3692
▁scen	-3693
▁fixed	-3694
▁personal	-3695
▁interface	-3696
▁implementation	-3697
bu	-3698
jo	-3699
annel	-3700
front	-3701
ropri	-3702
▁mode	-3703
▁vert	-3704
▁mount	-3705
▁closed	-3706
▁define	-3707
▁generate	-3708
▁detection	-3709
$-	-3710
▁?	-3711
▁q	-3712
_{\	-3713
foo	-3714
ocr	-3715
▁Ob	-3716
▁189	-3717
▁Dis	-3718
▁rot	-3719
atory	-3720
idden	-3721
▁Bill	-3722
▁board	-3723
▁throw	-3724
▁destro	-3725
▁double	-3726
▁concept	-3727
ago	-3728
▁Our	-3729
anation	-3730
century	-3731
ospital	-3732
▁Associ	-3733
▁announ	-3734
▁believe	-3735
▁comprom	-3736
▁playing	-3737
▁teacher	-3738
ii	-3739
no	-3740
ye	-3741
avy	-3742
uge	-3743
uit	-3744
▁5,	-3745
>.</	-3746
▁exc	-3747
▁rap	-3748
▁2009	-3749
▁2017	-3750
▁brow	-3751
▁cast	-3752
▁stru	-3753
▁units	-3754
▁products	-3755
49	-3756
69	-3757
OM	-3758
▁Ap	-3759
oper	-3760
well	-3761
wood	-3762
▁East	-3763
▁Later	-3764
▁Rober	-3765
▁convert	-3766
IC	-3767
df	-3768
~~	-3769
$$.	-3770
arr	-3771
alle	-3772
ario	-3773
icit	-3774
▁Add	-3775
▁Ham	-3776
inite	-3777
ville	-3778
▁farm	-3779
▁radio	-3780
▁setting	-3781
▁integral	-3782
▁keys	-3783
▁compos	-3784
▁recomm	-3785
▁Service	-3786
▁experience	-3787
▁0,	-3788
▁Any	-3789
▁url	-3790
ients	-3791
▁bott	-3792
issions	-3793
▁traffic	-3794
▁directed	-3795
([	-3796
AP	-3797
▁hop	-3798
▁Inst	-3799
▁news	-3800
▁rock	-3801
etimes	-3802
module	-3803
selves	-3804
strict	-3805
▁Party	-3806
▁rules	-3807
▁wonder	-3808
▁returned	-3809
▁arguments	-3810
▁beginning	-3811
My	-3812
ully	-3813
▁Most	-3814
atives	-3815
▁novel	-3816
▁formed	-3817
▁offers	-3818
_3	-3819
hib	-3820
irm	-3821
enge	-3822
onom	-3823
▁ten	-3824
anger	-3825
eated	-3826
▁Supp	-3827
▁decl	-3828
▁arrest	-3829
▁fields	-3830
▁herself	-3831
▁introduced	-3832
2]	-3833
itz	-3834
▁Use	-3835
▁fav	-3836
▁pict	-3837
ometry	-3838
▁email	-3839
▁weight	-3840
atically	-3841
▁contact	-3842
▁necessary	-3843
▁parameters	-3844
rd	-3845
bin	-3846
och	-3847
▁2:	-3848
beta	-3849
apter	-3850
ption	-3851
round	-3852
▁Hall	-3853
outher	-3854
▁Roman	-3855
▁diction	-3856
▁meaning	-3857
▁mention	-3858
▁practice	-3859
▁Information	-3860
07	-3861
})	-3862
oms	-3863
leep	-3864
iforn	-3865
outhern	-3866
▁advant	-3867
▁changed	-3868
▁improve	-3869
▁typically	-3870
▁increasing	-3871
Al	-3872
pty	-3873
▁${	-3874
mark	-3875
rive	-3876
▁coe	-3877
▁mor	-3878
▁Disc	-3879
▁scal	-3880
▁walk	-3881
ashing	-3882
irtual	-3883
▁accur	-3884
▁column	-3885
▁unique	-3886
▁starting	-3887
▁containing	-3888
▁authentication	-3889
▁Tra	-3890
swers	-3891
▁Back	-3892
▁card	-3893
▁basic	-3894
anguage	-3895
▁binary	-3896
▁histor	-3897
▁perfect	-3898
▁sometimes	-3899
▁management	-3900
▁technology	-3901
ani	-3902
inf	-3903
▁OS	-3904
ikip	-3905
stack	-3906
▁2010	-3907
▁mist	-3908
▁note	-3909
▁poor	-3910
▁bring	-3911
▁escap	-3912
ifornia	-3913
▁expect	-3914
ikipedia	-3915
▁pressure	-3916
▁response	-3917
ng	-3918
__(	-3919
duc	-3920
▁50	-3921
▁Dev	-3922
▁tim	-3923
▁2019	-3924
▁Army	-3925
▁Line	-3926
▁Street	-3927
▁places	-3928
▁scient	-3929
▁credentials	-3930
▁construction	-3931
Com	-3932
TML	-3933
lip	-3934
osh	-3935
▁ap	-3936
▁tre	-3937
▁food	-3938
▁components	-3939
SC	-3940
ka	-3941
/">	-3942
dat	-3943
▁du	-3944
ocks	-3945
▁2005	-3946
▁2008	-3947
▁loss	-3948
▁math	-3949
▁rail	-3950
▁Charles	-3951
SD	-3952
}$,	-3953
berg	-3954
anish	-3955
ender	-3956
▁save	-3957
▁wall	-3958
▁broad	-3959
▁plane	-3960
▁exists	-3961
▁nothing	-3962
▁followed	-3963
▁processes	-3964
cel	-3965
▁Rel	-3966
▁Top	-3967
▁gas	-3968
▁Work	-3969
▁copy	-3970
▁resc	-3971
ulated	-3972
▁leads	-3973
▁plant	-3974
▁editor	-3975
▁article	-3976
▁species	-3977
▁efficient	-3978
▁extension	-3979
▁political	-3980
▁encryption	-3981
IP	-3982
ugs	-3983
acks	-3984
etic	-3985
imin	-3986
wiki	-3987
▁Cup	-3988
▁Equ	-3989
ishes	-3990
▁Over	-3991
▁Phys	-3992
▁gold	-3993
▁wave	-3994
edding	-3995
▁stage	-3996
▁George	-3997
▁accounts	-3998
▁California	-3999
▁immediately	-4000
45	-4001
OT	-4002
▁Fe	-4003
abel	-4004
iant	-4005
item	-4006
▁Ann	-4007
▁gun	-4008
▁mac	-4009
ename	-4010
▁share	-4011
▁candid	-4012
▁window	-4013
▁algebra	-4014
▁predict	-4015
▁prevent	-4016
▁variety	-4017
ips	-4018
udd	-4019
▁Ma	-4020
▁Log	-4021
▁adm	-4022
iller	-4023
ockey	-4024
under	-4025
value	-4026
▁anim	-4027
▁weak	-4028
ressed	-4029
▁optim	-4030
▁owner	-4031
▁plans	-4032
▁marriage	-4033
▁km	-4034
data	-4035
▁Des	-4036
▁lov	-4037
orial	-4038
▁Jose	-4039
▁Under	-4040
▁stored	-4041
▁finding	-4042
▁quality	-4043
args	-4044
rete	-4045
▁nice	-4046
▁camer	-4047
▁generally	-4048
▁interested	-4049
▁themselves	-4050
ola	-4051
ums	-4052
une	-4053
body	-4054
come	-4055
▁Pri	-4056
▁hon	-4057
▁bene	-4058
▁drop	-4059
▁drug	-4060
▁agent	-4061
▁ratio	-4062
ertific	-4063
▁Origin	-4064
▁middle	-4065
▁shared	-4066
▁properly	-4067
67	-4068
ga	-4069
▁$1	-4070
▁IP	-4071
abor	-4072
iful	-4073
▁gra	-4074
▁wor	-4075
▁Form	-4076
▁male	-4077
encies	-4078
▁Canadian	-4079
▁Internet	-4080
▁knowledge	-4081
_\	-4082
–19	-4083
▁BC	-4084
▁Ir	-4085
▁fill	-4086
▁drive	-4087
▁regard	-4088
▁Western	-4089
▁appropri	-4090
▁continuous	-4091
''	-4092
erc	-4093
▁Rob	-4094
▁Tor	-4095
▁mid	-4096
ulate	-4097
words	-4098
▁2020	-4099
▁Show	-4100
▁Thus	-4101
isions	-4102
▁Feder	-4103
▁empty	-4104
▁compan	-4105
▁financ	-4106
▁increase	-4107
▁Mathematics	-4108
▁py	-4109
igen	-4110
▁Air	-4111
▁flu	-4112
place	-4113
▁Best	-4114
▁fair	-4115
▁fast	-4116
▁task	-4117
▁issues	-4118
▁please	-4119
▁external	-4120
▁performed	-4121
▁professional	-4122
31	-4123
PU	-4124
ds	-4125
edy	-4126
max	-4127
haps	-4128
ston	-4129
▁Bas	-4130
▁Hol	-4131
▁fle	-4132
▁Home	-4133
method	-4134
▁cloud	-4135
ributed	-4136
▁circle	-4137
▁moving	-4138
▁remains	-4139
▁According	-4140
▁hy	-4141
▁Mad	-4142
▁hyd	-4143
▁inj	-4144
▁prep	-4145
▁apply	-4146
▁liter	-4147
▁albums	-4148
▁arrang	-4149
▁forces	-4150
▁allowed	-4151
['	-4152
gl	-4153
gn	-4154
rog	-4155
hell	-4156
hens	-4157
▁Sar	-4158
▁2018	-4159
▁bank	-4160
▁kills	-4161
▁tests	-4162
▁People	-4163
▁Second	-4164
▁global	-4165
▁leader	-4166
▁letter	-4167
▁physical	-4168
▁according	-4169
▁mix	-4170
aught	-4171
▁alone	-4172
-1999-0	-4173
▁origin	-4174
▁particip	-4175
▁connected	-4176
▁structures	-4177
._	-4178
esh	-4179
urt	-4180
▁ir	-4181
▁LLM	-4182
▁didn	-4183
▁Earth	-4184
▁Super	-4185
▁minutes	-4186
▁subsequ	-4187
▁evidence	-4188
▁negative	-4189
▁temperature	-4190
AM	-4191
la	-4192
dev	-4193
leq	-4194
▁pe	-4195
iece	-4196
olec	-4197
what	-4198
▁Mem	-4199
-2000	-4200
▁tele	-4201
▁watch	-4202
▁births	-4203
▁deploy	-4204
▁extrem	-4205
▁passed	-4206
▁expected	-4207
[0]	-4208
▁sn	-4209
itude	-4210
using	-4211
▁Siem	-4212
▁dict	-4213
▁guitar	-4214
▁Association	-4215
1}	-4216
RL	-4217
ids	-4218
▁26	-4219
cial	-4220
▁Off	-4221
▁cos	-4222
▁Cour	-4223
▁Test	-4224
▁deep	-4225
▁disk	-4226
▁opened	-4227
▁strugg	-4228
▁achieve	-4229
▁convers	-4230
▁individual	-4231
47	-4232
85	-4233
▁([[	-4234
▁Leg	-4235
▁SQL	-4236
▁sys	-4237
▁unc	-4238
align	-4239
▁1999	-4240
▁causes	-4241
▁largest	-4242
▁officer	-4243
▁towards	-4244
BA	-4245
Ch	-4246
ef	-4247
hol	-4248
rief	-4249
▁Sen	-4250
board	-4251
ements	-4252
▁Carol	-4253
▁details	-4254
▁maximum	-4255
▁restrict	-4256
▁originally	-4257
Ed	-4258
eal	-4259
ini	-4260
unc	-4261
▁Lou	-4262
▁adj	-4263
▁dam	-4264
▁tax	-4265
iform	-4266
orage	-4267
pread	-4268
▁elev	-4269
ansion	-4270
▁Award	-4271
istence	-4272
▁Island	-4273
▁prefer	-4274
▁density	-4275
▁produce	-4276
PE	-4277
bb	-4278
ada	-4279
sec	-4280
ancy	-4281
oute	-4282
▁Met	-4283
cient	-4284
▁award	-4285
▁chain	-4286
▁explo	-4287
▁Google	-4288
▁remove	-4289
▁central	-4290
▁internal	-4291
ali	-4292
isf	-4293
airs	-4294
anth	-4295
ulti	-4296
vant	-4297
ypes	-4298
obile	-4299
▁2016	-4300
▁Sant	-4301
▁shot	-4302
refore	-4303
▁guess	-4304
▁songs	-4305
▁today	-4306
jection	-4307
▁easier	-4308
▁filter	-4309
▁static	-4310
▁writer	-4311
▁concern	-4312
▁counter	-4313
▁explicit	-4314
▁resource	-4315
▁calculate	-4316
ita	-4317
Name	-4318
▁Sep	-4319
▁2011	-4320
▁feed	-4321
▁stra	-4322
iences	-4323
▁Europe	-4324
▁actual	-4325
▁director	-4326
▁download	-4327
▁executed	-4328
▁documentation	-4329
dt	-4330
:00	-4331
exp	-4332
how	-4333
rig	-4334
▁Fl	-4335
oses	-4336
size	-4337
▁Hen	-4338
▁tas	-4339
▁2012	-4340
▁epis	-4341
▁susp	-4342
▁blood	-4343
▁pages	-4344
▁forced	-4345
▁wanted	-4346
▁manager	-4347
▁scripts	-4348
▁controll	-4349
▁previously	-4350
oes	-4351
▁Po	-4352
▁Sk	-4353
rial	-4354
ellig	-4355
fully	-4356
ician	-4357
inger	-4358
▁Jeff	-4359
▁China	-4360
epsilon	-4361
istance	-4362
▁Academ	-4363
▁joined	-4364
▁learns	-4365
▁symbol	-4366
▁strings	-4367
II	-4368
yr	-4369
}=	-4370
nel	-4371
▁23	-4372
illy	-4373
rier	-4374
▁'__	-4375
▁Mor	-4376
▁pip	-4377
▁ult	-4378
Delta	-4379
▁Club	-4380
▁desp	-4381
▁crypt	-4382
▁Public	-4383
▁coming	-4384
▁larger	-4385
▁Journal	-4386
▁generated	-4387
▁otherwise	-4388
(2	-4389
za	-4390
▁("	-4391
ears	-4392
sych	-4393
▁Bay	-4394
▁fem	-4395
▁sav	-4396
▁2007	-4397
▁Prot	-4398
▁race	-4399
▁adopt	-4400
▁Records	-4401
▁founded	-4402
▁obvious	-4403
▁hospital	-4404
▁installed	-4405
▁connection	-4406
06	-4407
>>	-4408
ls	-4409
ida	-4410
inct	-4411
▁10,	-4412
▁Lar	-4413
▁Sur	-4414
▁ess	-4415
frast	-4416
matrix	-4417
▁Jerry	-4418
▁entry	-4419
▁influ	-4420
▁modify	-4421
▁placed	-4422
________	-4423
▁options	-4424
So	-4425
alt	-4426
raz	-4427
rey	-4428
▁1)	-4429
▁28	-4430
▁6,	-4431
atin	-4432
ooth	-4433
▁Sil	-4434
▁Why	-4435
▁foo	-4436
▁hyp	-4437
inese	-4438
▁Last	-4439
▁Stat	-4440
▁emer	-4441
▁pull	-4442
▁told	-4443
▁Greek	-4444
▁sites	-4445
▁wealth	-4446
▁Council	-4447
▁killing	-4448
▁Province	-4449
▁appeared	-4450
▁boundary	-4451
▁President	-4452
▁transport	-4453
77	-4454
():	-4455
▁$2	-4456
room	-4457
▁Sum	-4458
▁imm	-4459
▁books	-4460
▁clean	-4461
▁media	-4462
▁belong	-4463
▁island	-4464
overflow	-4465
▁Network	-4466
▁quantum	-4467
▁studies	-4468
▁confront	-4469
▁thinking	-4470
▁versions	-4471
▁president	-4472
vey	-4473
▁()	-4474
▁id	-4475
▁Exp	-4476
▁Ret	-4477
▁lat	-4478
▁2000	-4479
▁join	-4480
▁wood	-4481
▁appre	-4482
▁split	-4483
actions	-4484
ections	-4485
ocation	-4486
▁decide	-4487
▁Germany	-4488
▁answers	-4489
▁refuses	-4490
▁integers	-4491
▁discovered	-4492
;/	-4493
>(	-4494
AD	-4495
An	-4496
edu	-4497
nce	-4498
rad	-4499
▁1:	-4500
call	-4501
eler	-4502
pack	-4503
▁Que	-4504
ctors	-4505
▁Book	-4506
▁lists	-4507
▁devices	-4508
▁effects	-4509
frastructure	-4510
▁description	-4511
▁40	-4512
resh	-4513
andon	-4514
▁chem	-4515
▁recon	-4516
▁Author	-4517
▁happens	-4518
▁Japanese	-4519
▁Republic	-4520
▁continue	-4521
▁industry	-4522
▁apartment	-4523
▁resulting	-4524
▁completely	-4525
▁functionality	-4526
-5	-4527
1/	-4528
ca	-4529
eli	-4530
▁29	-4531
▁192	-4532
▁Cast	-4533
▁Foot	-4534
▁Mass	-4535
▁Vict	-4536
▁prop	-4537
▁purs	-4538
▁items	-4539
▁attract	-4540
▁Olympics	-4541
▁requires	-4542
▁remaining	-4543
▁situation	-4544
▁understanding	-4545
MS	-4546
Mod	-4547
big	-4548
rak	-4549
sim	-4550
/200	-4551
aint	-4552
onic	-4553
ights	-4554
netic	-4555
▁lock	-4556
▁Early	-4557
▁chance	-4558
▁disapp	-4559
▁Kingdom	-4560
▁obtained	-4561
HE	-4562
NS	-4563
TTP	-4564
rif	-4565
▁Bur	-4566
▁Pub	-4567
iring	-4568
▁ment	-4569
▁quar	-4570
▁capac	-4571
▁likely	-4572
oke	-4573
▁tu	-4574
▁193	-4575
▁saw	-4576
▁HTML	-4577
▁True	-4578
▁gave	-4579
▁summ	-4580
rought	-4581
▁Great	-4582
▁Music	-4583
▁manip	-4584
▁month	-4585
▁phone	-4586
▁stuff	-4587
▁forest	-4588
▁master	-4589
▁saying	-4590
document	-4591
▁applied	-4592
▁decided	-4593
▁recently	-4594
▁advantage	-4595
▁dictionary	-4596
▁international	-4597
bf	-4598
▁Emp	-4599
▁Mer	-4600
apping	-4601
▁Union	-4602
▁debut	-4603
▁Central	-4604
▁Spanish	-4605
▁interact	-4606
▁appropriate	-4607
(0,	-4608
die	-4609
ects	-4610
ucle	-4611
▁rom	-4612
jects	-4613
▁Flor	-4614
fortun	-4615
length	-4616
▁Techn	-4617
▁agrees	-4618
▁health	-4619
▁insert	-4620
▁Because	-4621
▁datetime	-4622
▁everyone	-4623
▁intended	-4624
imensional	-4625
TP	-4626
)$.	-4627
requ	-4628
tegr	-4629
▁God	-4630
▁Your	-4631
▁west	-4632
raries	-4633
▁Franc	-4634
▁query	-4635
ategory	-4636
▁Thomas	-4637
▁inters	-4638
▁syntax	-4639
▁Charlie	-4640
▁Digital	-4641
▁primary	-4642
▁suggest	-4643
▁European	-4644
▁triangle	-4645
▁derivative	-4646
!!	-4647
DF	-4648
hr	-4649
▁;	-4650
▁−	-4651
adr	-4652
joy	-4653
▁AI	-4654
▁Kat	-4655
ufact	-4656
▁Once	-4657
▁army	-4658
▁hours	-4659
▁moves	-4660
▁appoint	-4661
▁percent	-4662
▁smaller	-4663
▁protocol	-4664
▁surround	-4665
08	-4666
\,	-4667
cm	-4668
▁TV	-4669
otic	-4670
▁ben	-4671
allel	-4672
isher	-4673
▁Arch	-4674
▁hope	-4675
itable	-4676
▁choice	-4677
▁myster	-4678
▁proced	-4679
▁unable	-4680
▁ability	-4681
▁calling	-4682
▁mission	-4683
▁critical	-4684
'.	-4685
68	-4686
ala	-4687
bon	-4688
}}$	-4689
▁Tim	-4690
▁err	-4691
acking	-4692
▁Mount	-4693
▁Living	-4694
▁behavi	-4695
ographic	-4696
▁extract	-4697
▁science	-4698
▁education	-4699
▁frequency	-4700
SO	-4701
▁31	-4702
0,000	-4703
enced	-4704
ifier	-4705
▁east	-4706
▁battle	-4707
▁handle	-4708
▁nature	-4709
▁limited	-4710
▁sources	-4711
▁becoming	-4712
▁financial	-4713
▁differential	-4714
":	-4715
But	-4716
psi	-4717
}=\	-4718
}{2	-4719
▁Bh	-4720
▁Bi	-4721
▁Cr	-4722
aign	-4723
▁Fin	-4724
▁rid	-4725
▁neut	-4726
▁Grand	-4727
▁label	-4728
▁Engine	-4729
▁Turkey	-4730
▁radius	-4731
▁actions	-4732
▁capital	-4733
▁decision	-4734
▁realizes	-4735
▁Australian	-4736
▁generation	-4737
▁techniques	-4738
▁corresponding	-4739
CC	-4740
ES	-4741
va	-4742
xx	-4743
▁aw	-4744
arts	-4745
dout	-4746
inem	-4747
ustr	-4748
gence	-4749
hesis	-4750
iders	-4751
index	-4752
▁Many	-4753
▁anti	-4754
▁onto	-4755
▁actor	-4756
▁speak	-4757
▁assign	-4758
▁assume	-4759
▁bottom	-4760
▁giving	-4761
ulations	-4762
▁Solution	-4763
▁commonly	-4764
▁relative	-4765
)^2	-4766
ria	-4767
▁UK	-4768
atal	-4769
hest	-4770
sole	-4771
▁Jac	-4772
▁Rad	-4773
▁bed	-4774
▁upd	-4775
abled	-4776
▁Care	-4777
▁Road	-4778
▁baby	-4779
google	-4780
▁price	-4781
▁Follow	-4782
▁branch	-4783
▁compar	-4784
▁electr	-4785
▁therefore	-4786
▁approaches	-4787
-9	-4788
Te	-4789
bre	-4790
den	-4791
▁Ke	-4792
▁Oh	-4793
Here	-4794
user	-4795
▁Los	-4796
▁Pet	-4797
▁mut	-4798
anded	-4799
gener	-4800
sigma	-4801
▁goal	-4802
▁ones	-4803
▁river	-4804
▁faster	-4805
▁retrie	-4806
▁Further	-4807
▁Washing	-4808
▁destroy	-4809
▁recorded	-4810
▁introduce	-4811
▁Big	-4812
▁McC	-4813
ailed	-4814
ifies	-4815
▁Time	-4816
▁edit	-4817
▁Games	-4818
▁asked	-4819
▁brief	-4820
▁plays	-4821
estival	-4822
▁satisf	-4823
▁greater	-4824
▁session	-4825
▁trouble	-4826
79	-4827
NT	-4828
gex	-4829
yes	-4830
ingu	-4831
▁Key	-4832
▁Net	-4833
▁voc	-4834
▁Each	-4835
▁dies	-4836
▁kidn	-4837
▁instr	-4838
▁newsp	-4839
▁phase	-4840
▁white	-4841
▁Richard	-4842
▁causing	-4843
▁background	-4844
▁throughout	-4845
1:	-4846
ja	-4847
ns	-4848
hab	-4849
hal	-4850
leg	-4851
▁8.	-4852
▁Ext	-4853
▁cop	-4854
▁Sand	-4855
▁wide	-4856
▁eight	-4857
▁psych	-4858
▁trade	-4859
lection	-4860
▁symmet	-4861
▁picture	-4862
▁finished	-4863
▁initially	-4864
▁libraries	-4865
CT	-4866
^\	-4867
▁35	-4868
edic	-4869
▁Day	-4870
▁Est	-4871
▁Vir	-4872
▁var	-4873
▁Mike	-4874
ometric	-4875
▁Joseph	-4876
▁nearby	-4877
▁appreci	-4878
▁brought	-4879
▁allowing	-4880
▁identify	-4881
▁neighbor	-4882
▁Christian	-4883
▁Washington	-4884
▁organization	-4885
▁representation	-4886
mm	-4887
{2	-4888
bed	-4889
eck	-4890
oice	-4891
▁Ire	-4892
▁Rev	-4893
asure	-4894
owers	-4895
▁aware	-4896
▁extra	-4897
▁https	-4898
▁surpr	-4899
▁modules	-4900
▁electric	-4901
▁mechanisms	-4902
3]	-4903
DS	-4904
dx	-4905
isl	-4906
txt	-4907
aily	-4908
alks	-4909
olic	-4910
▁Win	-4911
▁veh	-4912
azine	-4913
▁2014	-4914
▁2015	-4915
▁Rock	-4916
▁park	-4917
aching	-4918
ameter	-4919
▁Court	-4920
▁scale	-4921
▁camera	-4922
▁church	-4923
▁Control	-4924
▁concent	-4925
▁contract	-4926
▁Therefore	-4927
▁algorithms	-4928
▁represented	-4929
stackoverflow	-4930
IL	-4931
To	-4932
ln	-4933
▁('	-4934
▁7,	-4935
▁cm	-4936
main	-4937
▁Inc	-4938
▁Old	-4939
▁bal	-4940
icide	-4941
▁2003	-4942
▁Chic	-4943
▁Gold	-4944
▁imag	-4945
rivial	-4946
▁Const	-4947
▁Power	-4948
▁Royal	-4949
▁Their	-4950
▁benef	-4951
▁dream	-4952
▁ideas	-4953
▁older	-4954
▁decimal	-4955
▁dynamic	-4956
▁fraction	-4957
▁operator	-4958
▁proposed	-4959
dimensional	-4960
▁interesting	-4961
2/	-4962
▁60	-4963
Edit	-4964
▁Max	-4965
▁Ver	-4966
▁din	-4967
▁syn	-4968
▁wind	-4969
stream	-4970
▁datas	-4971
▁oppos	-4972
▁Awards	-4973
▁breaks	-4974
▁mostly	-4975
▁native	-4976
▁signed	-4977
▁Chinese	-4978
▁Science	-4979
▁activity	-4980
▁continues	-4981
44	-4982
TC	-4983
ati	-4984
hel	-4985
ura	-4986
▁-1	-4987
▁CR	-4988
▁pi	-4989
▁Jud	-4990
▁Sun	-4991
enses	-4992
pling	-4993
▁1990	-4994
▁2004	-4995
▁door	-4996
▁risk	-4997
▁fails	-4998
▁fully	-4999
▁prime	-5000
▁singer	-5001
▁browser	-5002
▁elected	-5003
▁manages	-5004
▁possibly	-5005
▁Department	-5006
▁approximately	-5007
▁]	-5008
SQL	-5009
[1]	-5010
▁AM	-5011
ecut	-5012
roph	-5013
aming	-5014
▁node	-5015
▁Elect	-5016
▁Smith	-5017
▁civil	-5018
▁active	-5019
▁commit	-5020
▁policy	-5021
▁status	-5022
ructions	-5023
▁Angeles	-5024
▁channel	-5025
▁meeting	-5026
▁girlfriend	-5027
mi	-5028
pe	-5029
▁!	-5030
dir	-5031
ube	-5032
xml	-5033
▁Py	-5034
▁['	-5035
gent	-5036
osen	-5037
▁ign	-5038
ading	-5039
onent	-5040
plies	-5041
▁hide	-5042
espite	-5043
itness	-5044
▁favor	-5045
▁hands	-5046
▁purch	-5047
mercial	-5048
▁Robert	-5049
▁effort	-5050
▁tracks	-5051
▁Chicago	-5052
▁abandon	-5053
▁settings	-5054
▁activities	-5055
AF	-5056
nes	-5057
▁Ha	-5058
▁Pe	-5059
char	-5060
icon	-5061
ints	-5062
onym	-5063
this	-5064
▁Bab	-5065
▁Men	-5066
▁jud	-5067
alian	-5068
anced	-5069
force	-5070
ilton	-5071
▁Prof	-5072
▁Step	-5073
▁rout	-5074
iments	-5075
▁molec	-5076
▁steps	-5077
isation	-5078
▁Calcul	-5079
▁famous	-5080
▁Russian	-5081
▁deliver	-5082
▁despite	-5083
▁passing	-5084
▁virtual	-5085
▁challeng	-5086
▁particle	-5087
▁straight	-5088
▁permissions	-5089
▁communication	-5090
aka	-5091
asc	-5092
▁Of	-5093
▁Mah	-5094
faces	-5095
▁Isra	-5096
▁tour	-5097
▁Eddie	-5098
▁girls	-5099
▁Access	-5100
▁Center	-5101
▁Valley	-5102
▁centre	-5103
▁denial	-5104
▁secure	-5105
▁switch	-5106
▁Olympic	-5107
▁journal	-5108
▁storage	-5109
▁Football	-5110
▁movement	-5111
▁progress	-5112
▁functional	-5113
▁particularly	-5114
MB	-5115
dec	-5116
ira	-5117
kes	-5118
uby	-5119
▁3:	-5120
▁Da	-5121
▁Rh	-5122
eries	-5123
iffer	-5124
▁(202	-5125
▁Fire	-5126
▁Wood	-5127
▁boys	-5128
▁rank	-5129
▁manif	-5130
▁opens	-5131
▁steal	-5132
▁Before	-5133
▁Histor	-5134
▁launch	-5135
▁league	-5136
▁instant	-5137
▁minimum	-5138
▁replace	-5139
questions	-5140
▁hardware	-5141
▁revealed	-5142
SP	-5143
tee	-5144
▁(\	-5145
▁Ak	-5146
seud	-5147
▁Doc	-5148
▁Mur	-5149
▁lif	-5150
orter	-5151
▁Stand	-5152
▁legit	-5153
▁France	-5154
▁django	-5155
▁gather	-5156
▁hidden	-5157
▁highly	-5158
▁Despite	-5159
▁morning	-5160
▁projects	-5161
mon	-5162
rho	-5163
▁00	-5164
▁CD	-5165
▁Pop	-5166
▁hol	-5167
▁sin	-5168
embly	-5169
icode	-5170
▁Cong	-5171
▁Conn	-5172
▁Long	-5173
▁diag	-5174
▁roll	-5175
linear	-5176
▁false	-5177
▁setup	-5178
▁shape	-5179
agement	-5180
▁Applic	-5181
▁scheme	-5182
▁Florida	-5183
▁digital	-5184
▁certific	-5185
▁replaced	-5186
)}	-5187
isa	-5188
tes	-5189
▁2)	-5190
▁Lo	-5191
wall	-5192
tools	-5193
▁2013	-5194
▁Rail	-5195
▁king	-5196
▁lies	-5197
▁phil	-5198
▁carry	-5199
▁inequ	-5200
▁occup	-5201
▁reven	-5202
▁seven	-5203
▁tasks	-5204
▁folder	-5205
function	-5206
▁constit	-5207
▁recover	-5208
fortunately	-5209
▁alternative	-5210
▁automatically	-5211
Sp	-5212
cles	-5213
▁tit	-5214
Class	-5215
oviet	-5216
tical	-5217
▁1980	-5218
▁Does	-5219
▁bind	-5220
▁wait	-5221
▁Found	-5222
▁Model	-5223
▁absol	-5224
▁abuse	-5225
▁haven	-5226
liament	-5227
▁safety	-5228
position	-5229
unctions	-5230
▁Company	-5231
▁Finally	-5232
▁Problem	-5233
plication	-5234
▁arrested	-5235
▁campaign	-5236
▁manufact	-5237
▁companies	-5238
▁specified	-5239
▁protection	-5240
FL	-5241
sl	-5242
ows	-5243
▁Er	-5244
File	-5245
burg	-5246
inet	-5247
spec	-5248
uals	-5249
▁Ray	-5250
▁Set	-5251
▁cal	-5252
▁Both	-5253
▁Code	-5254
▁Shar	-5255
▁dark	-5256
▁exam	-5257
idents	-5258
▁worth	-5259
▁Democr	-5260
▁Victor	-5261
▁bypass	-5262
▁render	-5263
▁forward	-5264
▁consists	-5265
▁supported	-5266
▁traditional	-5267
sk	-5268
igr	-5269
▁ID	-5270
clus	-5271
isco	-5272
▁reb	-5273
apers	-5274
▁1996	-5275
▁Bern	-5276
▁Oper	-5277
▁corn	-5278
▁Enter	-5279
▁Paris	-5280
▁color	-5281
duction	-5282
▁Method	-5283
▁growth	-5284
▁passes	-5285
▁visual	-5286
datetime	-5287
▁Academy	-5288
▁Society	-5289
▁medical	-5290
▁opening	-5291
▁showing	-5292
▁election	-5293
▁selected	-5294
▁recommend	-5295
▁respectively	-5296
03	-5297
57	-5298
97	-5299
▁Ç	-5300
asp	-5301
hat	-5302
see	-5303
auss	-5304
hand	-5305
▁Den	-5306
▁Jew	-5307
▁View	-5308
▁lack	-5309
▁trig	-5310
▁Chris	-5311
▁Major	-5312
▁Order	-5313
▁score	-5314
mission	-5315
▁Social	-5316
▁images	-5317
▁levels	-5318
▁derived	-5319
▁wedding	-5320
▁presence	-5321
▁referred	-5322
Ar	-5323
And	-5324
lar	-5325
▁8,	-5326
▁Di	-5327
^{-1	-5328
attr	-5329
ened	-5330
onds	-5331
▁Bow	-5332
▁Eli	-5333
▁Tri	-5334
▁Van	-5335
▁thr	-5336
eline	-5337
icket	-5338
reate	-5339
▁1998	-5340
▁crew	-5341
▁tens	-5342
▁volt	-5343
▁White	-5344
▁helps	-5345
▁teams	-5346
ributes	-5347
▁choose	-5348
▁ensure	-5349
▁schools	-5350
▁compared	-5351
▁powerful	-5352
▁receives	-5353
▁Institute	-5354
▁incorrect	-5355
AB	-5356
DP	-5357
Val	-5358
bor	-5359
ein	-5360
▁Sy	-5361
^{2}	-5362
ucky	-5363
uler	-5364
▁Der	-5365
▁URL	-5366
▁aim	-5367
▁tor	-5368
osoph	-5369
▁Educ	-5370
▁atom	-5371
▁earn	-5372
▁Force	-5373
▁click	-5374
▁aspect	-5375
▁doctor	-5376
▁height	-5377
▁latter	-5378
▁permut	-5379
▁spread	-5380
▁edition	-5381
▁testing	-5382
▁parallel	-5383
▁supposed	-5384
▁classical	-5385
▁continued	-5386
▁sensitive	-5387
▁collection	-5388
▁determined	-5389
)/	-5390
IG	-5391
"><	-5392
wid	-5393
▁//	-5394
▁7.	-5395
▁Us	-5396
▁(1)	-5397
▁Get	-5398
▁arm	-5399
elled	-5400
ports	-5401
▁Anal	-5402
▁Type	-5403
append	-5404
ership	-5405
▁Henry	-5406
▁adapt	-5407
▁plain	-5408
▁trick	-5409
▁upper	-5410
▁female	-5411
▁compact	-5412
▁depends	-5413
▁protect	-5414
▁apparent	-5415
▁depending	-5416
▁complexity	-5417
▁responsible	-5418
Py	-5419
Un	-5420
bs	-5421
▁^	-5422
00,	-5423
1),	-5424
ota	-5425
utch	-5426
▁"""	-5427
▁Lee	-5428
▁Pan	-5429
asion	-5430
aylor	-5431
▁Carl	-5432
▁fort	-5433
▁hous	-5434
▁Given	-5435
▁crime	-5436
▁ideal	-5437
▁layer	-5438
▁Africa	-5439
▁Columb	-5440
elligence	-5441
▁accepted	-5442
▁register	-5443
▁mentioned	-5444
ao	-5445
ado	-5446
cks	-5447
yer	-5448
}}\	-5449
▁->	-5450
▁32	-5451
▁Kn	-5452
road	-5453
▁Del	-5454
▁ice	-5455
▁mus	-5456
▁sen	-5457
▁tag	-5458
anted	-5459
elebr	-5460
house	-5461
iency	-5462
rence	-5463
▁heat	-5464
▁safe	-5465
ategor	-5466
▁paths	-5467
related	-5468
resents	-5469
▁Server	-5470
▁impact	-5471
▁orders	-5472
▁Element	-5473
▁accompl	-5474
▁networks	-5475
▁template	-5476
▁combination	-5477
▁expressions	-5478
▁mathematical	-5479
▁specifically	-5480
$\	-5481
pm	-5482
ux	-5483
▁~	-5484
ila	-5485
lam	-5486
▁1/	-5487
▁Tw	-5488
When	-5489
anny	-5490
erem	-5491
look	-5492
▁Ant	-5493
▁Lim	-5494
▁fig	-5495
ening	-5496
otion	-5497
usted	-5498
▁Camp	-5499
▁jour	-5500
proper	-5501
undred	-5502
▁Event	-5503
▁staff	-5504
▁truth	-5505
▁Church	-5506
▁Mexico	-5507
▁multip	-5508
▁street	-5509
▁summer	-5510
▁Italian	-5511
▁suicide	-5512
▁overflow	-5513
▁documents	-5514
▁mathematics	-5515
46	-5516
ss	-5517
ios	-5518
mas	-5519
▁DLL	-5520
▁Run	-5521
asket	-5522
child	-5523
input	-5524
uster	-5525
▁core	-5526
▁exit	-5527
▁court	-5528
▁focus	-5529
▁holds	-5530
▁owned	-5531
▁Daniel	-5532
▁listed	-5533
▁nearly	-5534
▁robust	-5535
▁visits	-5536
▁African	-5537
▁unknown	-5538
▁believes	-5539
▁messages	-5540
▁notation	-5541
▁attention	-5542
▁professor	-5543
-8	-5544
▁‘	-5545
)$,	-5546
10.	-5547
2),	-5548
3),	-5549
MAT	-5550
cho	-5551
▁Az	-5552
▁{{	-5553
__',	-5554
circ	-5555
unct	-5556
yond	-5557
▁Sat	-5558
▁sea	-5559
▁suc	-5560
▁Life	-5561
▁Mars	-5562
▁Penn	-5563
▁Offic	-5564
▁costs	-5565
▁subst	-5566
▁Person	-5567
▁ancient	-5568
▁constra	-5569
▁letters	-5570
▁privacy	-5571
ributions	-5572
▁completed	-5573
▁represents	-5574
48	-5575
MP	-5576
Sh	-5577
We	-5578
eq	-5579
fl	-5580
▁·	-5581
ora	-5582
▁Id	-5583
oded	-5584
▁13,	-5585
▁187	-5586
▁Aud	-5587
▁III	-5588
▁Mid	-5589
▁lay	-5590
▁Bugs	-5591
▁Capt	-5592
▁boot	-5593
▁edge	-5594
▁sell	-5595
▁spin	-5596
Script	-5597
▁Child	-5598
▁knows	-5599
▁logic	-5600
▁meant	-5601
▁pregn	-5602
▁sends	-5603
alities	-5604
prehens	-5605
▁deaths	-5606
▁Another	-5607
▁Example	-5608
▁compute	-5609
▁convent	-5610
▁factors	-5611
▁perhaps	-5612
▁reasons	-5613
▁suspect	-5614
▁division	-5615
9)	-5616
NA	-5617
dy	-5618
rc	-5619
zip	-5620
▁Av	-5621
copy	-5622
▁Wil	-5623
▁[1,	-5624
▁seg	-5625
ennis	-5626
▁Bang	-5627
▁Jean	-5628
▁Well	-5629
▁axis	-5630
rangle	-5631
▁dance	-5632
▁enjoy	-5633
▁happy	-5634
▁instit	-5635
▁tempor	-5636
▁Program	-5637
▁divided	-5638
▁uniform	-5639
▁candidate	-5640
▁exception	-5641
▁sufficient	-5642
42	-5643
].	-5644
ega	-5645
▁PM	-5646
▁inn	-5647
▁pix	-5648
▁ran	-5649
world	-5650
▁Name	-5651
▁Town	-5652
▁blue	-5653
▁cook	-5654
isters	-5655
▁Number	-5656
▁adding	-5657
▁agents	-5658
▁indent	-5659
▁seeing	-5660
▁creates	-5661
▁highest	-5662
▁overall	-5663
▁winning	-5664
▁Minister	-5665
▁attacker	-5666
▁captured	-5667
▁observed	-5668
▁relation	-5669
▁vertices	-5670
▁effective	-5671
▁processing	-5672
▁competition	-5673
OC	-5674
|\	-5675
(1)	-5676
>__	-5677
App	-5678
ION	-5679
but	-5680
eks	-5681
tex	-5682
▁Ro	-5683
▁cru	-5684
ocket	-5685
▁2002	-5686
▁seek	-5687
▁exhib	-5688
▁Empire	-5689
▁stress	-5690
▁thanks	-5691
▁accepts	-5692
▁proceed	-5693
▁explains	-5694
▁beautiful	-5695
▁technique	-5696
EE	-5697
Re	-5698
dden	-5699
ults	-5700
west	-5701
▁Ell	-5702
▁Mus	-5703
▁fif	-5704
arial	-5705
inity	-5706
local	-5707
omega	-5708
▁Land	-5709
▁Take	-5710
▁enem	-5711
▁flat	-5712
▁rich	-5713
▁hotel	-5714
▁hyper	-5715
▁medal	-5716
amental	-5717
▁arrive	-5718
▁latest	-5719
▁territ	-5720
********	-5721
▁actress	-5722
▁complic	-5723
▁society	-5724
▁witness	-5725
▁countries	-5726
▁Championship	-5727
GI	-5728
^2+	-5729
{0.	-5730
eman	-5731
erve	-5732
ipal	-5733
rast	-5734
▁Git	-5735
▁Gre	-5736
▁bin	-5737
▁fra	-5738
▁ple	-5739
iable	-5740
ithub	-5741
rices	-5742
▁mail	-5743
▁poly	-5744
▁pure	-5745
▁teen	-5746
astern	-5747
▁nucle	-5748
▁raise	-5749
▁uncle	-5750
▁Please	-5751
▁caused	-5752
▁driver	-5753
▁proport	-5754
▁purpose	-5755
▁combined	-5756
▁remember	-5757
▁existence	-5758
▁infrastructure	-5759
FA	-5760
OP	-5761
cs	-5762
wer	-5763
▁Mel	-5764
▁Ram	-5765
▁Ter	-5766
▁vac	-5767
▁wat	-5768
gamma	-5769
▁Dist	-5770
▁Georg	-5771
▁coast	-5772
▁hypot	-5773
▁piece	-5774
▁react	-5775
▁sides	-5776
▁sleep	-5777
imately	-5778
▁Buffer	-5779
▁Soviet	-5780
▁border	-5781
▁errors	-5782
▁Account	-5783
▁Special	-5784
▁serious	-5785
▁telling	-5786
▁appearance	-5787
▁coordinates	-5788
56	-5789
En	-5790
mo	-5791
wa	-5792
olk	-5793
pol	-5794
atre	-5795
▁(2)	-5796
▁Cap	-5797
▁net	-5798
▁sal	-5799
aving	-5800
ropol	-5801
table	-5802
thlet	-5803
▁Free	-5804
▁Pass	-5805
▁Prem	-5806
▁spir	-5807
▁stren	-5808
▁enable	-5809
▁formal	-5810
▁manage	-5811
▁sudden	-5812
▁turned	-5813
▁acceler	-5814
▁partial	-5815
▁infinite	-5816
▁involves	-5817
▁supports	-5818
▁Following	-5819
▁commercial	-5820
▁subprocess	-5821
='	-5822
SA	-5823
sm	-5824
-1)	-5825
^{2	-5826
cup	-5827
▁Du	-5828
▁Mu	-5829
Cont	-5830
ello	-5831
etch	-5832
lete	-5833
riff	-5834
uman	-5835
▁Ali	-5836
There	-5837
▁tabs	-5838
system	-5839
▁Green	-5840
▁Notes	-5841
▁Point	-5842
▁Track	-5843
▁dedic	-5844
▁drink	-5845
▁route	-5846
▁Office	-5847
▁celebr	-5848
▁convin	-5849
▁planet	-5850
▁restaur	-5851
▁younger	-5852
▁interval	-5853
▁attribute	-5854
▁politician	-5855
ua	-5856
':'	-5857
__.	-5858
ona	-5859
▁9.	-5860
Type	-5861
illa	-5862
orry	-5863
uled	-5864
▁Bad	-5865
▁Lib	-5866
▁Sus	-5867
▁Sym	-5868
▁cry	-5869
ingly	-5870
▁Circ	-5871
▁Jenn	-5872
▁Play	-5873
▁False	-5874
▁catch	-5875
▁legal	-5876
▁minor	-5877
▁recip	-5878
clusion	-5879
▁artist	-5880
▁asking	-5881
▁mainly	-5882
▁update	-5883
▁Chapter	-5884
▁Profess	-5885
▁entries	-5886
▁matches	-5887
▁samples	-5888
▁wealthy	-5889
▁Services	-5890
▁newspaper	-5891
▁Government	-5892
▁Originally	-5893
▁legitimate	-5894
-7	-5895
Ob	-5896
/</	-5897
_1,	-5898
gar	-5899
law	-5900
oma	-5901
rot	-5902
sys	-5903
▁Cy	-5904
▁Ok	-5905
cean	-5906
hors	-5907
iana	-5908
▁Atl	-5909
▁Jam	-5910
▁buy	-5911
▁fit	-5912
▁pan	-5913
▁tun	-5914
ansas	-5915
apped	-5916
delta	-5917
▁Mach	-5918
▁Vari	-5919
▁bomb	-5920
▁dual	-5921
▁subt	-5922
ancing	-5923
igious	-5924
▁Apple	-5925
▁Steve	-5926
▁basis	-5927
▁eigen	-5928
▁Common	-5929
▁Martin	-5930
▁Summer	-5931
▁hockey	-5932
▁supply	-5933
▁succeed	-5934
▁northern	-5935
▁producer	-5936
▁providing	-5937
▁wondering	-5938
▁connections	-5939
2:	-5940
-19	-5941
can	-5942
ees	-5943
lass	-5944
lock	-5945
▁Bat	-5946
▁Mrs	-5947
▁len	-5948
▁Mont	-5949
▁qual	-5950
▁weap	-5951
▁curve	-5952
▁inher	-5953
▁pairs	-5954
▁spent	-5955
▁Posted	-5956
▁skills	-5957
▁unless	-5958
izations	-5959
▁Project	-5960
▁capture	-5961
▁payload	-5962
▁seconds	-5963
▁reported	-5964
())	-5965
List	-5966
rich	-5967
wide	-5968
▁die	-5969
▁riv	-5970
ained	-5971
arant	-5972
▁util	-5973
▁debug	-5974
▁resol	-5975
▁weeks	-5976
utorial	-5977
▁Little	-5978
▁affair	-5979
▁fellow	-5980
▁studio	-5981
▁theore	-5982
▁thinks	-5983
▁receive	-5984
▁solving	-5985
▁Northern	-5986
▁comments	-5987
▁reaction	-5988
▁relevant	-5989
▁suggests	-5990
▁addresses	-5991
ND	-5992
ws	-5993
!</	-5994
tem	-5995
aste	-5996
dist	-5997
itan	-5998
▁Inf	-5999
▁mys	-6000
anned	-6001
rogen	-6002
▁1970	-6003
▁Lake	-6004
subset	-6005
▁Exper	-6006
▁Field	-6007
▁drama	-6008
▁horse	-6009
acement	-6010
▁Secret	-6011
▁Virgin	-6012
▁brings	-6013
▁danger	-6014
▁Ireland	-6015
▁partner	-6016
▁records	-6017
▁accuracy	-6018
▁assigned	-6019
▁economic	-6020
▁incorpor	-6021
▁assistant	-6022
▁encounter	-6023
▁developing	-6024
▁differences	-6025
▁integration	-6026
▁municipality	-6027
3}	-6028
58	-6029
ba	-6030
ko	-6031
-01	-6032
oub	-6033
conn	-6034
▁Fre	-6035
▁pen	-6036
chron	-6037
ilies	-6038
oting	-6039
track	-6040
▁1960	-6041
▁Hill	-6042
▁Priv	-6043
▁agre	-6044
▁asym	-6045
ounded	-6046
▁nodes	-6047
▁quadr	-6048
▁Middle	-6049
▁chosen	-6050
▁fourth	-6051
standing	-6052
▁reached	-6053
▁Governor	-6054
▁correctly	-6055
▁interpret	-6056
▁presented	-6057
)]	-6058
OL	-6059
Ph	-6060
-10	-6061
len	-6062
run	-6063
▁4:	-6064
osit	-6065
otal	-6066
root	-6067
▁17,	-6068
▁Rog	-6069
▁2001	-6070
▁Help	-6071
▁Kore	-6072
▁firm	-6073
atever	-6074
Windows	-6075
▁Integr	-6076
▁Return	-6077
▁consum	-6078
▁slight	-6079
▁Article	-6080
▁hundred	-6081
▁physics	-6082
▁studied	-6083
▁utility	-6084
▁Consider	-6085
▁magazine	-6086
▁soldiers	-6087
▁broadcast	-6088
▁explanation	-6089
AG	-6090
Pl	-6091
RI	-6092
+1)	-6093
asy	-6094
yan	-6095
▁**	-6096
izer	-6097
mega	-6098
oung	-6099
iling	-6100
▁hair	-6101
▁trib	-6102
▁Irish	-6103
▁claims	-6104
▁graphs	-6105
▁helped	-6106
▁notice	-6107
▁stream	-6108
▁vocals	-6109
▁listing	-6110
▁managed	-6111
▁specify	-6112
▁describe	-6113
▁expansion	-6114
▁coefficient	-6115
▁implemented	-6116
▁instructions	-6117
7/	-6118
EC	-6119
``	-6120
ulf	-6121
grad	-6122
iced	-6123
▁Cle	-6124
▁Sto	-6125
▁Yes	-6126
▁Zbl	-6127
▁swe	-6128
▁yes	-6129
▁zip	-6130
▁Matt	-6131
▁hero	-6132
▁trip	-6133
▁wild	-6134
▁Louis	-6135
▁decor	-6136
▁decre	-6137
▁horiz	-6138
▁login	-6139
▁shock	-6140
▁Edward	-6141
▁removed	-6142
omorphism	-6143
▁measures	-6144
▁mountain	-6145
▁interview	-6146
▁mysterious	-6147
pan	-6148
rum	-6149
vex	-6150
}\\	-6151
fort	-6152
ktop	-6153
plex	-6154
▁12,	-6155
▁Bus	-6156
▁Mic	-6157
▁Vis	-6158
▁odd	-6159
▁van	-6160
overy	-6161
▁1997	-6162
▁Main	-6163
▁clim	-6164
▁jail	-6165
▁magn	-6166
▁tail	-6167
▁Spain	-6168
▁chief	-6169
▁thous	-6170
gricult	-6171
▁Taylor	-6172
▁caught	-6173
▁commun	-6174
▁edited	-6175
omething	-6176
stitution	-6177
▁distinct	-6178
▁remained	-6179
▁boyfriend	-6180
▁generator	-6181
▁references	-6182
▁relatively	-6183
sey	-6184
Test	-6185
exec	-6186
lict	-6187
▁Kir	-6188
arden	-6189
arser	-6190
bling	-6191
count	-6192
▁Love	-6193
▁Norm	-6194
▁burn	-6195
▁Liber	-6196
▁Short	-6197
▁regex	-6198
▁serve	-6199
▁stars	-6200
ologies	-6201
▁Winter	-6202
▁reduce	-6203
asketball	-6204
▁estimate	-6205
▁repeated	-6206
▁requests	-6207
▁stations	-6208
▁experiments	-6209
MI	-6210
aud	-6211
flo	-6212
tag	-6213
uzz	-6214
▁SS	-6215
bour	-6216
ette	-6217
gant	-6218
ship	-6219
stat	-6220
▁Bal	-6221
▁ord	-6222
▁tab	-6223
▁Lear	-6224
▁boat	-6225
▁shop	-6226
▁Color	-6227
▁Latin	-6228
▁Three	-6229
▁encour	-6230
▁failed	-6231
▁occurs	-6232
wikipedia	-6233
▁southern	-6234
▁Education	-6235
▁appointed	-6236
▁extremely	-6237
▁demonstrate	-6238
▁engineering	-6239
▁environments	-6240
▁vulnerabilities	-6241
-6	-6242
lı	-6243
Net	-6244
^2$	-6245
pir	-6246
pyp	-6247
web	-6248
}{2}	-6249
▁'13	-6250
▁Dom	-6251
▁amb	-6252
anges	-6253
chain	-6254
ernel	-6255
▁Game	-6256
▁HTTP	-6257
▁diss	-6258
▁Anton	-6259
▁joint	-6260
▁micro	-6261
▁Figure	-6262
▁Search	-6263
▁actors	-6264
▁beyond	-6265
▁limits	-6266
language	-6267
▁Systems	-6268
▁brothers	-6269
▁contrast	-6270
▁dimension	-6271
▁treatment	-6272
)+	-6273
3:	-6274
CD	-6275
FC	-6276
UT	-6277
]:	-6278
oe	-6279
xi	-6280
ón	-6281
159	-6282
war	-6283
▁9,	-6284
anda	-6285
ptic	-6286
–200	-6287
▁Bos	-6288
▁Dat	-6289
▁Fer	-6290
▁Wal	-6291
▁mol	-6292
inder	-6293
split	-6294
▁Good	-6295
▁Hard	-6296
▁Kent	-6297
▁Tony	-6298
▁cool	-6299
▁turb	-6300
hspace	-6301
▁Harry	-6302
▁Press	-6303
▁notes	-6304
▁rapid	-6305
▁rough	-6306
onymous	-6307
▁academ	-6308
▁advice	-6309
▁attend	-6310
▁rights	-6311
ortunity	-6312
▁Develop	-6313
▁escapes	-6314
▁strateg	-6315
▁voltage	-6316
▁attacked	-6317
▁opposite	-6318
▁announced	-6319
▁particles	-6320
UI	-6321
}.	-6322
TeX	-6323
None	-6324
Note	-6325
case	-6326
chen	-6327
▁XML	-6328
organ	-6329
plete	-6330
▁Real	-6331
▁Upon	-6332
coming	-6333
▁Posts	-6334
▁Saint	-6335
▁audio	-6336
▁clock	-6337
▁ended	-6338
▁poison	-6339
▁powers	-6340
▁princi	-6341
ependent	-6342
▁circuit	-6343
▁episode	-6344
▁changing	-6345
▁returning	-6346
▁executable	-6347
▁compromised	-6348
▁vulnerability	-6349
AA	-6350
CM	-6351
(1,	-6352
/2/	-6353
bro	-6354
iri	-6355
mal	-6356
yal	-6357
plog	-6358
such	-6359
▁11,	-6360
▁Ash	-6361
▁Bol	-6362
▁Opt	-6363
▁Ren	-6364
▁doi	-6365
ategy	-6366
itors	-6367
▁(198	-6368
▁Lord	-6369
▁harm	-6370
▁feder	-6371
▁spend	-6372
▁stack	-6373
▁Review	-6374
▁lambda	-6375
▁stores	-6376
omorphic	-6377
▁Physics	-6378
▁advance	-6379
▁regions	-6380
▁numerous	-6381
▁resolution	-6382
▁architecture	-6383
{3	-6384
arc	-6385
eds	-6386
▁Ent	-6387
▁Hor	-6388
▁Kal	-6389
▁lic	-6390
▁uns	-6391
▁Wall	-6392
▁alco	-6393
▁blog	-6394
▁rows	-6395
▁warn	-6396
▁Quant	-6397
▁cells	-6398
▁acting	-6399
▁bounded	-6400
▁guarant	-6401
▁modified	-6402
▁operators	-6403
2>	-6404
76	-6405
95	-6406
>[	-6407
map	-6408
ugg	-6409
▁Cro	-6410
Field	-6411
amily	-6412
close	-6413
heast	-6414
poses	-6415
useum	-6416
▁boss	-6417
▁wish	-6418
▁Admin	-6419
▁Gauss	-6420
▁Jacob	-6421
▁green	-6422
▁inhab	-6423
▁twice	-6424
▁Series	-6425
▁conclud	-6426
▁degrees	-6427
▁foreign	-6428
▁creation	-6429
▁magnetic	-6430
▁Christmas	-6431
▁locations	-6432
▁constructed	-6433
3/	-6434
90	-6435
HP	-6436
]]	-6437
aa	-6438
ben	-6439
iro	-6440
ras	-6441
▁da	-6442
▁pp	-6443
bury	-6444
itiz	-6445
onia	-6446
page	-6447
▁Sal	-6448
▁nav	-6449
▁oil	-6450
▁sto	-6451
ipher	-6452
▁Jane	-6453
▁isol	-6454
▁laun	-6455
▁swim	-6456
inated	-6457
includ	-6458
versal	-6459
▁Italy	-6460
▁maybe	-6461
▁tuple	-6462
▁usage	-6463
hematic	-6464
ircraft	-6465
▁digits	-6466
▁enters	-6467
▁rescue	-6468
▁sexual	-6469
plogroup	-6470
▁Theorem	-6471
▁confess	-6472
▁stories	-6473
▁exchange	-6474
▁matrices	-6475
▁challenge	-6476
▁dependent	-6477
▁encrypted	-6478
▁radiation	-6479
▁opportunity	-6480
52	-6481
^(	-6482
iy	-6483
).(	-6484
Can	-6485
Set	-6486
ano	-6487
cap	-6488
geq	-6489
quar	-6490
▁20,	-6491
lient	-6492
state	-6493
▁seat	-6494
▁vary	-6495
ackage	-6496
▁guard	-6497
▁noise	-6498
▁Differ	-6499
▁senior	-6500
▁smooth	-6501
▁stable	-6502
▁inverse	-6503
▁journey	-6504
▁knowing	-6505
▁propose	-6506
▁reflect	-6507
▁contents	-6508
▁families	-6509
▁fighting	-6510
▁somewhat	-6511
▁potentially	-6512
▁Mathematical	-6513
–1	-6514
-02	-6515
202	-6516
bot	-6517
fix	-6518
▁sq	-6519
rawn	-6520
~~~~	-6521
▁Far	-6522
▁Sir	-6523
▁dir	-6524
Right	-6525
ashes	-6526
eless	-6527
iliar	-6528
isted	-6529
▁Init	-6530
▁Scot	-6531
django	-6532
formed	-6533
lisher	-6534
▁delay	-6535
▁drunk	-6536
▁lived	-6537
▁tourn	-6538
▁Israel	-6539
▁Miller	-6540
▁strict	-6541
poration	-6542
▁realize	-6543
▁servers	-6544
fficients	-6545
▁Examples	-6546
▁chemical	-6547
▁patterns	-6548
▁planning	-6549
▁Published	-6550
▁describes	-6551
▁comprehens	-6552
▁fundamental	-6553
▁persistence	-6554
BI	-6555
LS	-6556
No	-6557
TV	-6558
fe	-6559
ING	-6560
aks	-6561
rec	-6562
▁64	-6563
▁Hy	-6564
▁Kh	-6565
▁Ra	-6566
▁[]	-6567
ella	-6568
info	-6569
only	-6570
ulas	-6571
▁Luc	-6572
Omega	-6573
enant	-6574
opher	-6575
scale	-6576
width	-6577
▁1000	-6578
▁beat	-6579
▁jump	-6580
Americ	-6581
config	-6582
ersion	-6583
▁Build	-6584
▁Multi	-6585
▁earth	-6586
▁guide	-6587
▁heard	-6588
▁trees	-6589
▁circum	-6590
▁dating	-6591
▁finish	-6592
▁motion	-6593
▁Johnson	-6594
▁clients	-6595
▁sending	-6596
▁typical	-6597
▁vectors	-6598
▁Analysis	-6599
▁featured	-6600
▁electrons	-6601
▁accessible	-6602
▁attributes	-6603
▁inequality	-6604
▁Explanation	-6605
!"	-6606
=2	-6607
Sc	-6608
ATH	-6609
afe	-6610
aki	-6611
▁AD	-6612
acle	-6613
aith	-6614
find	-6615
iano	-6616
lies	-6617
poss	-6618
▁hun	-6619
▁wel	-6620
enger	-6621
▁Kenn	-6622
▁Ohio	-6623
▁dial	-6624
▁doll	-6625
▁latt	-6626
▁rect	-6627
direct	-6628
jected	-6629
values	-6630
▁Chand	-6631
▁loves	-6632
▁width	-6633
▁Battle	-6634
▁Portug	-6635
▁urllib	-6636
▁xrange	-6637
▁Section	-6638
▁awarded	-6639
▁serving	-6640
▁category	-6641
▁convince	-6642
▁geometry	-6643
▁incident	-6644
▁pregnant	-6645
▁primarily	-6646
▁Commission	-6647
▁complicated	-6648
================	-6649
({	-6650
EM	-6651
IR	-6652
NC	-6653
iny	-6654
lan	-6655
sen	-6656
▁ok	-6657
abil	-6658
anna	-6659
pace	-6660
────	-6661
▁Ker	-6662
▁Mil	-6663
▁cab	-6664
ensus	-6665
ldots	-6666
▁Beng	-6667
▁Blue	-6668
▁Only	-6669
▁Pers	-6670
▁Stan	-6671
▁feet	-6672
▁shut	-6673
ilarly	-6674
▁Death	-6675
▁Level	-6676
▁Light	-6677
▁agree	-6678
▁daily	-6679
▁macOS	-6680
▁stops	-6681
▁voice	-6682
version	-6683
▁cities	-6684
▁losing	-6685
▁suffer	-6686
▁Introdu	-6687
▁corrupt	-6688
▁railway	-6689
▁victims	-6690
▁Computer	-6691
▁Congress	-6692
▁Festival	-6693
▁practical	-6694
▁transition	-6695
▁investigate	-6696
*}	-6697
0$	-6698
().	-6699
Not	-6700
[2]	-6701
din	-6702
div	-6703
rip	-6704
True	-6705
enty	-6706
mann	-6707
ride	-6708
some	-6709
stra	-6710
▁Ott	-6711
▁Tam	-6712
eller	-6713
istan	-6714
▁Even	-6715
▁hash	-6716
ittest	-6717
ocated	-6718
▁Jimmy	-6719
▁Santa	-6720
▁Simon	-6721
▁inner	-6722
essions	-6723
iveness	-6724
▁Commit	-6725
▁loaded	-6726
▁manner	-6727
▁clearly	-6728
▁failure	-6729
▁offered	-6730
▁waiting	-6731
▁absolute	-6732
▁abstract	-6733
▁composed	-6734
▁conflict	-6735
▁engineer	-6736
▁extended	-6737
▁abandoned	-6738
▁Parliament	-6739
▁efficiency	-6740
▁increasingly	-6741
On	-6742
eu	-6743
.__	-6744
upp	-6745
▁(4	-6746
▁Os	-6747
bols	-6748
▁Non	-6749
▁Six	-6750
▁dro	-6751
▁von	-6752
phone	-6753
urban	-6754
▁Base	-6755
▁Fore	-6756
▁Star	-6757
▁calc	-6758
▁rare	-6759
▁reli	-6760
▁reun	-6761
▁subs	-6762
ipment	-6763
urance	-6764
▁Board	-6765
▁Hence	-6766
▁Young	-6767
▁displ	-6768
istical	-6769
▁checks	-6770
▁terror	-6771
software	-6772
▁majority	-6773
▁officers	-6774
▁strategy	-6775
▁dedicated	-6776
▁increased	-6777
▁involving	-6778
▁recording	-6779
▁instrument	-6780
▁distributed	-6781
FS	-6782
Qu	-6783
TA	-6784
][	-6785
]{	-6786
hav	-6787
▁dx	-6788
rate	-6789
▁Cur	-6790
▁Lab	-6791
▁Tod	-6792
▁Try	-6793
odies	-6794
▁Josh	-6795
▁Tree	-6796
▁bass	-6797
▁blow	-6798
▁cave	-6799
▁pred	-6800
▁spot	-6801
▁suff	-6802
father	-6803
iminal	-6804
server	-6805
▁Image	-6806
▁Local	-6807
▁chart	-6808
▁sched	-6809
▁Career	-6810
▁Disney	-6811
▁Volume	-6812
▁comedy	-6813
▁dinner	-6814
▁scenes	-6815
▁Members	-6816
▁alcohol	-6817
▁domains	-6818
▁monitor	-6819
▁reports	-6820
▁strange	-6821
▁Director	-6822
▁Historic	-6823
▁evaluate	-6824
▁purposes	-6825
▁estimated	-6826
▁evolution	-6827
▁resistance	-6828
▁computation	-6829
▁championship	-6830
";	-6831
??	-6832
NG	-6833
zo	-6834
▁×	-6835
aya	-6836
ban	-6837
cat	-6838
dig	-6839
non	-6840
uty	-6841
wan	-6842
weg	-6843
▁Sn	-6844
▁ur	-6845
omer	-6846
onal	-6847
post	-6848
pypi	-6849
▁Bon	-6850
▁Fox	-6851
▁Ill	-6852
▁bul	-6853
▁gar	-6854
▁sam	-6855
aware	-6856
▁Arts	-6857
▁Cred	-6858
▁Soon	-6859
▁narr	-6860
istant	-6861
istent	-6862
▁Brown	-6863
▁Dutch	-6864
▁Jones	-6865
▁Singh	-6866
▁exerc	-6867
▁feels	-6868
▁hosts	-6869
▁nomin	-6870
▁sales	-6871
▁topic	-6872
uations	-6873
▁Johnny	-6874
▁depict	-6875
▁fairly	-6876
▁humans	-6877
▁killer	-6878
▁myself	-6879
▁scalar	-6880
▁Instead	-6881
▁driving	-6882
▁efforts	-6883
▁musical	-6884
▁trigger	-6885
▁vehicle	-6886
▁rational	-6887
▁behaviour	-6888
▁identical	-6889
▁increases	-6890
▁Unfortunately	-6891
1\	-6892
FT	-6893
vi	-6894
hom	-6895
ias	-6896
pdf	-6897
tau	-6898
▁DC	-6899
▁dt	-6900
▁{'	-6901
bing	-6902
ulus	-6903
▁16,	-6904
▁Gra	-6905
▁Hon	-6906
▁har	-6907
▁lie	-6908
▁sun	-6909
Model	-6910
ersey	-6911
inant	-6912
quare	-6913
▁Fort	-6914
▁Four	-6915
▁Like	-6916
▁gone	-6917
▁lets	-6918
▁lose	-6919
▁plug	-6920
▁Every	-6921
▁digit	-6922
ecutive	-6923
▁affect	-6924
▁broken	-6925
▁sphere	-6926
▁sports	-6927
▁stated	-6928
▁streng	-6929
relation	-6930
▁Siemens	-6931
▁factory	-6932
▁illustr	-6933
▁malware	-6934
▁threads	-6935
ategories	-6936
▁Carolina	-6937
▁Function	-6938
▁Southern	-6939
▁evaluation	-6940
▁frequently	-6941
▁literature	-6942
▁statements	-6943
▁ultimately	-6944
▁underlying	-6945
70	-6946
Ad	-6947
hu	-6948
ık	-6949
101	-6950
ads	-6951
kin	-6952
amin	-6953
iser	-6954
olen	-6955
rick	-6956
teen	-6957
▁Hun	-6958
▁Kim	-6959
erver	-6960
grade	-6961
ishop	-6962
lines	-6963
osure	-6964
scill	-6965
▁1950	-6966
▁1995	-6967
▁Budd	-6968
▁Down	-6969
▁Song	-6970
▁Sund	-6971
▁bits	-6972
▁doub	-6973
▁flee	-6974
▁huge	-6975
▁vamp	-6976
ension	-6977
models	-6978
stdout	-6979
writer	-6980
▁Danny	-6981
▁Graph	-6982
▁Thank	-6983
▁float	-6984
▁Police	-6985
▁desert	-6986
▁Current	-6987
▁covered	-6988
▁ordered	-6989
▁Improper	-6990
▁defenses	-6991
▁diameter	-6992
▁suggested	-6993
▁subsequently	-6994
PR	-6995
gun	-6996
lik	-6997
usr	-6998
zen	-6999
▁90	-7000
join	-7001
term	-7002
▁19,	-7003
▁27,	-7004
▁Bre	-7005
▁Mas	-7006
▁Wat	-7007
forms	-7008
{0.17	-7009
{1}{\	-7010
▁Navy	-7011
▁deli	-7012
Method	-7013
github	-7014
liptic	-7015
mitted	-7016
▁flash	-7017
▁minim	-7018
▁motor	-7019
▁noted	-7020
▁implic	-7021
▁legend	-7022
▁orient	-7023
▁widely	-7024
▁involve	-7025
▁runtime	-7026
itionally	-7027
▁Virginia	-7028
▁birthday	-7029
▁confused	-7030
▁descript	-7031
▁neighbour	-7032
▁dimensions	-7033
▁coefficients	-7034
▁experimental	-7035
53	-7036
62	-7037
::	-7038
)}{	-7039
acc	-7040
het	-7041
mid	-7042
uer	-7043
▁Ol	-7044
bled	-7045
kins	-7046
life	-7047
umps	-7048
▁Kam	-7049
▁Way	-7050
▁cas	-7051
ented	-7052
illed	-7053
inema	-7054
label	-7055
xygen	-7056
▁Exec	-7057
▁Lady	-7058
▁Unix	-7059
annels	-7060
arithm	-7061
number	-7062
osophy	-7063
▁alien	-7064
▁alter	-7065
▁truck	-7066
Element	-7067
▁asympt	-7068
▁damage	-7069
▁invari	-7070
▁linked	-7071
▁Captain	-7072
▁Through	-7073
▁consequ	-7074
▁reduced	-7075
▁windows	-7076
▁controls	-7077
▁feelings	-7078
▁murdered	-7079
▁produces	-7080
▁romantic	-7081
▁slightly	-7082
ifications	-7083
▁influence	-7084
▁interrupt	-7085
▁passwords	-7086
▁principal	-7087
▁searching	-7088
▁coordinate	-7089
▁transferred	-7090
▁administrator	-7091
'(	-7092
)?	-7093
43	-7094
>/	-7095
po	-7096
osc	-7097
scr	-7098
▁FA	-7099
▁Pa	-7100
aven	-7101
mond	-7102
ools	-7103
umes	-7104
▁Ros	-7105
▁Sem	-7106
▁Tre	-7107
▁sch	-7108
hetic	-7109
uries	-7110
wargs	-7111
▁hole	-7112
▁puts	-7113
▁semi	-7114
ourier	-7115
ynamic	-7116
▁bench	-7117
▁compl	-7118
▁edges	-7119
▁overl	-7120
▁pseud	-7121
▁smart	-7122
aceback	-7123
article	-7124
▁Source	-7125
▁enumer	-7126
▁extend	-7127
▁raised	-7128
▁stolen	-7129
▁toward	-7130
▁entered	-7131
▁neutral	-7132
▁signals	-7133
▁talking	-7134
▁western	-7135
▁Hamilton	-7136
▁aircraft	-7137
▁partners	-7138
▁Committee	-7139
▁materials	-7140
▁procedure	-7141
▁Eventually	-7142
▁comparison	-7143
▁accidentally	-7144
▁successfully	-7145
((	-7146
[\	-7147
pg	-7148
2.5	-7149
bec	-7150
uls	-7151
vin	-7152
▁Hi	-7153
▁MP	-7154
eces	-7155
icky	-7156
phan	-7157
rand	-7158
▁188	-7159
▁bow	-7160
▁pal	-7161
first	-7162
forge	-7163
inent	-7164
ocols	-7165
ograp	-7166
pload	-7167
▁1992	-7168
▁Hong	-7169
▁clar	-7170
▁grav	-7171
▁grid	-7172
▁prem	-7173
▁tang	-7174
▁wins	-7175
anging	-7176
ifiers	-7177
parent	-7178
▁Jason	-7179
▁Larry	-7180
▁Women	-7181
▁expon	-7182
▁giant	-7183
▁heads	-7184
▁hence	-7185
▁magic	-7186
▁metal	-7187
▁persu	-7188
▁rival	-7189
example	-7190
itative	-7191
▁Apache	-7192
▁Joined	-7193
▁Member	-7194
▁Russia	-7195
▁covers	-7196
▁elimin	-7197
▁prepar	-7198
▁silver	-7199
ervation	-7200
▁Process	-7201
▁adopted	-7202
▁charges	-7203
▁denomin	-7204
▁workers	-7205
▁Language	-7206
▁Register	-7207
▁acquired	-7208
▁advanced	-7209
▁collabor	-7210
▁buildings	-7211
▁childhood	-7212
▁discussion	-7213
▁restaurant	-7214
▁adversarial	-7215
▁polynomials	-7216
▁approximation	-7217
4}	-7218
BM	-7219
2).	-7220
jan	-7221
rin	-7222
▁0$	-7223
▁36	-7224
hold	-7225
igan	-7226
}^{\	-7227
▁500	-7228
▁PHP	-7229
▁Tal	-7230
▁Plan	-7231
▁bund	-7232
▁curs	-7233
▁hits	-7234
▁hour	-7235
▁maps	-7236
▁2012,	-7237
▁trial	-7238
command	-7239
ounters	-7240
▁Online	-7241
▁angles	-7242
▁sorted	-7243
▁spirit	-7244
▁tables	-7245
▁Jackson	-7246
▁defense	-7247
▁diagram	-7248
▁locally	-7249
▁revenge	-7250
istration	-7251
▁happened	-7252
▁presents	-7253
▁terminal	-7254
▁interaction	-7255
▁significantly	-7256
▁classification	-7257
)-	-7258
Im	-7259
||	-7260
','	-7261
-1,	-7262
ATE	-7263
asi	-7264
inn	-7265
neg	-7266
obj	-7267
rox	-7268
you	-7269
▁Ba	-7270
▁Hu	-7271
▁RE	-7272
▁Ti	-7273
draw	-7274
foot	-7275
ifer	-7276
plot	-7277
real	-7278
▁'12	-7279
▁Tem	-7280
djang	-7281
endar	-7282
sites	-7283
}^{2}	-7284
▁Arab	-7285
▁Area	-7286
▁Braz	-7287
▁Fact	-7288
▁dise	-7289
▁drag	-7290
▁eyes	-7291
▁stre	-7292
▁Cloud	-7293
▁Cross	-7294
▁Pract	-7295
▁Start	-7296
▁align	-7297
▁grows	-7298
▁heavy	-7299
▁reads	-7300
▁roots	-7301
▁solid	-7302
▁usual	-7303
present	-7304
▁Theory	-7305
▁button	-7306
▁critic	-7307
▁looked	-7308
▁serial	-7309
▁Machine	-7310
▁Suppose	-7311
▁growing	-7312
▁informs	-7313
▁reaches	-7314
▁measured	-7315
▁highlight	-7316
▁sequences	-7317
▁basketball	-7318
▁integrated	-7319
▁neighborhood	-7320
,”	-7321
98	-7322
PC	-7323
();	-7324
awn	-7325
▁DO	-7326
▁NC	-7327
▁\{	-7328
>:</	-7329
alog	-7330
greg	-7331
iate	-7332
quer	-7333
▁15,	-7334
▁Gil	-7335
▁Jon	-7336
▁Vij	-7337
▁eth	-7338
▁sac	-7339
...</	-7340
ipped	-7341
▁1994	-7342
▁2021	-7343
▁Cath	-7344
▁Marc	-7345
▁Rose	-7346
umbers	-7347
urious	-7348
wegian	-7349
▁stuck	-7350
angular	-7351
▁beauty	-7352
▁demand	-7353
▁flight	-7354
▁oscill	-7355
▁refuge	-7356
filename	-7357
▁animals	-7358
▁optimal	-7359
▁symbols	-7360
▁Homework	-7361
▁machines	-7362
▁packages	-7363
▁suitable	-7364
▁committed	-7365
▁Foundation	-7366
▁Management	-7367
▁simulation	-7368
▁Furthermore	-7369
▁Applications	-7370
▁administrative	-7371
>#	-7372
IA	-7373
PS	-7374
^1	-7375
sv	-7376
det	-7377
ipl	-7378
▁$3	-7379
▁1]	-7380
Time	-7381
also	-7382
ique	-7383
mers	-7384
outs	-7385
town	-7386
▁190	-7387
▁23,	-7388
▁Gen	-7389
▁Nat	-7390
▁Ven	-7391
▁1993	-7392
▁Corn	-7393
▁Mess	-7394
▁Page	-7395
abling	-7396
ective	-7397
▁2006,	-7398
▁cycle	-7399
▁fluid	-7400
▁rates	-7401
▁saved	-7402
▁closer	-7403
▁recurs	-7404
▁solved	-7405
American	-7406
▁quarter	-7407
▁distingu	-7408
▁elevated	-7409
▁symmetric	-7410
▁territory	-7411
sourceforge	-7412
▁introduces	-7413
▁documentary	-7414
▁requirements	-7415
▁administration	-7416
94	-7417
96	-7418
IM	-7419
RC	-7420
ji	-7421
"),	-7422
__</	-7423
idel	-7424
oral	-7425
quid	-7426
rays	-7427
▁Ele	-7428
▁Enc	-7429
▁Tok	-7430
▁[1]	-7431
▁hab	-7432
▁pil	-7433
achus	-7434
mathf	-7435
olved	-7436
▁Sign	-7437
▁User	-7438
▁apps	-7439
▁none	-7440
Thanks	-7441
active	-7442
ighter	-7443
ounder	-7444
▁Check	-7445
▁Roger	-7446
▁beach	-7447
▁cerem	-7448
▁colon	-7449
▁lever	-7450
▁ready	-7451
install	-7452
▁assess	-7453
▁embedd	-7454
▁filled	-7455
▁nation	-7456
▁plants	-7457
▁assumed	-7458
▁nuclear	-7459
▁retired	-7460
▁seasons	-7461
▁Learning	-7462
▁articles	-7463
▁capacity	-7464
▁familiar	-7465
▁filename	-7466
▁performs	-7467
▁Alexander	-7468
▁Questions	-7469
▁technical	-7470
▁calculated	-7471
▁statistics	-7472
▁tournament	-7473
▁translation	-7474
▁optimization	-7475
▁permutations	-7476
41	-7477
\{	-7478
cr	-7479
5),	-7480
dot	-7481
elt	-7482
–18	-7483
▁/>	-7484
▁\,	-7485
▁ru	-7486
eria	-7487
etts	-7488
that	-7489
urer	-7490
▁14,	-7491
▁21,	-7492
▁Bak	-7493
▁Cub	-7494
▁Dar	-7495
▁Ger	-7496
▁eat	-7497
▁pet	-7498
▁pun	-7499
cious	-7500
▁Coll	-7501
▁Full	-7502
▁Hand	-7503
▁Kong	-7504
▁Text	-7505
▁Wild	-7506
▁acts	-7507
▁cart	-7508
▁flag	-7509
ienced	-7510
langle	-7511
▁Organ	-7512
▁Staff	-7513
▁chase	-7514
▁roles	-7515
▁stock	-7516
▁walks	-7517
execute	-7518
▁Brazil	-7519
▁Econom	-7520
▁blocks	-7521
▁bridge	-7522
▁expand	-7523
▁header	-7524
mathfrak	-7525
▁updated	-7526
▁Columbia	-7527
▁Scottish	-7528
▁attached	-7529
▁audience	-7530
▁criminal	-7531
▁defeated	-7532
▁sections	-7533
▁districts	-7534
▁generates	-7535
▁precision	-7536
▁Democratic	-7537
▁controlled	-7538
▁individuals	-7539
▁interpreter	-7540
▁intersection	-7541
hm	-7542
}_	-7543
500	-7544
Sec	-7545
cut	-7546
don	-7547
git	-7548
kee	-7549
usc	-7550
▁0)	-7551
▁IN	-7552
▁wx	-7553
aver	-7554
norm	-7555
rets	-7556
star	-7557
▁18,	-7558
▁186	-7559
▁24,	-7560
▁Haw	-7561
▁gap	-7562
▁nor	-7563
▁tro	-7564
ether	-7565
graph	-7566
olean	-7567
shire	-7568
▁conj	-7569
atting	-7570
iemann	-7571
▁Civil	-7572
▁Param	-7573
▁absor	-7574
▁draft	-7575
▁floor	-7576
▁goals	-7577
▁token	-7578
▁anyway	-7579
▁attach	-7580
▁convex	-7581
▁drives	-7582
▁expert	-7583
▁mobile	-7584
▁sector	-7585
▁authors	-7586
▁desired	-7587
▁attended	-7588
▁checking	-7589
▁suddenly	-7590
▁expensive	-7591
▁religious	-7592
▁challenges	-7593
▁university	-7594
▁investigation	-7595
;\	-7596
Hz	-7597
VD	-7598
}+	-7599
}]	-7600
)=\	-7601
10,	-7602
oup	-7603
▁IS	-7604
▁MR	-7605
▁ST	-7606
Does	-7607
abla	-7608
aine	-7609
alls	-7610
aren	-7611
ells	-7612
gets	-7613
▁Arm	-7614
▁Ban	-7615
▁Due	-7616
▁Ken	-7617
▁fly	-7618
▁ske	-7619
▁sne	-7620
Shell	-7621
nabla	-7622
orrow	-7623
orted	-7624
scape	-7625
stein	-7626
▁Asia	-7627
▁alle	-7628
▁kept	-7629
▁peak	-7630
▁zone	-7631
abases	-7632
aclass	-7633
agonal	-7634
icians	-7635
orough	-7636
urally	-7637
▁Broad	-7638
▁Films	-7639
▁Media	-7640
▁Water	-7641
▁union	-7642
Process	-7643
clusive	-7644
oration	-7645
▁Health	-7646
▁Matrix	-7647
▁refers	-7648
▁termin	-7649
▁vertex	-7650
▁Mexican	-7651
▁evening	-7652
▁mapping	-7653
▁portion	-7654
▁reverse	-7655
▁applying	-7656
▁horizont	-7657
▁whatever	-7658
▁contained	-7659
▁reasoning	-7660
▁Conference	-7661
▁apparently	-7662
▁conversion	-7663
▁historical	-7664
▁measurement	-7665
▁Introduction	-7666
▁capabilities	-7667
.”	-7668
ée	-7669
Any	-7670
gal	-7671
uct	-7672
▁99	-7673
▁Af	-7674
▁Ca	-7675
With	-7676
arse	-7677
ulty	-7678
–201	-7679
▁'18	-7680
▁28,	-7681
▁GUI	-7682
▁Low	-7683
▁Vik	-7684
▁wra	-7685
abeth	-7686
athan	-7687
ogene	-7688
▁Rome	-7689
▁forg	-7690
▁intr	-7691
▁void	-7692
struct	-7693
▁Clark	-7694
▁Defin	-7695
▁compr	-7696
▁decom	-7697
▁hired	-7698
▁reput	-7699
▁Determ	-7700
▁annual	-7701
▁conven	-7702
▁houses	-7703
▁kernel	-7704
▁lawyer	-7705
▁subset	-7706
▁survey	-7707
▁wouldn	-7708
▁Command	-7709
▁Islands	-7710
▁trivial	-7711
textcolor	-7712
▁Lawrence	-7713
▁Scotland	-7714
▁Standard	-7715
▁policies	-7716
▁equipment	-7717
▁numerical	-7718
▁positions	-7719
▁suggestions	-7720
▁establishments	-7721
)"	-7722
CH	-7723
PP	-7724
Up	-7725
WS	-7726
`,	-7727
^2)	-7728
hew	-7729
oof	-7730
▁"&	-7731
▁1$	-7732
▁3)	-7733
-201	-7734
aska	-7735
door	-7736
orer	-7737
▁(1,	-7738
▁(18	-7739
▁Bet	-7740
▁Bir	-7741
▁Pac	-7742
▁raw	-7743
▁tal	-7744
iance	-7745
match	-7746
▁2022	-7747
▁Chem	-7748
▁Herm	-7749
▁Live	-7750
▁Ruby	-7751
▁Vill	-7752
▁Word	-7753
▁Writ	-7754
▁bird	-7755
▁orth	-7756
▁plus	-7757
roject	-7758
ultane	-7759
▁Sever	-7760
▁Which	-7761
▁angry	-7762
▁lover	-7763
▁mixed	-7764
ativity	-7765
ository	-7766
▁Jersey	-7767
▁Jewish	-7768
▁Philip	-7769
▁hoping	-7770
▁margin	-7771
▁Justice	-7772
▁injured	-7773
▁victory	-7774
▁Colorado	-7775
▁normally	-7776
▁overhead	-7777
▁yourself	-7778
▁destroyed	-7779
▁Technology	-7780
▁hypothesis	-7781
▁concentration	-7782
▁representations	-7783
54	-7784
>"	-7785
gs	-7786
(0)	-7787
imp	-7788
two	-7789
uan	-7790
una	-7791
▁&=	-7792
▁0:	-7793
▁33	-7794
▁NT	-7795
away	-7796
cite	-7797
enth	-7798
iled	-7799
ista	-7800
prec	-7801
vest	-7802
▁Boy	-7803
▁Bru	-7804
▁Cat	-7805
▁Las	-7806
▁Pak	-7807
▁bes	-7808
admin	-7809
after	-7810
prise	-7811
start	-7812
trans	-7813
ushes	-7814
▁Card	-7815
▁Fred	-7816
▁Ross	-7817
▁cous	-7818
▁feat	-7819
▁ride	-7820
orting	-7821
▁Chall	-7822
▁Chief	-7823
▁Proof	-7824
▁brain	-7825
▁citiz	-7826
▁keeps	-7827
▁peace	-7828
▁youth	-7829
orphism	-7830
plicate	-7831
▁assass	-7832
▁metric	-7833
▁shares	-7834
▁throws	-7835
▁compare	-7836
▁contest	-7837
▁largely	-7838
▁launched	-7839
▁operated	-7840
▁strength	-7841
▁computing	-7842
▁developer	-7843
▁discovery	-7844
▁protocols	-7845
▁receiving	-7846
1-	-7847
Le	-7848
ür	-7849
ems	-7850
▁(;	-7851
▁Fu	-7852
▁Gi	-7853
▁Na	-7854
▁Ur	-7855
▁vs	-7856
▁|-	-7857
Text	-7858
aded	-7859
apes	-7860
emon	-7861
pool	-7862
▁12:	-7863
▁2.6	-7864
▁PDF	-7865
▁cov	-7866
Sigma	-7867
Value	-7868
akers	-7869
aling	-7870
anged	-7871
types	-7872
▁Anna	-7873
▁Brad	-7874
▁Dave	-7875
▁Fair	-7876
▁Jess	-7877
▁News	-7878
▁Next	-7879
▁alum	-7880
▁fant	-7881
▁mask	-7882
▁wire	-7883
ductor	-7884
iverse	-7885
othing	-7886
▁Human	-7887
▁dates	-7888
▁decay	-7889
▁loses	-7890
▁parse	-7891
idation	-7892
replace	-7893
▁Altern	-7894
▁Though	-7895
▁credit	-7896
▁delete	-7897
▁intent	-7898
▁wishes	-7899
ographer	-7900
▁singing	-7901
▁travels	-7902
▁Registry	-7903
▁entertain	-7904
▁magnitude	-7905
▁residents	-7906
▁performing	-7907
▁subsequent	-7908
▁calculation	-7909
▁certificate	-7910
▁convergence	-7911
▁intelligence	-7912
▁communications	-7913
(3	-7914
->	-7915
0\	-7916
74	-7917
8/	-7918
SI	-7919
ın	-7920
erg	-7921
img	-7922
mut	-7923
▁AB	-7924
▁ox	-7925
1,2,	-7926
ader	-7927
aret	-7928
▁'17	-7929
▁Hot	-7930
▁Lie	-7931
▁Nav	-7932
▁Neb	-7933
▁Sea	-7934
▁Tro	-7935
▁USA	-7936
▁dot	-7937
agers	-7938
build	-7939
frame	-7940
ighth	-7941
lipse	-7942
night	-7943
ronic	-7944
▁Chan	-7945
▁Prom	-7946
▁fold	-7947
▁unsu	-7948
Server	-7949
antine	-7950
▁Index	-7951
▁Where	-7952
▁repro	-7953
However	-7954
▁ending	-7955
▁minute	-7956
▁settle	-7957
idential	-7958
▁insists	-7959
▁keeping	-7960
▁learned	-7961
achusetts	-7962
ropolitan	-7963
▁Official	-7964
▁academic	-7965
▁encoding	-7966
▁strongly	-7967
▁tutorial	-7968
▁vertical	-7969
▁Francisco	-7970
▁Norwegian	-7971
▁computers	-7972
▁customers	-7973
▁identified	-7974
▁validation	-7975
▁Engineering	-7976
▁statistical	-7977
▁installation	-7978
▁Massachusetts	-7979
LO	-7980
$$\	-7981
8),	-7982
ixt	-7983
kit	-7984
zer	-7985
▁+=	-7986
▁-\	-7987
▁Zh	-7988
blog	-7989
free	-7990
keys	-7991
pert	-7992
rane	-7993
zone	-7994
▁Vin	-7995
▁aid	-7996
▁egg	-7997
venue	-7998
▁Call	-7999
▁Chen	-8000
▁GMAT	-8001
▁Lind	-8002
▁Look	-8003
▁Week	-8004
▁bond	-8005
▁html	-8006
▁logs	-8007
▁push	-8008
icular	-8009
incess	-8010
▁Terry	-8011
▁newly	-8012
▁plate	-8013
▁prote	-8014
▁shall	-8015
▁Random	-8016
▁Remote	-8017
▁castle	-8018
▁cursor	-8019
▁curves	-8020
▁finger	-8021
▁dataset	-8022
▁defines	-8023
▁enabled	-8024
▁lattice	-8025
▁Accounts	-8026
▁Assembly	-8027
▁formerly	-8028
▁optional	-8029
▁payloads	-8030
▁substant	-8031
▁Professor	-8032
▁Represent	-8033
▁Wikipedia	-8034
▁graduated	-8035
▁secretary	-8036
▁targeting	-8037
▁scientists	-8038
▁Development	-8039
▁essentially	-8040
▁environmental	-8041
5%	-8042
;"	-8043
>:	-8044
?"	-8045
DA	-8046
US	-8047
Col	-8048
Key	-8049
Lib	-8050
era	-8051
tan	-8052
}+\	-8053
▁01	-8054
▁PC	-8055
▁Sa	-8056
cell	-8057
core	-8058
etta	-8059
heim	-8060
pled	-8061
▁Dou	-8062
▁NOT	-8063
▁Nik	-8064
▁Ont	-8065
▁scr	-8066
oking	-8067
title	-8068
ushed	-8069
ymbol	-8070
▁Gall	-8071
▁args	-8072
▁fear	-8073
▁hook	-8074
▁rise	-8075
▁shif	-8076
angles	-8077
engers	-8078
ickets	-8079
▁Among	-8080
▁Coast	-8081
▁Night	-8082
▁brand	-8083
▁evade	-8084
▁labor	-8085
▁miles	-8086
▁Walter	-8087
00000000	-8088
expected	-8089
▁Federal	-8090
▁Fourier	-8091
▁arrival	-8092
▁console	-8093
▁segment	-8094
▁singles	-8095
▁trained	-8096
▁visible	-8097
▁willing	-8098
▁dynamics	-8099
▁facility	-8100
Rightarrow	-8101
▁Secretary	-8102
▁authentic	-8103
▁container	-8104
▁elections	-8105
▁executive	-8106
▁Television	-8107
▁consistent	-8108
▁explicitly	-8109
▁investment	-8110
▁definitions	-8111
▁cryptographic	-8112
di	-8113
ih	-8114
All	-8115
cgi	-8116
ker	-8117
▁80	-8118
▁Aj	-8119
▁CO	-8120
▁SP	-8121
▁ip	-8122
From	-8123
appy	-8124
hard	-8125
heet	-8126
imon	-8127
node	-8128
usep	-8129
zero	-8130
▁Bul	-8131
▁Les	-8132
▁Rod	-8133
▁bug	-8134
going	-8135
▁Ball	-8136
▁Unit	-8137
▁aren	-8138
▁astr	-8139
▁mill	-8140
herent	-8141
varphi	-8142
▁Andre	-8143
▁Brian	-8144
▁Laure	-8145
▁Wales	-8146
▁chair	-8147
▁drawn	-8148
▁faith	-8149
▁proxy	-8150
defined	-8151
▁Andrew	-8152
▁admits	-8153
▁copies	-8154
▁earned	-8155
quarters	-8156
▁Library	-8157
▁Malware	-8158
▁chapter	-8159
▁drawing	-8160
▁possess	-8161
▁greatest	-8162
▁sessions	-8163
▁spectrum	-8164
▁separated	-8165
▁encounters	-8166
▁recognized	-8167
▁strategies	-8168
▁acceleration	-8169
▁relationships	-8170
Ms	-8171
OH	-8172
PT	-8173
”,	-8174
▁→	-8175
▁≈	-8176
(2)	-8177
Don	-8178
Get	-8179
agn	-8180
lov	-8181
lyn	-8182
roc	-8183
vas	-8184
vol	-8185
▁Ko	-8186
▁[[	-8187
▁hi	-8188
adow	-8189
rend	-8190
▁25,	-8191
▁Ari	-8192
▁Bry	-8193
▁Dog	-8194
▁Kel	-8195
▁Sin	-8196
▁eye	-8197
▁gam	-8198
icine	-8199
preme	-8200
ylvan	-8201
▁Conf	-8202
▁phen	-8203
▁poet	-8204
▁shar	-8205
▁spat	-8206
author	-8207
ontinu	-8208
plates	-8209
ptions	-8210
uating	-8211
weight	-8212
▁alive	-8213
▁canon	-8214
▁divor	-8215
▁freed	-8216
bmatrix	-8217
igation	-8218
▁Berlin	-8219
▁Howard	-8220
▁compat	-8221
▁gained	-8222
▁serves	-8223
▁shoots	-8224
▁Algebra	-8225
▁Premier	-8226
▁demands	-8227
▁neither	-8228
▁operate	-8229
▁streets	-8230
▁Catholic	-8231
▁Document	-8232
▁minister	-8233
▁quantity	-8234
▁Execution	-8235
▁algebraic	-8236
▁uncertain	-8237
▁horizontal	-8238
▁unexpected	-8239
▁appreciated	-8240
▁constraints	-8241
▁experiences	-8242
▁theoretical	-8243
_4	-8244
ez	-8245
▁İ	-8246
bur	-8247
ela	-8248
nam	-8249
obe	-8250
pat	-8251
pop	-8252
rik	-8253
zed	-8254
▁(<	-8255
▁2]	-8256
abet	-8257
aked	-8258
late	-8259
pers	-8260
uous	-8261
▁11.	-8262
▁Eth	-8263
▁bag	-8264
▁enh	-8265
occer	-8266
rical	-8267
▁Head	-8268
▁Marg	-8269
▁Mult	-8270
▁cars	-8271
▁cash	-8272
▁evil	-8273
▁seed	-8274
hedron	-8275
lywood	-8276
▁2007,	-8277
▁Brook	-8278
▁codes	-8279
▁joins	-8280
▁patch	-8281
▁recru	-8282
Current	-8283
utenant	-8284
▁Config	-8285
▁Double	-8286
▁advent	-8287
▁analog	-8288
▁corner	-8289
▁defeat	-8290
▁depart	-8291
▁forget	-8292
▁oldest	-8293
ometimes	-8294
phishing	-8295
▁Ontario	-8296
▁Several	-8297
▁elegant	-8298
▁generic	-8299
▁holding	-8300
▁parties	-8301
▁putting	-8302
▁violent	-8303
▁compiled	-8304
▁embedded	-8305
▁matching	-8306
▁opportun	-8307
▁retrieve	-8308
▁shooting	-8309
▁scripting	-8310
▁consisting	-8311
▁friendship	-8312
▁Championships	-8313
83	-8314
FF	-8315
Gu	-8316
UE	-8317
kg	-8318
}&	-8319
").	-8320
Exp	-8321
NET	-8322
awa	-8323
▁AS	-8324
▁OR	-8325
▁_{	-8326
):</	-8327
Char	-8328
avel	-8329
disc	-8330
iday	-8331
ogen	-8332
rint	-8333
}}$$	-8334
▁'11	-8335
▁1.0	-8336
▁Ask	-8337
▁Cas	-8338
▁Naz	-8339
▁Pen	-8340
▁Ult	-8341
▁arc	-8342
▁cub	-8343
▁xml	-8344
adium	-8345
empor	-8346
sters	-8347
▁0.00	-8348
▁1957	-8349
▁Hind	-8350
▁Insp	-8351
▁Tour	-8352
▁acid	-8353
▁bear	-8354
▁crow	-8355
▁cycl	-8356
▁hall	-8357
▁nine	-8358
▁sole	-8359
▁tend	-8360
ateral	-8361
called	-8362
eaking	-8363
ername	-8364
illing	-8365
uctant	-8366
▁Agent	-8367
▁Maria	-8368
▁MySQL	-8369
▁alpha	-8370
▁depth	-8371
▁ghost	-8372
▁paint	-8373
▁Centre	-8374
▁Object	-8375
▁bounds	-8376
▁inputs	-8377
▁medium	-8378
▁parish	-8379
▁stands	-8380
▁Eastern	-8381
▁Product	-8382
▁climate	-8383
▁enforce	-8384
▁exploit	-8385
▁figures	-8386
▁mistake	-8387
▁pointed	-8388
▁publish	-8389
▁reality	-8390
▁renamed	-8391
▁sharing	-8392
▁simpler	-8393
▁startup	-8394
▁visited	-8395
▁________	-8396
▁channels	-8397
▁detailed	-8398
▁internet	-8399
▁anonymous	-8400
▁confronts	-8401
▁discussed	-8402
▁injection	-8403
▁assumption	-8404
▁department	-8405
▁vulnerable	-8406
▁considering	-8407
▁transformation	-8408
6:	-8409
93	-8410
={	-8411
Se	-8412
bi	-8413
nu	-8414
-00	-8415
▁2-	-8416
▁<=	-8417
axis	-8418
kish	-8419
thur	-8420
▁'14	-8421
▁'15	-8422
▁30,	-8423
▁31,	-8424
▁Bot	-8425
▁DNS	-8426
▁Dub	-8427
▁Mun	-8428
▁aer	-8429
▁sho	-8430
Point	-8431
arian	-8432
ifact	-8433
onomy	-8434
▁Bank	-8435
▁Crit	-8436
▁Hung	-8437
▁arms	-8438
▁kids	-8439
▁sick	-8440
▁tank	-8441
String	-8442
static	-8443
▁2010,	-8444
▁Islam	-8445
▁LaTeX	-8446
▁Large	-8447
▁Times	-8448
▁Tommy	-8449
▁adjac	-8450
▁diver	-8451
▁schol	-8452
▁touch	-8453
djangop	-8454
▁Argent	-8455
▁Greece	-8456
▁desper	-8457
▁indeed	-8458
▁spring	-8459
▁Manager	-8460
▁Similar	-8461
▁carried	-8462
▁concert	-8463
▁culture	-8464
▁greatly	-8465
▁roughly	-8466
▁whereas	-8467
▁baseball	-8468
▁ordinary	-8469
subprocess	-8470
▁Biography	-8471
▁Injection	-8472
▁executing	-8473
▁regarding	-8474
▁compromise	-8475
▁Corporation	-8476
▁businessman	-8477
▁surrounding	-8478
▁conversation	-8479
Be	-8480
IO	-8481
KE	-8482
LI	-8483
kh	-8484
102	-8485
Box	-8486
Eng	-8487
Ind	-8488
One	-8489
Reg	-8490
fit	-8491
▁(3	-8492
▁ML	-8493
▁}{	-8494
bras	-8495
help	-8496
▁Ron	-8497
Gamma	-8498
duced	-8499
itter	-8500
▁1988	-8501
▁Ever	-8502
▁hear	-8503
▁tape	-8504
▁tort	-8505
▁unus	-8506
System	-8507
ashion	-8508
itches	-8509
▁boxes	-8510
▁clubs	-8511
▁dress	-8512
▁flows	-8513
▁fresh	-8514
▁hopes	-8515
▁posts	-8516
default	-8517
issance	-8518
request	-8519
▁Spring	-8520
▁assert	-8521
▁cousin	-8522
▁pieces	-8523
ictional	-8524
▁artists	-8525
▁balance	-8526
▁benefit	-8527
▁justice	-8528
▁minimal	-8529
▁feedback	-8530
▁graduate	-8531
▁improved	-8532
▁leverage	-8533
▁province	-8534
▁basically	-8535
▁modifying	-8536
▁platforms	-8537
earphishing	-8538
▁association	-8539
▁operational	-8540
djangoproject	-8541
▁transmission	-8542
▁computational	-8543
.$	-8544
=(	-8545
DC	-8546
EX	-8547
RO	-8548
zy	-8549
Bbb	-8550
icy	-8551
oor	-8552
uli	-8553
▁37	-8554
▁AC	-8555
▁Ep	-8556
/201	-8557
aksh	-8558
atom	-8559
gypt	-8560
iest	-8561
lers	-8562
next	-8563
rell	-8564
▁22,	-8565
▁Aff	-8566
▁CPU	-8567
▁Gar	-8568
▁Leo	-8569
▁Rag	-8570
▁THE	-8571
▁Whe	-8572
▁lad	-8573
arest	-8574
erved	-8575
posed	-8576
serve	-8577
udget	-8578
worth	-8579
▁Gord	-8580
▁Greg	-8581
▁Leon	-8582
▁Pete	-8583
▁Pict	-8584
▁Sher	-8585
▁Zeal	-8586
▁auto	-8587
▁dram	-8588
▁flex	-8589
▁lect	-8590
▁quot	-8591
▁soft	-8592
▁twin	-8593
aining	-8594
ecting	-8595
establ	-8596
isting	-8597
itives	-8598
mother	-8599
psilon	-8600
▁Barry	-8601
▁Radio	-8602
▁comic	-8603
▁cryst	-8604
▁enemy	-8605
▁motiv	-8606
▁quiet	-8607
▁sizes	-8608
▁slope	-8609
writing	-8610
▁Castle	-8611
▁Family	-8612
▁Newton	-8613
▁Region	-8614
▁Sports	-8615
▁athlet	-8616
▁bodies	-8617
▁couldn	-8618
▁hosted	-8619
▁perman	-8620
▁writes	-8621
inations	-8622
▁helpful	-8623
▁implies	-8624
▁inhabit	-8625
▁massive	-8626
▁momentum	-8627
▁Calculate	-8628
▁displayed	-8629
▁fractions	-8630
▁indicates	-8631
▁inference	-8632
▁signature	-8633
▁simultane	-8634
▁commission	-8635
▁extensions	-8636
▁scientific	-8637
▁authorities	-8638
Or	-8639
PA	-8640
]$	-8641
(),	-8642
1).	-8643
azz	-8644
bie	-8645
nic	-8646
oli	-8647
plo	-8648
▁-2	-8649
▁3-	-8650
▁<-	-8651
▁TO	-8652
▁Wi	-8653
▁\;	-8654
▁ma	-8655
▁ms	-8656
brid	-8657
link	-8658
long	-8659
oked	-8660
plib	-8661
ropy	-8662
vari	-8663
▁'16	-8664
▁(2,	-8665
▁>>>	-8666
▁Dor	-8667
▁Gal	-8668
▁Hig	-8669
▁Pot	-8670
▁Syn	-8671
▁cir	-8672
onder	-8673
rance	-8674
▁Pack	-8675
▁Raju	-8676
▁Sean	-8677
▁Slov	-8678
▁Swed	-8679
▁heav	-8680
▁iron	-8681
▁lake	-8682
▁luck	-8683
▁opin	-8684
▁sand	-8685
▁vote	-8686
▁Queen	-8687
▁cache	-8688
▁pixel	-8689
▁squad	-8690
▁teach	-8691
project	-8692
ylvania	-8693
▁Master	-8694
▁hiding	-8695
▁marked	-8696
▁oxygen	-8697
▁posted	-8698
▁proves	-8699
▁quotes	-8700
possible	-8701
▁Comment	-8702
▁Theatre	-8703
▁Zealand	-8704
▁logging	-8705
▁believed	-8706
▁deployed	-8707
▁enabling	-8708
▁episodes	-8709
▁multiply	-8710
▁secretly	-8711
▁smallest	-8712
▁synchron	-8713
▁attracted	-8714
▁dangerous	-8715
▁selection	-8716
▁developers	-8717
▁electronic	-8718
▁frameworks	-8719
▁regression	-8720
▁representing	-8721
▁characteristics	-8722
+2	-8723
/(	-8724
>)	-8725
NN	-8726
TH	-8727
eh	-8728
ju	-8729
$$-	-8730
Def	-8731
Sub	-8732
ato	-8733
php	-8734
sis	-8735
▁45	-8736
▁Jr	-8737
▁PO	-8738
000)	-8739
bara	-8740
func	-8741
iler	-8742
mate	-8743
onto	-8744
ques	-8745
reek	-8746
▁Syd	-8747
▁god	-8748
▁mit	-8749
acter	-8750
cdots	-8751
check	-8752
claim	-8753
float	-8754
inois	-8755
stood	-8756
▁1976	-8757
▁1978	-8758
▁Brun	-8759
▁Frid	-8760
▁Fund	-8761
▁Tele	-8762
▁Turn	-8763
▁Walk	-8764
▁bath	-8765
▁dism	-8766
▁fuel	-8767
▁grew	-8768
▁perp	-8769
▁sear	-8770
ceived	-8771
gebras	-8772
output	-8773
phabet	-8774
rivate	-8775
series	-8776
▁2017)	-8777
▁Album	-8778
▁Egypt	-8779
▁Files	-8780
▁Helen	-8781
▁Ident	-8782
▁atoms	-8783
▁seeks	-8784
elihood	-8785
▁Design	-8786
▁Places	-8787
▁Vector	-8788
▁adjust	-8789
▁detail	-8790
▁divide	-8791
▁narrow	-8792
▁orphan	-8793
▁sounds	-8794
controll	-8795
formance	-8796
projects	-8797
▁Ottoman	-8798
▁Supreme	-8799
▁headers	-8800
▁trusted	-8801
including	-8802
▁Kentucky	-8803
▁cultural	-8804
▁hydrogen	-8805
▁reporter	-8806
▁struggle	-8807
unications	-8808
▁expressed	-8809
▁formation	-8810
▁providers	-8811
▁Definition	-8812
▁Statistics	-8813
▁effectively	-8814
▁opportunities	-8815
▁multiplication	-8816
3\	-8817
5:	-8818
=[	-8819
md	-8820
"</	-8821
10)	-8822
bas	-8823
chi	-8824
ima	-8825
ois	-8826
ova	-8827
wen	-8828
▁..	-8829
▁48	-8830
▁Ay	-8831
.)</	-8832
Tree	-8833
athy	-8834
base	-8835
edge	-8836
eech	-8837
filt	-8838
inen	-8839
odge	-8840
pton	-8841
▁$$(	-8842
▁Dun	-8843
▁End	-8844
▁Hal	-8845
▁Lag	-8846
▁Pip	-8847
▁bur	-8848
▁nam	-8849
ambig	-8850
backs	-8851
comes	-8852
mates	-8853
model	-8854
stone	-8855
▁Cult	-8856
▁Eliz	-8857
▁Iron	-8858
▁coff	-8859
▁kiss	-8860
▁null	-8861
▁rely	-8862
kwargs	-8863
lected	-8864
thread	-8865
{1}{2}	-8866
▁Armen	-8867
▁Jamie	-8868
▁Never	-8869
▁Share	-8870
▁Vijay	-8871
▁escal	-8872
▁orbit	-8873
▁revol	-8874
▁trace	-8875
ryption	-8876
▁Hockey	-8877
▁Script	-8878
▁coding	-8879
▁county	-8880
▁dreams	-8881
▁explos	-8882
▁flying	-8883
▁papers	-8884
▁tested	-8885
▁Britain	-8886
▁Continu	-8887
▁Georgia	-8888
▁Riemann	-8889
▁disease	-8890
▁engaged	-8891
▁feeling	-8892
▁forcing	-8893
▁matters	-8894
▁queries	-8895
▁schemes	-8896
▁settled	-8897
▁univers	-8898
▁Gaussian	-8899
▁breaking	-8900
▁calculus	-8901
▁entirely	-8902
▁manually	-8903
▁spectral	-8904
▁starring	-8905
▁subclass	-8906
▁teaching	-8907
usepackage	-8908
▁Transport	-8909
▁agreement	-8910
▁featuring	-8911
▁intermedi	-8912
▁reluctant	-8913
▁thousands	-8914
▁attempting	-8915
▁conference	-8916
4:	-8917
4]	-8918
>'	-8919
He	-8920
wx	-8921
Att	-8922
New	-8923
^2\	-8924
_2$	-8925
api	-8926
aro	-8927
bal	-8928
ses	-8929
yll	-8930
▁Lt	-8931
▁MS	-8932
▁Ox	-8933
▁SO	-8934
Comp	-8935
appa	-8936
egas	-8937
iger	-8938
king	-8939
rish	-8940
sear	-8941
sers	-8942
▁29,	-8943
▁Ark	-8944
▁Mot	-8945
▁Sel	-8946
▁cyl	-8947
▁era	-8948
▁mil	-8949
▁mob	-8950
ordan	-8951
schem	-8952
▁Bert	-8953
▁Camb	-8954
▁Eval	-8955
▁Lore	-8956
▁Mand	-8957
▁Prim	-8958
▁fell	-8959
▁ille	-8960
▁jeal	-8961
▁paid	-8962
▁pool	-8963
▁sons	-8964
ussion	-8965
▁Basic	-8966
▁Input	-8967
▁Polit	-8968
▁Write	-8969
▁disgu	-8970
▁fault	-8971
▁outer	-8972
-2000-0	-8973
compile	-8974
ificial	-8975
ologist	-8976
tenance	-8977
ulating	-8978
▁Commun	-8979
▁Kansas	-8980
▁Labour	-8981
▁Sydney	-8982
▁carbon	-8983
▁cinema	-8984
▁legisl	-8985
▁liquid	-8986
▁parser	-8987
▁proved	-8988
▁repeat	-8989
▁resear	-8990
specific	-8991
▁Between	-8992
▁aspects	-8993
▁eastern	-8994
▁imagine	-8995
▁passion	-8996
▁variant	-8997
▁Mountain	-8998
▁accompan	-8999
▁achieved	-9000
▁discrete	-9001
▁promoted	-9002
▁sentence	-9003
▁Elizabeth	-9004
▁Solutions	-9005
▁Traceback	-9006
▁collected	-9007
▁convinced	-9008
▁detective	-9009
▁stability	-9010
▁haplogroup	-9011
▁denominator	-9012
▁directories	-9013
▁municipalities	-9014
(-	-9015
4\	-9016
CO	-9017
HO	-9018
^4	-9019
▁â	-9020
0),	-9021
4),	-9022
_{0	-9023
fin	-9024
hot	-9025
▁Ah	-9026
▁Ot	-9027
1059	-9028
That	-9029
aram	-9030
eral	-9031
turb	-9032
wart	-9033
▁(3)	-9034
▁Alf	-9035
▁Hit	-9036
▁alt	-9037
ilipp	-9038
image	-9039
isely	-9040
isson	-9041
itzer	-9042
▁1968	-9043
▁Burn	-9044
▁info	-9045
▁skin	-9046
▁solo	-9047
▁vent	-9048
▁wasn	-9049
agraph	-9050
format	-9051
groups	-9052
▁Billy	-9053
▁Error	-9054
▁Julie	-9055
▁Prime	-9056
▁Value	-9057
▁Video	-9058
▁blind	-9059
▁bytes	-9060
▁craft	-9061
▁homes	-9062
▁shift	-9063
▁Active	-9064
▁Arthur	-9065
▁Silver	-9066
▁Vulner	-9067
▁offset	-9068
▁slowly	-9069
▁upload	-9070
▁worker	-9071
complete	-9072
▁Railway	-9073
▁Station	-9074
▁Stephen	-9075
▁Toronto	-9076
▁comfort	-9077
▁compile	-9078
▁federal	-9079
▁helping	-9080
▁opposed	-9081
▁parsing	-9082
▁prepare	-9083
▁suppose	-9084
▁turning	-9085
▁Children	-9086
▁citizens	-9087
▁governor	-9088
▁scenario	-9089
▁visiting	-9090
▁Challenge	-9091
▁converted	-9092
gricultural	-9093
▁candidates	-9094
▁connecting	-9095
▁repository	-9096
▁reputation	-9097
▁introduction	-9098
72	-9099
By	-9100
De	-9101
GP	-9102
UR	-9103
^*	-9104
pc	-9105
tw	-9106
2_2	-9107
Aut	-9108
Hub	-9109
Res	-9110
aph	-9111
dam	-9112
tor	-9113
▁$|	-9114
▁($	-9115
▁+\	-9116
▁Ho	-9117
▁mm	-9118
arks	-9119
rant	-9120
sign	-9121
vare	-9122
▁Arn	-9123
▁Bib	-9124
▁Dam	-9125
▁Kum	-9126
▁Mol	-9127
▁Str	-9128
▁atm	-9129
▁mic	-9130
▁pup	-9131
adata	-9132
arios	-9133
built	-9134
esian	-9135
oster	-9136
party	-9137
raska	-9138
{1}{2	-9139
▁1991	-9140
▁Dick	-9141
▁Nick	-9142
▁Prob	-9143
▁arts	-9144
▁bill	-9145
▁cold	-9146
▁font	-9147
▁gift	-9148
ogonal	-9149
vector	-9150
▁Penns	-9151
▁Prior	-9152
▁hears	-9153
▁rural	-9154
▁storm	-9155
mathscr	-9156
▁Norway	-9157
▁String	-9158
▁approx	-9159
▁awards	-9160
▁excell	-9161
▁income	-9162
▁stdout	-9163
▁Medical	-9164
▁Philipp	-9165
▁captain	-9166
▁charged	-9167
▁designs	-9168
▁enables	-9169
▁planned	-9170
▁coverage	-9171
▁elliptic	-9172
▁formulas	-9173
▁manifold	-9174
▁periodic	-9175
▁rotation	-9176
▁sampling	-9177
▁commander	-9178
▁concerned	-9179
▁conducted	-9180
▁confesses	-9181
▁estimates	-9182
▁perfectly	-9183
▁somewhere	-9184
▁temporary	-9185
▁Elementary	-9186
▁officially	-9187
▁philosophy	-9188
▁compilation	-9189
▁correlation	-9190
▁possibility	-9191
"]	-9192
GB	-9193
VM	-9194
hy	-9195
mb	-9196
","	-9197
110	-9198
Bar	-9199
Pos	-9200
eer	-9201
sol	-9202
})$	-9203
}^\	-9204
▁09	-9205
▁42	-9206
▁46	-9207
Inst	-9208
conf	-9209
gest	-9210
omot	-9211
▁11:	-9212
▁Jer	-9213
▁Lem	-9214
▁Rom	-9215
▁Tan	-9216
▁fan	-9217
▁gal	-9218
▁vir	-9219
break	-9220
eness	-9221
estic	-9222
itled	-9223
marks	-9224
oured	-9225
ribed	-9226
▁1987	-9227
▁1989	-9228
▁Cart	-9229
▁Deep	-9230
▁Perl	-9231
▁Ruth	-9232
▁Tags	-9233
▁laws	-9234
▁snow	-9235
anning	-9236
textbf	-9237
▁2011,	-9238
▁Chair	-9239
▁adult	-9240
▁ahead	-9241
▁cards	-9242
▁crash	-9243
▁equil	-9244
▁fifth	-9245
▁polar	-9246
content	-9247
▁Avenue	-9248
▁Domain	-9249
▁Indust	-9250
▁labels	-9251
▁priest	-9252
▁thresh	-9253
▁verify	-9254
▁Without	-9255
▁profile	-9256
▁unicode	-9257
▁Moreover	-9258
▁assuming	-9259
▁ceremony	-9260
▁circumst	-9261
▁concerns	-9262
▁expanded	-9263
▁favorite	-9264
▁inspired	-9265
▁offering	-9266
▁provider	-9267
▁surfaces	-9268
▁targeted	-9269
▁alongside	-9270
▁confusion	-9271
▁mechanics	-9272
▁objective	-9273
▁principle	-9274
▁protected	-9275
▁replacing	-9276
▁surrounded	-9277
▁topological	-9278
▁Pennsylvania	-9279
▁headquarters	-9280
1&	-9281
3>	-9282
rs	-9283
án	-9284
-12	-9285
Now	-9286
agu	-9287
nia	-9288
num	-9289
rep	-9290
▁'\	-9291
▁CM	-9292
▁DE	-9293
▁Es	-9294
▁RC	-9295
▁kg	-9296
####	-9297
++++	-9298
agen	-9299
dots	-9300
evin	-9301
just	-9302
rics	-9303
urse	-9304
wing	-9305
▁185	-9306
▁Age	-9307
▁Dra	-9308
▁Gab	-9309
▁Joy	-9310
▁Sab	-9311
▁Ten	-9312
▁Tun	-9313
▁nic	-9314
▁nob	-9315
▁spl	-9316
/001)	-9317
Gener	-9318
ancel	-9319
chers	-9320
etric	-9321
gines	-9322
icted	-9323
named	-9324
orney	-9325
▁(197	-9326
▁Girl	-9327
▁Make	-9328
▁Thor	-9329
▁batt	-9330
▁corp	-9331
▁elif	-9332
▁knew	-9333
encing	-9334
estamp	-9335
inters	-9336
▁2017,	-9337
▁Based	-9338
▁Bible	-9339
▁Crypt	-9340
▁Space	-9341
▁drugs	-9342
▁drums	-9343
▁elder	-9344
▁knock	-9345
▁mouse	-9346
▁ocean	-9347
▁risks	-9348
▁scope	-9349
▁stone	-9350
▁strip	-9351
▁sweet	-9352
▁Bengal	-9353
▁GitHub	-9354
▁Modern	-9355
▁campus	-9356
▁fallen	-9357
▁manual	-9358
▁tennis	-9359
▁troops	-9360
........	-9361
aughters	-9362
ogeneous	-9363
▁Session	-9364
▁founder	-9365
▁iterate	-9366
▁jealous	-9367
▁rapidly	-9368
▁treated	-9369
▁Nebraska	-9370
▁Practice	-9371
▁Protocol	-9372
▁Sciences	-9373
▁Specific	-9374
▁befriend	-9375
▁compiler	-9376
▁friendly	-9377
▁musician	-9378
▁surprise	-9379
▁weakness	-9380
varepsilon	-9381
▁behaviors	-9382
▁databases	-9383
▁geometric	-9384
▁instances	-9385
▁logarithm	-9386
▁quadratic	-9387
▁industrial	-9388
▁permission	-9389
▁procedures	-9390
▁registered	-9391
▁communities	-9392
▁composition	-9393
▁dynamically	-9394
▁incorrectly	-9395
▁necessarily	-9396
▁representative	-9397
GF	-9398
GL	-9399
ti	-9400
Che	-9401
Man	-9402
bey	-9403
ika	-9404
lig	-9405
▁70	-9406
▁Ka	-9407
▁Ku	-9408
▁Ly	-9409
▁MD	-9410
▁SI	-9411
▁Ut	-9412
Case	-9413
addy	-9414
emic	-9415
horn	-9416
uing	-9417
▁184	-9418
▁191	-9419
▁2.5	-9420
▁Bra	-9421
▁Die	-9422
▁FBI	-9423
▁Fle	-9424
▁Foo	-9425
▁Kol	-9426
▁Mit	-9427
▁ban	-9428
▁bra	-9429
▁san	-9430
bound	-9431
elian	-9432
▁Anth	-9433
▁Dark	-9434
▁Moon	-9435
▁Path	-9436
▁Pier	-9437
▁Read	-9438
▁Team	-9439
▁Term	-9440
▁mine	-9441
▁soul	-9442
liance	-9443
random	-9444
▁2009,	-9445
▁Asian	-9446
▁Euler	-9447
▁drops	-9448
▁dying	-9449
▁genus	-9450
▁lands	-9451
▁liber	-9452
▁votes	-9453
ogether	-9454
▁batter	-9455
▁combat	-9456
▁corpor	-9457
▁garden	-9458
▁merged	-9459
▁showed	-9460
▁Francis	-9461
▁airport	-9462
▁archive	-9463
▁briefly	-9464
▁coaches	-9465
▁leaders	-9466
▁loading	-9467
▁weapons	-9468
functions	-9469
▁Illinois	-9470
▁Michigan	-9471
▁concepts	-9472
▁phenomen	-9473
▁proposes	-9474
▁teachers	-9475
▁kidnapped	-9476
▁reduction	-9477
▁residence	-9478
▁standards	-9479
▁confidence	-9480
▁generating	-9481
▁restricted	-9482
▁settlement	-9483
▁maintaining	-9484
▁calculations	-9485
▁distributions	-9486
2+	-9487
5}	-9488
92	-9489
NL	-9490
PO	-9491
TR	-9492
wd	-9493
1.0	-9494
neq	-9495
tmp	-9496
uts	-9497
}{1	-9498
▁!=	-9499
▁CB	-9500
▁IV	-9501
▁NE	-9502
▁Pi	-9503
Page	-9504
Part	-9505
ante	-9506
apse	-9507
cons	-9508
opic	-9509
rill	-9510
rome	-9511
ulse	-9512
yard	-9513
yles	-9514
▁$10	-9515
▁300	-9516
▁Dal	-9517
▁Has	-9518
▁Ian	-9519
▁Ins	-9520
▁Jes	-9521
▁Loc	-9522
▁Nic	-9523
▁Sud	-9524
▁[2,	-9525
▁ion	-9526
False	-9527
etary	-9528
heart	-9529
reens	-9530
ursor	-9531
▁Case	-9532
▁Link	-9533
▁Patt	-9534
▁Side	-9535
▁sail	-9536
▁vide	-9537
bourne	-9538
ectors	-9539
rovers	-9540
▁2008,	-9541
▁Bobby	-9542
▁Sarah	-9543
▁Stone	-9544
▁faces	-9545
▁grown	-9546
▁mayor	-9547
▁parad	-9548
▁sword	-9549
▁thick	-9550
▁tribe	-9551
▁walls	-9552
edition	-9553
forward	-9554
onomous	-9555
▁Austin	-9556
▁Linear	-9557
▁Simple	-9558
▁advert	-9559
▁aggreg	-9560
▁alumni	-9561
▁atmosp	-9562
▁atomic	-9563
▁estate	-9564
▁titles	-9565
ensitive	-9566
irection	-9567
ochastic	-9568
▁Barbara	-9569
▁Pacific	-9570
▁Patrick	-9571
▁council	-9572
▁falling	-9573
▁invites	-9574
▁scatter	-9575
▁welcome	-9576
▁writers	-9577
▁Software	-9578
▁artifact	-9579
▁compound	-9580
▁entities	-9581
▁promises	-9582
▁semantic	-9583
▁universe	-9584
▁Exception	-9585
▁essential	-9586
▁evaluated	-9587
▁practices	-9588
▁seemingly	-9589
▁sentenced	-9590
▁variation	-9591
▁accomplish	-9592
▁categories	-9593
▁deployment	-9594
▁discontinu	-9595
▁footballer	-9596
▁journalist	-9597
▁manipulate	-9598
▁robustness	-9599
▁structural	-9600
▁structured	-9601
▁Additionally	-9602
2-	-9603
6/	-9604
7:	-9605
;=	-9606
HA	-9607
ei	-9608
–2	-9609
”.	-9610
=0$	-9611
boy	-9612
bul	-9613
oto	-9614
Data	-9615
bian	-9616
bits	-9617
clid	-9618
derr	-9619
enna	-9620
hero	-9621
mand	-9622
phas	-9623
true	-9624
{2}{	-9625
▁Chi	-9626
▁Cru	-9627
▁Mir	-9628
▁Nad	-9629
▁Pas	-9630
▁Tag	-9631
▁sed	-9632
▁unf	-9633
▁unw	-9634
actic	-9635
files	-9636
icate	-9637
inson	-9638
power	-9639
▁Adam	-9640
▁Brig	-9641
▁Dock	-9642
▁Tool	-9643
▁fish	-9644
▁guys	-9645
▁lots	-9646
▁rear	-9647
▁tags	-9648
ampion	-9649
enberg	-9650
▁Books	-9651
▁Katie	-9652
▁Princ	-9653
▁Small	-9654
▁anger	-9655
▁deals	-9656
▁divis	-9657
▁honor	-9658
▁initi	-9659
▁moder	-9660
▁saves	-9661
▁towns	-9662
▁widow	-9663
develop	-9664
pective	-9665
written	-9666
▁Energy	-9667
▁Import	-9668
▁Models	-9669
▁Senate	-9670
▁Visual	-9671
▁charts	-9672
▁desire	-9673
▁facing	-9674
▁inject	-9675
▁namely	-9676
▁propag	-9677
▁arrived	-9678
▁billion	-9679
▁indices	-9680
▁islands	-9681
▁notable	-9682
▁wearing	-9683
▁accurate	-9684
▁concrete	-9685
▁covering	-9686
▁prepared	-9687
▁Community	-9688
▁assignment	-9689
▁foundation	-9690
▁impossible	-9691
▁consecutive	-9692
▁observation	-9693
▁certificates	-9694
▁observations	-9695
▁verification	-9696
63	-9697
At	-9698
NI	-9699
[:	-9700
]*	-9701
fs	-9702
ql	-9703
vy	-9704
Log	-9705
Yes	-9706
[3]	-9707
]</	-9708
iah	-9709
osa	-9710
pep	-9711
▁AR	-9712
Conn	-9713
EDIT	-9714
Line	-9715
Some	-9716
Then	-9717
aser	-9718
auth	-9719
iary	-9720
inar	-9721
lets	-9722
oken	-9723
▁Ans	-9724
▁Gro	-9725
▁Lew	-9726
▁Oak	-9727
▁Put	-9728
▁Rud	-9729
▁Sid	-9730
▁Syl	-9731
▁cow	-9732
▁hex	-9733
▁kit	-9734
▁mir	-9735
▁tel	-9736
▁tok	-9737
Popen	-9738
bolic	-9739
itely	-9740
oston	-9741
▁1920	-9742
▁Bell	-9743
▁Farm	-9744
▁byte	-9745
▁clin	-9746
▁frag	-9747
▁leak	-9748
▁nort	-9749
▁warm	-9750
▁zomb	-9751
update	-9752
▁2013,	-9753
▁Baron	-9754
▁Forum	-9755
▁Kevin	-9756
▁Trust	-9757
▁innoc	-9758
▁piano	-9759
▁spots	-9760
▁tower	-9761
▁urban	-9762
ascript	-9763
▁Albert	-9764
▁Having	-9765
▁Muslim	-9766
▁Samuel	-9767
▁buffer	-9768
▁cipher	-9769
▁confir	-9770
▁cycles	-9771
▁defend	-9772
▁steals	-9773
cosystem	-9774
ijacking	-9775
overline	-9776
▁Turkish	-9777
▁Vincent	-9778
▁centers	-9779
▁classic	-9780
▁credits	-9781
▁exposed	-9782
▁granted	-9783
▁hearing	-9784
▁keyword	-9785
▁placebo	-9786
▁respond	-9787
naissance	-9788
▁Location	-9789
▁accessed	-9790
▁mountains	-9791
▁preferred	-9792
▁purchased	-9793
▁rendering	-9794
▁secondary	-9795
▁directions	-9796
▁importance	-9797
▁situations	-9798
▁experienced	-9799
▁maintenance	-9800
▁publication	-9801
▁transaction	-9802
▁Differential	-9803
▁neighbourhood	-9804
▁specification	-9805
+3	-9806
2(	-9807
2×	-9808
81	-9809
");	-9810
-11	-9811
158	-9812
Big	-9813
Doc	-9814
Mon	-9815
avi	-9816
dep	-9817
gie	-9818
ido	-9819
igm	-9820
isp	-9821
nan	-9822
oir	-9823
omp	-9824
zes	-9825
}(\	-9826
▁$=	-9827
▁CE	-9828
▁MC	-9829
▁Ni	-9830
▁Ye	-9831
9999	-9832
Path	-9833
anta	-9834
ctic	-9835
hall	-9836
inds	-9837
opes	-9838
rank	-9839
untu	-9840
▁26,	-9841
▁McK	-9842
▁RAF	-9843
▁Rat	-9844
▁jun	-9845
activ	-9846
ancer	-9847
items	-9848
▁Alan	-9849
▁Band	-9850
▁Bart	-9851
▁Cars	-9852
▁Cass	-9853
▁Root	-9854
▁Tech	-9855
▁fake	-9856
▁hang	-9857
▁legs	-9858
▁mall	-9859
▁rent	-9860
▁vice	-9861
Update	-9862
result	-9863
▁2018)	-9864
▁Adams	-9865
▁Rocky	-9866
▁Spect	-9867
▁modes	-9868
▁opera	-9869
Control	-9870
vention	-9871
▁Angela	-9872
▁Attack	-9873
▁Circle	-9874
▁Editor	-9875
▁Father	-9876
▁Golden	-9877
▁bought	-9878
▁guests	-9879
▁lookup	-9880
▁scores	-9881
▁socket	-9882
▁tensor	-9883
▁winter	-9884
urations	-9885
▁Liberal	-9886
▁Municip	-9887
▁catches	-9888
▁dealing	-9889
▁economy	-9890
▁engines	-9891
▁escaped	-9892
▁facilit	-9893
▁joining	-9894
▁perturb	-9895
▁printed	-9896
▁stopped	-9897
▁arranged	-9898
▁carrying	-9899
▁concentr	-9900
▁interior	-9901
▁mistakes	-9902
▁occurred	-9903
▁thoughts	-9904
▁treasure	-9905
▁variance	-9906
▁watching	-9907
▁Equations	-9908
▁attempted	-9909
▁excellent	-9910
▁itertools	-9911
▁Federation	-9912
▁boundaries	-9913
▁describing	-9914
▁mechanical	-9915
▁dimensional	-9916
▁measurements	-9917
▁technologies	-9918
▁independently	-9919
▁characteristic	-9920
82	-9921
Bl	-9922
HS	-9923
Id	-9924
Jo	-9925
LT	-9926
MA	-9927
mt	-9928
{(	-9929
6),	-9930
[0,	-9931
ito	-9932
myP	-9933
▁44	-9934
▁Ec	-9935
>?</	-9936
HTTP	-9937
User	-9938
aire	-9939
fusc	-9940
glas	-9941
oder	-9942
peps	-9943
tail	-9944
vard	-9945
▁$1$	-9946
▁(0,	-9947
▁AWS	-9948
▁Amy	-9949
▁DVD	-9950
▁Dir	-9951
▁Nag	-9952
▁nom	-9953
aints	-9954
annon	-9955
erves	-9956
hered	-9957
icing	-9958
icked	-9959
ilder	-9960
maker	-9961
multi	-9962
orton	-9963
romag	-9964
▁Beth	-9965
▁Gand	-9966
▁Hann	-9967
▁Kate	-9968
▁Such	-9969
▁cuts	-9970
▁debt	-9971
▁glob	-9972
▁loan	-9973
▁neck	-9974
▁pipe	-9975
Object	-9976
closed	-9977
erving	-9978
mathit	-9979
▁2005,	-9980
▁Solar	-9981
▁Story	-9982
▁Today	-9983
▁judge	-9984
▁seats	-9985
▁spoof	-9986
▁wheel	-9987
aligned	-9988
▁Boston	-9989
▁Mickey	-9990
▁Museum	-9991
▁Proper	-9992
▁Single	-9993
▁cancer	-9994
▁scored	-9995
▁speech	-9996
▁tricks	-9997
▁weapon	-9998
▁yields	-9999
emporary	-10000
ervative	-10001
igration	-10002
negative	-10003
▁Related	-10004
▁highway	-10005
▁license	-10006
▁logical	-10007
▁monster	-10008
▁rewrite	-10009
▁sitting	-10010
▁spatial	-10011
▁datasets	-10012
▁drinking	-10013
▁recovery	-10014
▁regarded	-10015
▁textbook	-10016
▁Authority	-10017
▁certainly	-10018
▁explained	-10019
▁multiplic	-10020
▁publisher	-10021
ambiguation	-10022
▁Mathematic	-10023
▁Revolution	-10024
▁instruments	-10025
▁interpreted	-10026
▁simulations	-10027
▁Metropolitan	-10028
▁Authentication	-10029
73	-10030
fo	-10031
{4	-10032
}[	-10033
(1+	-10034
(1-	-10035
-1}	-10036
/12	-10037
00.	-10038
\}$	-10039
bat	-10040
etc	-10041
gon	-10042
iva	-10043
lab	-10044
nie	-10045
via	-10046
▁$5	-10047
▁SE	-10048
▁Ts	-10049
Form	-10050
PIPE	-10051
adel	-10052
chem	-10053
dule	-10054
iley	-10055
make	-10056
nipp	-10057
util	-10058
▁12.	-10059
▁Ale	-10060
▁Fac	-10061
▁Hug	-10062
▁Jay	-10063
▁NFL	-10064
▁dry	-10065
▁hat	-10066
burgh	-10067
cover	-10068
large	-10069
param	-10070
▁Belg	-10071
▁Date	-10072
▁Emma	-10073
▁Lisa	-10074
▁bare	-10075
▁beta	-10076
▁nick	-10077
▁trav	-10078
adding	-10079
earing	-10080
idance	-10081
limits	-10082
parser	-10083
undant	-10084
▁Colon	-10085
▁Domin	-10086
▁Karan	-10087
▁Numer	-10088
▁Route	-10089
▁Susan	-10090
▁blank	-10091
▁bunch	-10092
▁glass	-10093
▁guest	-10094
▁reign	-10095
▁roads	-10096
▁signs	-10097
otional	-10098
▁Create	-10099
▁Legisl	-10100
▁Mechan	-10101
▁Prince	-10102
▁Record	-10103
▁Senior	-10104
▁Things	-10105
▁entity	-10106
▁palace	-10107
▁prefix	-10108
▁thrown	-10109
▁Russell	-10110
▁choices	-10111
▁decades	-10112
▁filters	-10113
▁inherit	-10114
▁replies	-10115
▁routine	-10116
▁Exchange	-10117
▁Networks	-10118
▁celltype	-10119
▁choosing	-10120
▁compress	-10121
▁creature	-10122
▁defining	-10123
▁determin	-10124
▁exercise	-10125
▁firewall	-10126
▁modeling	-10127
▁pictures	-10128
▁suspects	-10129
▁automated	-10130
▁decisions	-10131
▁employees	-10132
▁extensive	-10133
▁insurance	-10134
▁molecular	-10135
▁nominated	-10136
▁prominent	-10137
▁scientist	-10138
▁utilities	-10139
▁Background	-10140
▁biological	-10141
▁capability	-10142
▁conclusion	-10143
▁convention	-10144
▁quantities	-10145
▁struggling	-10146
▁supporting	-10147
▁inhabitants	-10148
▁establishing	-10149
CL	-10150
DB	-10151
Go	-10152
kt	-10153
▁θ	-10154
ERT	-10155
Out	-10156
Sim	-10157
_1$	-10158
bys	-10159
err	-10160
ned	-10161
▁5:	-10162
▁75	-10163
▁Dw	-10164
▁Om	-10165
▁Si	-10166
-200	-10167
alia	-10168
bles	-10169
razy	-10170
rium	-10171
show	-10172
wsgi	-10173
▁15:	-10174
▁Cau	-10175
▁Ear	-10176
▁GPU	-10177
▁Jos	-10178
▁Opp	-10179
▁Pra	-10180
▁[0,	-10181
▁ble	-10182
▁bon	-10183
▁nit	-10184
▁obs	-10185
▁pin	-10186
Using	-10187
acker	-10188
atern	-10189
ateur	-10190
izard	-10191
names	-10192
shell	-10193
▁Bhar	-10194
▁Born	-10195
▁Diam	-10196
▁Gard	-10197
▁Hans	-10198
▁Luis	-10199
▁Requ	-10200
▁Vish	-10201
▁Wang	-10202
▁hill	-10203
▁spac	-10204
simple	-10205
▁2018,	-10206
▁Grace	-10207
▁Korea	-10208
▁Sound	-10209
▁Works	-10210
▁photo	-10211
▁prize	-10212
▁races	-10213
▁relax	-10214
▁sport	-10215
▁stays	-10216
▁stret	-10217
▁thank	-10218
▁theme	-10219
▁therm	-10220
counter	-10221
rection	-10222
▁Colomb	-10223
▁Compar	-10224
▁Custom	-10225
▁Global	-10226
▁Korean	-10227
▁Scient	-10228
▁benign	-10229
▁buried	-10230
▁honest	-10231
▁monkey	-10232
▁robber	-10233
▁sacrif	-10234
▁sevent	-10235
platform	-10236
▁Defense	-10237
▁Douglas	-10238
▁anybody	-10239
▁capable	-10240
▁closely	-10241
▁desktop	-10242
▁dropped	-10243
▁fashion	-10244
▁focused	-10245
▁pointer	-10246
▁resolve	-10247
▁reviews	-10248
▁soldier	-10249
▁survive	-10250
▁weekend	-10251
avascript	-10252
▁achieves	-10253
▁alphabet	-10254
▁employed	-10255
▁hundreds	-10256
▁indicate	-10257
▁occasion	-10258
▁prisoner	-10259
▁simplest	-10260
▁unittest	-10261
▁announces	-10262
▁authority	-10263
▁convinces	-10264
▁daughters	-10265
▁defensive	-10266
▁delivered	-10267
▁revealing	-10268
▁tradition	-10269
▁uniformly	-10270
▁Protection	-10271
▁assistance	-10272
▁stochastic	-10273
▁incorporated	-10274
disambiguation	-10275
▁implementations	-10276
Fr	-10277
La	-10278
TK	-10279
öy	-10280
7),	-10281
SER	-10282
des	-10283
jpg	-10284
lee	-10285
nik	-10286
sex	-10287
▁OK	-10288
▁Ty	-10289
▁ce	-10290
▁dy	-10291
anes	-10292
anti	-10293
argv	-10294
feed	-10295
ffff	-10296
hire	-10297
lips	-10298
oker	-10299
oles	-10300
riel	-10301
▁14:	-10302
▁Mik	-10303
▁Rab	-10304
▁alk	-10305
▁bot	-10306
▁fib	-10307
▁jew	-10308
▁mel	-10309
eties	-10310
inate	-10311
oscow	-10312
osity	-10313
plied	-10314
udson	-10315
water	-10316
▁1940	-10317
▁Auto	-10318
▁Bond	-10319
▁Fast	-10320
▁anni	-10321
▁aver	-10322
▁defe	-10323
▁golf	-10324
▁impr	-10325
▁soph	-10326
▁2003,	-10327
▁Allen	-10328
▁Guard	-10329
▁Maybe	-10330
▁alert	-10331
▁kinds	-10332
▁waves	-10333
autiful	-10334
versary	-10335
▁Donald	-10336
▁Morgan	-10337
▁Sunday	-10338
▁Target	-10339
▁Torres	-10340
▁animal	-10341
▁budget	-10342
▁colour	-10343
▁driven	-10344
▁horror	-10345
▁mental	-10346
▁tunnel	-10347
▁viewed	-10348
▁vision	-10349
▁Unicode	-10350
▁claimed	-10351
▁descent	-10352
▁editing	-10353
▁satisfy	-10354
▁somehow	-10355
▁unusual	-10356
▁winners	-10357
CharField	-10358
avelength	-10359
something	-10360
▁Explorer	-10361
▁Pakistan	-10362
▁anywhere	-10363
▁circular	-10364
▁constitu	-10365
▁displays	-10366
▁festival	-10367
▁proceeds	-10368
▁reaching	-10369
▁situated	-10370
▁studying	-10371
▁websites	-10372
▁Christine	-10373
▁Hollywood	-10374
▁instantly	-10375
▁naturally	-10376
▁nonlinear	-10377
▁obviously	-10378
▁promotion	-10379
▁responses	-10380
▁scenarios	-10381
▁telephone	-10382
▁unsuccess	-10383
▁villagers	-10384
▁controvers	-10385
▁leadership	-10386
▁repeatedly	-10387
▁respective	-10388
▁revolution	-10389
▁substitute	-10390
▁grandmother	-10391
▁recommended	-10392
▁proportional	-10393
▁circumstances	-10394
"&	-10395
%,	-10396
Bu	-10397
LC	-10398
NO	-10399
Su	-10400
^2}	-10401
bow	-10402
fra	-10403
mys	-10404
utt	-10405
zan	-10406
▁34	-10407
▁52	-10408
▁55	-10409
▁:)	-10410
▁NU	-10411
▁db	-10412
Size	-10413
film	-10414
imet	-10415
mult	-10416
orig	-10417
rost	-10418
▁120	-10419
▁Bor	-10420
▁Cre	-10421
▁Hom	-10422
▁Jee	-10423
▁Joh	-10424
▁Ref	-10425
▁[2]	-10426
▁gay	-10427
apore	-10428
emble	-10429
tains	-10430
ulent	-10431
▁Gene	-10432
▁brut	-10433
▁duty	-10434
▁gall	-10435
▁sums	-10436
▁thir	-10437
access	-10438
hedule	-10439
levant	-10440
▁Again	-10441
▁Front	-10442
▁Ocean	-10443
▁Sport	-10444
▁Stein	-10445
▁Vegas	-10446
▁coinc	-10447
▁forth	-10448
▁habit	-10449
▁infer	-10450
▁ships	-10451
▁stick	-10452
unicode	-10453
▁Gordon	-10454
▁Jordan	-10455
▁Square	-10456
▁backup	-10457
▁bundle	-10458
▁issued	-10459
▁meters	-10460
▁rating	-10461
▁reward	-10462
▁twenty	-10463
▁Complex	-10464
▁binding	-10465
▁circles	-10466
▁columns	-10467
▁confirm	-10468
▁freedom	-10469
▁handles	-10470
▁invited	-10471
▁nearest	-10472
▁outputs	-10473
▁patient	-10474
▁walking	-10475
vironment	-10476
▁Anderson	-10477
▁Business	-10478
▁Military	-10479
▁adjacent	-10480
▁animated	-10481
▁benefits	-10482
▁customer	-10483
▁entering	-10484
▁floating	-10485
▁implicit	-10486
▁purchase	-10487
▁redirect	-10488
▁regional	-10489
▁removing	-10490
▁Similarly	-10491
▁Singapore	-10492
▁canonical	-10493
▁ecosystem	-10494
▁intercept	-10495
▁privilege	-10496
▁threatens	-10497
▁worldwide	-10498
▁configured	-10499
▁maintained	-10500
▁percentage	-10501
▁suspicious	-10502
▁understood	-10503
▁grandfather	-10504
▁substantial	-10505
▁independence	-10506
▁differentiable	-10507
.'	-10508
1–	-10509
TE	-10510
WA	-10511
dn	-10512
–0	-10513
/2.	-10514
IME	-10515
SON	-10516
fly	-10517
mad	-10518
mir	-10519
tha	-10520
zel	-10521
▁(5	-10522
▁65	-10523
▁DB	-10524
▁FC	-10525
▁TH	-10526
▁Tu	-10527
fast	-10528
quit	-10529
ulpt	-10530
▁17:	-10531
▁Cam	-10532
▁Iss	-10533
▁Lam	-10534
▁Pur	-10535
▁hur	-10536
▁mad	-10537
▁rig	-10538
Trans	-10539
andal	-10540
archy	-10541
beros	-10542
clock	-10543
equiv	-10544
essel	-10545
opter	-10546
valid	-10547
▁Mond	-10548
▁Move	-10549
▁sage	-10550
▁suit	-10551
elines	-10552
hedral	-10553
incial	-10554
master	-10555
orious	-10556
orrect	-10557
ortion	-10558
▁2004,	-10559
▁Dynam	-10560
▁Fried	-10561
▁Krist	-10562
▁Third	-10563
▁annot	-10564
▁balls	-10565
▁grant	-10566
▁mouth	-10567
▁pilot	-10568
▁resid	-10569
▁talks	-10570
▁upset	-10571
current	-10572
olished	-10573
viously	-10574
▁Athlet	-10575
▁Nether	-10576
▁Polish	-10577
▁Thread	-10578
▁Unlike	-10579
▁apache	-10580
▁covari	-10581
▁frustr	-10582
▁picked	-10583
▁scales	-10584
▁titled	-10585
▁topics	-10586
▁winner	-10587
atherine	-10588
▁Edition	-10589
▁Install	-10590
▁Results	-10591
▁packets	-10592
▁perpend	-10593
▁protein	-10594
▁tangent	-10595
▁theatre	-10596
▁weather	-10597
▁Ministry	-10598
▁computed	-10599
▁keyboard	-10600
▁quotient	-10601
▁vehicles	-10602
▁Entertain	-10603
▁Inspector	-10604
▁Populated	-10605
▁fictional	-10606
▁landscape	-10607
▁namespace	-10608
▁producing	-10609
▁requiring	-10610
▁scheduled	-10611
▁appreciate	-10612
▁assumptions	-10613
▁exponential	-10614
▁modification	-10615
/#	-10616
71	-10617
=5	-10618
?)	-10619
Do	-10620
FI	-10621
ía	-10622
15,	-10623
ATA	-10624
Rem	-10625
acs	-10626
env	-10627
mem	-10628
pur	-10629
sky	-10630
sql	-10631
tab	-10632
typ	-10633
upt	-10634
▁),	-10635
▁:=	-10636
▁ET	-10637
▁Ta	-10638
▁Wy	-10639
▁ic	-10640
▁}}	-10641
ando	-10642
card	-10643
oids	-10644
otte	-10645
}}{\	-10646
▁IBM	-10647
▁Sak	-10648
▁Who	-10649
▁cup	-10650
▁rac	-10651
acket	-10652
bolds	-10653
chell	-10654
enter	-10655
ipart	-10656
uable	-10657
umbai	-10658
usive	-10659
▁....	-10660
▁1986	-10661
▁Benj	-10662
▁Caes	-10663
▁Rand	-10664
▁grab	-10665
▁myth	-10666
▁pron	-10667
▁puzz	-10668
▁sedu	-10669
ibrium	-10670
ported	-10671
romise	-10672
rusted	-10673
▁Analy	-10674
▁Bates	-10675
▁Betty	-10676
▁Clare	-10677
▁Croat	-10678
▁Frame	-10679
▁Griff	-10680
▁Sorry	-10681
▁Stage	-10682
▁armed	-10683
▁arrow	-10684
▁likes	-10685
▁solar	-10686
▁worry	-10687
▁worse	-10688
▁Moscow	-10689
▁Reason	-10690
▁abused	-10691
▁crimin	-10692
▁deeply	-10693
▁exceed	-10694
▁franch	-10695
▁preced	-10696
▁resist	-10697
▁stages	-10698
▁summar	-10699
▁Brother	-10700
▁Quantum	-10701
▁absence	-10702
▁assumes	-10703
▁dancing	-10704
▁denoted	-10705
▁discipl	-10706
▁enemies	-10707
▁murders	-10708
▁opinion	-10709
▁overlap	-10710
▁Margaret	-10711
▁Personal	-10712
▁bringing	-10713
▁colleges	-10714
▁conclude	-10715
▁employee	-10716
▁isolated	-10717
▁patients	-10718
▁readable	-10719
▁topology	-10720
ographical	-10721
▁Algorithm	-10722
▁Directory	-10723
▁gradually	-10724
▁happening	-10725
▁integrity	-10726
▁invariant	-10727
▁molecules	-10728
▁officials	-10729
▁precisely	-10730
▁struggles	-10731
▁threshold	-10732
▁generators	-10733
▁passengers	-10734
▁indentation	-10735
▁interactive	-10736
▁intermediate	-10737
▁universities	-10738
▁effectiveness	-10739
▁organizations	-10740
,$	-10741
/1	-10742
>@	-10743
XX	-10744
Dec	-10745
erk	-10746
gue	-10747
hus	-10748
lav	-10749
nov	-10750
▁3]	-10751
▁EP	-10752
▁ES	-10753
▁PR	-10754
▁TR	-10755
▁["	-10756
▁fo	-10757
Base	-10758
aped	-10759
aran	-10760
ften	-10761
hess	-10762
ianc	-10763
ilst	-10764
oche	-10765
opol	-10766
trac	-10767
udes	-10768
▁AND	-10769
▁Ana	-10770
▁Did	-10771
▁Ide	-10772
▁LED	-10773
▁Ric	-10774
▁Rio	-10775
▁Rot	-10776
▁Saf	-10777
▁Yen	-10778
▁guy	-10779
▁hel	-10780
▁pdf	-10781
adesh	-10782
chant	-10783
issue	-10784
lower	-10785
teger	-10786
▁1930	-10787
▁1969	-10788
▁1984	-10789
▁Batt	-10790
▁Cole	-10791
▁Eric	-10792
▁Pont	-10793
▁Snow	-10794
▁bias	-10795
▁frog	-10796
▁hunt	-10797
▁lady	-10798
▁shel	-10799
cancel	-10800
ecraft	-10801
former	-10802
orship	-10803
permut	-10804
▁2001,	-10805
▁2005.	-10806
▁2019,	-10807
▁Alber	-10808
▁Along	-10809
▁Buddh	-10810
▁Speed	-10811
▁diagn	-10812
▁marks	-10813
▁plots	-10814
▁woods	-10815
Network	-10816
▁Dwight	-10817
▁Friday	-10818
▁Mumbai	-10819
▁dragon	-10820
▁listen	-10821
▁prints	-10822
▁protot	-10823
▁retire	-10824
▁surviv	-10825
▁tokens	-10826
ithmetic	-10827
packages	-10828
rational	-10829
▁Initial	-10830
▁Natural	-10831
▁accused	-10832
▁belongs	-10833
▁disable	-10834
▁funeral	-10835
▁marries	-10836
▁shocked	-10837
▁shortly	-10838
▁sisters	-10839
▁summary	-10840
▁wounded	-10841
▁Armenian	-10842
▁Keywords	-10843
▁entrance	-10844
▁exposure	-10845
▁imprison	-10846
▁operates	-10847
▁politics	-10848
▁searches	-10849
▁symmetry	-10850
▁whenever	-10851
boldsymbol	-10852
▁Functions	-10853
▁Technical	-10854
▁artifacts	-10855
▁disestabl	-10856
▁partially	-10857
▁succeeded	-10858
classmethod	-10859
▁Application	-10860
▁institution	-10861
▁implementing	-10862
▁restrictions	-10863
▁simultaneously	-10864
)^	-10865
/4	-10866
/5	-10867
AX	-10868
\%	-10869
\|	-10870
dr	-10871
oz	-10872
sf	-10873
▁≤	-10874
300	-10875
aug	-10876
isk	-10877
nat	-10878
▁4-	-10879
▁Gh	-10880
▁IC	-10881
▁Yu	-10882
▁mo	-10883
▁}$	-10884
abul	-10885
achi	-10886
asty	-10887
brow	-10888
eros	-10889
fers	-10890
itus	-10891
ixed	-10892
mode	-10893
oard	-10894
uese	-10895
▁Ast	-10896
▁COM	-10897
▁Cha	-10898
▁Cos	-10899
▁Gon	-10900
▁IDE	-10901
▁Lyn	-10902
▁MAT	-10903
▁Spr	-10904
▁Tak	-10905
▁Yan	-10906
▁fru	-10907
▁kil	-10908
▁rab	-10909
▁shr	-10910
▁−0.	-10911
alled	-10912
amber	-10913
antha	-10914
aters	-10915
atorn	-10916
hears	-10917
oving	-10918
raged	-10919
rophy	-10920
uling	-10921
▁Cant	-10922
▁Comb	-10923
▁Emer	-10924
▁fans	-10925
▁irre	-10926
▁isot	-10927
▁lift	-10928
▁mart	-10929
▁migr	-10930
▁perc	-10931
▁trio	-10932
approx	-10933
engine	-10934
estyle	-10935
keeper	-10936
leased	-10937
mathop	-10938
perial	-10939
urable	-10940
▁2007.	-10941
▁Beach	-10942
▁Score	-10943
▁Views	-10944
▁fraud	-10945
▁sight	-10946
▁sixth	-10947
ensions	-10948
implies	-10949
product	-10950
▁Turing	-10951
▁Wilson	-10952
▁dialog	-10953
▁profit	-10954
▁proven	-10955
▁sculpt	-10956
▁slower	-10957
▁taught	-10958
Function	-10959
atorname	-10960
▁Poisson	-10961
▁Roberts	-10962
▁Schools	-10963
▁closing	-10964
▁formats	-10965
▁gravity	-10966
▁heavily	-10967
▁impress	-10968
▁periods	-10969
▁promise	-10970
▁suffers	-10971
▁tickets	-10972
▁warning	-10973
itertools	-10974
▁Atlantic	-10975
▁Database	-10976
▁Geometry	-10977
▁binaries	-10978
▁delivery	-10979
▁findings	-10980
▁occupied	-10981
▁rejected	-10982
▁shortcut	-10983
▁spending	-10984
▁standing	-10985
▁symbolic	-10986
authorized	-10987
▁Chemistry	-10988
▁alignment	-10989
▁capacitor	-10990
▁disappear	-10991
▁exclusive	-10992
▁integrals	-10993
▁manifolds	-10994
▁organized	-10995
▁JavaScript	-10996
▁Republican	-10997
▁attractive	-10998
▁completion	-10999
▁downstream	-11000
▁elementary	-11001
▁programmer	-11002
▁proportion	-11003
▁translated	-11004
operatorname	-11005
▁Programming	-11006
▁communicate	-11007
▁destination	-11008
▁frequencies	-11009
▁interactions	-11010
▁manipulation	-11011
▁Entertainment	-11012
▁perpendicular	-11013
.<	-11014
0&	-11015
>$	-11016
FO	-11017
NP	-11018
OD	-11019
{.	-11020
{5	-11021
0.1	-11022
;",	-11023
Act	-11024
Mac	-11025
ROM	-11026
Use	-11027
bel	-11028
hev	-11029
lat	-11030
oby	-11031
rav	-11032
uly	-11033
▁HP	-11034
▁WS	-11035
▁pm	-11036
Also	-11037
okes	-11038
ummy	-11039
–199	-11040
▁10:	-11041
▁ABC	-11042
▁Abd	-11043
▁Bun	-11044
▁Lat	-11045
▁Pos	-11046
▁UTC	-11047
▁hen	-11048
▁pig	-11049
entor	-11050
erman	-11051
ester	-11052
event	-11053
itage	-11054
ivari	-11055
oning	-11056
tplib	-11057
uming	-11058
ymmet	-11059
▁1948	-11060
▁1964	-11061
▁1983	-11062
▁2:29	-11063
▁Anne	-11064
▁Babu	-11065
▁Barn	-11066
▁Cher	-11067
▁Fern	-11068
▁LLMs	-11069
▁Luke	-11070
▁Wars	-11071
▁bull	-11072
▁dump	-11073
▁wing	-11074
center	-11075
domain	-11076
▁1998,	-11077
▁Alice	-11078
▁Bangl	-11079
▁Bowie	-11080
▁Creek	-11081
▁Daily	-11082
▁Marie	-11083
▁Squad	-11084
▁Total	-11085
▁dense	-11086
▁empir	-11087
▁inval	-11088
▁jumps	-11089
▁loyal	-11090
▁uniqu	-11091
▁vocal	-11092
▁wakes	-11093
English	-11094
itivity	-11095
▁Maggie	-11096
▁Orange	-11097
▁Walker	-11098
▁Within	-11099
▁affili	-11100
▁coffee	-11101
▁decade	-11102
▁derive	-11103
▁emphas	-11104
▁suspic	-11105
▁talent	-11106
▁temple	-11107
▁valley	-11108
Phishing	-11109
instance	-11110
outheast	-11111
▁consult	-11112
▁denotes	-11113
▁enhance	-11114
▁explore	-11115
▁noticed	-11116
▁selling	-11117
▁vampire	-11118
▁Certific	-11119
▁Portugal	-11120
▁crossing	-11121
▁develops	-11122
▁formally	-11123
▁infected	-11124
▁instruct	-11125
▁shopping	-11126
▁visitors	-11127
▁collision	-11128
▁converges	-11129
▁medalists	-11130
▁metaclass	-11131
▁musicians	-11132
▁ownership	-11133
▁complement	-11134
▁interfaces	-11135
▁reasonable	-11136
▁politicians	-11137
▁institutions	-11138
▁transactions	-11139
▁Authorization	-11140
▁contributions	-11141
▁decomposition	-11142
▁configurations	-11143
▁generalization	-11144
(*	-11145
=4	-11146
FM	-11147
Fi	-11148
RS	-11149
_,	-11150
pa	-11151
02.	-11152
10^	-11153
2</	-11154
:45	-11155
INE	-11156
Why	-11157
^{-	-11158
adi	-11159
azy	-11160
mic	-11161
opl	-11162
png	-11163
sud	-11164
▁0;	-11165
▁2\	-11166
▁59	-11167
▁Cu	-11168
▁IM	-11169
▁PL	-11170
▁na	-11171
▁{}	-11172
adic	-11173
alph	-11174
erek	-11175
olor	-11176
▁FTP	-11177
▁Gib	-11178
▁Nob	-11179
▁Tib	-11180
▁coc	-11181
▁cro	-11182
▁pir	-11183
▁piv	-11184
▁tub	-11185
abric	-11186
agues	-11187
digit	-11188
essed	-11189
iline	-11190
orous	-11191
query	-11192
strip	-11193
uerto	-11194
unted	-11195
▁(196	-11196
▁1973	-11197
▁1979	-11198
▁1981	-11199
▁1982	-11200
▁2023	-11201
▁Chad	-11202
▁sqrt	-11203
▁tall	-11204
ellite	-11205
folder	-11206
manuel	-11207
omatic	-11208
points	-11209
▁2014,	-11210
▁2016,	-11211
▁Appro	-11212
▁Davis	-11213
▁Stock	-11214
▁Upper	-11215
▁Woody	-11216
▁Years	-11217
▁ambig	-11218
▁bases	-11219
▁funds	-11220
▁orche	-11221
▁quest	-11222
▁stead	-11223
▁steel	-11224
▁tight	-11225
Command	-11226
▁Bridge	-11227
▁Dennis	-11228
▁Events	-11229
▁Queens	-11230
▁Season	-11231
▁census	-11232
▁excess	-11233
▁exclud	-11234
▁favour	-11235
▁hybrid	-11236
▁immigr	-11237
▁remark	-11238
▁saving	-11239
▁typing	-11240
▁yellow	-11241
ractions	-11242
~~~~~~~~	-11243
▁abelian	-11244
▁alleged	-11245
▁analyze	-11246
▁assault	-11247
▁biggest	-11248
▁closest	-11249
▁fishing	-11250
▁mansion	-11251
▁revenue	-11252
▁strikes	-11253
▁teenage	-11254
▁trapped	-11255
▁Kerberos	-11256
▁affected	-11257
▁assembly	-11258
▁claiming	-11259
▁metadata	-11260
▁realises	-11261
▁reliable	-11262
▁resulted	-11263
▁tracking	-11264
▁Cambridge	-11265
▁Discovery	-11266
▁automatic	-11267
▁criminals	-11268
▁enumerate	-11269
▁guarantee	-11270
▁partition	-11271
▁permanent	-11272
▁plaintext	-11273
▁traveling	-11274
▁classified	-11275
▁compressed	-11276
▁electrical	-11277
▁explaining	-11278
▁photograph	-11279
▁popularity	-11280
▁prediction	-11281
▁derivatives	-11282
▁fingerprint	-11283
▁underground	-11284
'\	-11285
AE	-11286
'):	-11287
)))	-11288
KEY	-11289
car	-11290
emp	-11291
eor	-11292
htm	-11293
iot	-11294
loc	-11295
pin	-11296
pub	-11297
uda	-11298
xic	-11299
▁$4	-11300
▁39	-11301
▁UI	-11302
▁Ul	-11303
John	-11304
agic	-11305
aman	-11306
aron	-11307
duce	-11308
esis	-11309
high	-11310
iami	-11311
mbox	-11312
olph	-11313
oved	-11314
pler	-11315
rett	-11316
▁115	-11317
▁Kap	-11318
▁Ted	-11319
▁hal	-11320
▁obj	-11321
▁pit	-11322
▁ven	-11323
Check	-11324
cycle	-11325
icken	-11326
othes	-11327
uther	-11328
▁1967	-11329
▁Brow	-11330
▁Bull	-11331
▁Know	-11332
▁Lock	-11333
▁Mist	-11334
▁Pand	-11335
▁Ward	-11336
▁Wolf	-11337
▁chap	-11338
▁diam	-11339
▁docs	-11340
▁drum	-11341
▁folk	-11342
▁memb	-11343
▁prev	-11344
▁ties	-11345
Parser	-11346
ipping	-11347
lessly	-11348
vanced	-11349
▁Cliff	-11350
▁Could	-11351
▁Dream	-11352
▁Hello	-11353
▁Jesus	-11354
▁Medal	-11355
▁Right	-11356
▁deleg	-11357
▁flees	-11358
▁pulls	-11359
▁queen	-11360
▁rings	-11361
▁sorry	-11362
▁spawn	-11363
▁waste	-11364
achelor	-11365
▁Fields	-11366
▁Forest	-11367
▁Helper	-11368
▁Hunter	-11369
▁Markov	-11370
▁Puerto	-11371
▁arrays	-11372
▁cancel	-11373
▁denote	-11374
▁layers	-11375
▁spends	-11376
lication	-11377
▁Affairs	-11378
▁Antonio	-11379
▁Content	-11380
▁Subject	-11381
▁Support	-11382
▁Website	-11383
▁amounts	-11384
▁beating	-11385
▁carries	-11386
▁holiday	-11387
▁markets	-11388
▁notices	-11389
▁scratch	-11390
▁seeking	-11391
▁Arkansas	-11392
▁Samantha	-11393
▁Williams	-11394
▁champion	-11395
▁connects	-11396
▁cylinder	-11397
▁disabled	-11398
▁equality	-11399
▁equipped	-11400
▁founding	-11401
▁handling	-11402
▁managers	-11403
▁realized	-11404
▁resistor	-11405
▁strictly	-11406
▁supplies	-11407
▁achieving	-11408
▁alternate	-11409
▁benchmark	-11410
▁Portuguese	-11411
▁Production	-11412
▁convenient	-11413
▁orthogonal	-11414
▁enforcement	-11415
▁participated	-11416
▁Vulnerability	-11417
▁establishment	-11418
****************	-11419
2&	-11420
NE	-11421
TS	-11422
UP	-11423
];	-11424
tu	-11425
}-	-11426
ás	-11427
'),	-11428
'</	-11429
=1,	-11430
BSD	-11431
YST	-11432
ait	-11433
ami	-11434
chy	-11435
ggy	-11436
iga	-11437
oba	-11438
}-\	-11439
▁((	-11440
▁1-	-11441
▁Kl	-11442
▁Tk	-11443
▁Ze	-11444
▁rh	-11445
([1,	-11446
aled	-11447
asts	-11448
care	-11449
dest	-11450
diff	-11451
exit	-11452
ipes	-11453
obic	-11454
oust	-11455
pres	-11456
rase	-11457
roid	-11458
roke	-11459
unte	-11460
}$$,	-11461
▁108	-11462
▁13:	-11463
▁19:	-11464
▁BBC	-11465
▁Hay	-11466
▁Ira	-11467
▁Job	-11468
▁Kay	-11469
▁Nev	-11470
▁Rah	-11471
▁SSH	-11472
▁Say	-11473
▁Stu	-11474
▁fug	-11475
▁}^{	-11476
First	-11477
lings	-11478
oming	-11479
owder	-11480
parse	-11481
peror	-11482
rolog	-11483
▁Bout	-11484
▁DLLs	-11485
▁Fall	-11486
▁Less	-11487
▁Past	-11488
▁Raja	-11489
▁Rico	-11490
▁ages	-11491
▁dedu	-11492
▁echo	-11493
▁func	-11494
▁pole	-11495
▁proc	-11496
▁rein	-11497
▁roof	-11498
▁sale	-11499
ellect	-11500
mology	-11501
urring	-11502
▁Drive	-11503
▁Exerc	-11504
▁Guide	-11505
▁Lewis	-11506
▁Miami	-11507
▁Robin	-11508
▁Study	-11509
▁argue	-11510
▁insec	-11511
▁veter	-11512
▁winds	-11513
inction	-11514
minster	-11515
▁######	-11516
▁Carson	-11517
▁Carter	-11518
▁Output	-11519
▁Oxford	-11520
▁archae	-11521
▁fought	-11522
▁lesson	-11523
▁pixels	-11524
▁pursue	-11525
▁semant	-11526
ordinate	-11527
precated	-11528
▁Default	-11529
▁compete	-11530
▁drivers	-11531
▁focuses	-11532
▁notably	-11533
▁observe	-11534
▁precise	-11535
▁robbery	-11536
▁upgrade	-11537
▁Electric	-11538
▁Equation	-11539
▁Jennifer	-11540
▁Victoria	-11541
▁competed	-11542
▁domestic	-11543
▁guidance	-11544
▁ordering	-11545
▁randomly	-11546
▁releases	-11547
▁sleeping	-11548
▁stealing	-11549
▁throwing	-11550
▁username	-11551
▁vacation	-11552
filtration	-11553
griculture	-11554
▁Melbourne	-11555
▁animation	-11556
▁contribut	-11557
▁intention	-11558
▁timestamp	-11559
▁disappoint	-11560
▁facilities	-11561
▁likelihood	-11562
▁physically	-11563
▁competitive	-11564
▁determining	-11565
▁instruction	-11566
▁partnership	-11567
▁permutation	-11568
▁replacement	-11569
▁dependencies	-11570
▁interpretation	-11571
)|	-11572
1>	-11573
Of	-11574
zh	-11575
').	-11576
/2)	-11577
0.5	-11578
34/	-11579
CON	-11580
Per	-11581
Top	-11582
Web	-11583
bug	-11584
iao	-11585
ipp	-11586
mol	-11587
oti	-11588
src	-11589
sto	-11590
sup	-11591
ugh	-11592
uro	-11593
▁(-	-11594
▁+1	-11595
▁AG	-11596
▁Gü	-11597
▁OF	-11598
000.	-11599
=1}^	-11600
West	-11601
avor	-11602
bach	-11603
gery	-11604
ghan	-11605
jali	-11606
}$$.	-11607
}^{2	-11608
▁$(\	-11609
▁16:	-11610
▁21:	-11611
▁CGI	-11612
▁Dak	-11613
▁Fel	-11614
▁Hem	-11615
▁Hog	-11616
▁Laz	-11617
▁Raw	-11618
▁bat	-11619
▁cul	-11620
▁dub	-11621
▁env	-11622
▁pra	-11623
▁tet	-11624
Array	-11625
acles	-11626
arthy	-11627
brace	-11628
ensed	-11629
leton	-11630
ounce	-11631
ouses	-11632
patch	-11633
rayed	-11634
ronze	-11635
stdin	-11636
▁1952	-11637
▁1972	-11638
▁Alab	-11639
▁Andy	-11640
▁aged	-11641
▁belt	-11642
▁dish	-11643
▁quit	-11644
▁soci	-11645
▁sudo	-11646
Config	-11647
Thread	-11648
ackets	-11649
acters	-11650
erning	-11651
should	-11652
▁Brent	-11653
▁Jenny	-11654
▁Sonia	-11655
▁Table	-11656
▁batch	-11657
▁helic	-11658
▁linux	-11659
▁moles	-11660
▁numpy	-11661
▁penal	-11662
▁sharp	-11663
chester	-11664
iration	-11665
objects	-11666
ropical	-11667
▁Caesar	-11668
▁Johann	-11669
▁Joshua	-11670
▁Secure	-11671
▁apolog	-11672
▁borrow	-11673
▁chases	-11674
▁commut	-11675
▁copper	-11676
▁losses	-11677
▁magnet	-11678
▁mixing	-11679
▁museum	-11680
▁nested	-11681
▁neural	-11682
▁ranges	-11683
▁sparse	-11684
▁tuples	-11685
▁videos	-11686
▁Anthony	-11687
▁Diamond	-11688
▁Digimon	-11689
▁Senator	-11690
▁cricket	-11691
▁descend	-11692
▁dismiss	-11693
▁divorce	-11694
▁extreme	-11695
▁fiction	-11696
▁illegal	-11697
▁landing	-11698
▁outcome	-11699
▁removes	-11700
▁screens	-11701
▁shouldn	-11702
▁thereby	-11703
▁traject	-11704
▁updates	-11705
▁Baseball	-11706
▁McCarthy	-11707
▁analytic	-11708
▁declared	-11709
▁diagonal	-11710
▁executes	-11711
▁inherent	-11712
▁publicly	-11713
▁reducing	-11714
▁schedule	-11715
▁stronger	-11716
▁theories	-11717
▁thousand	-11718
▁upcoming	-11719
▁centuries	-11720
▁combining	-11721
▁committee	-11722
▁consisted	-11723
▁embedding	-11724
▁gathering	-11725
▁interests	-11726
▁iteration	-11727
▁passenger	-11728
▁sophistic	-11729
▁terrorist	-11730
▁PowerShell	-11731
▁hyperbolic	-11732
▁persistent	-11733
▁personally	-11734
▁Legislative	-11735
▁Mathematica	-11736
▁Netherlands	-11737
▁appearances	-11738
▁approximate	-11739
▁equilibrium	-11740
▁generalized	-11741
▁interchange	-11742
▁introducing	-11743
▁Distribution	-11744
▁contribution	-11745
▁demonstrated	-11746
▁Configuration	-11747
▁manufacturing	-11748
.;	-11749
Am	-11750
IV	-11751
Op	-11752
PN	-11753
RA	-11754
`.	-11755
dc	-11756
ük	-11757
11,	-11758
156	-11759
:40	-11760
TCP	-11761
_1(	-11762
_2,	-11763
ais	-11764
aze	-11765
dim	-11766
dor	-11767
ipe	-11768
nec	-11769
oda	-11770
oku	-11771
rim	-11772
tim	-11773
},\	-11774
▁%}	-11775
▁AT	-11776
▁SW	-11777
▁\$	-11778
▁ec	-11779
▁ug	-11780
amps	-11781
arsh	-11782
ashi	-11783
blue	-11784
deed	-11785
fish	-11786
izza	-11787
lang	-11788
prot	-11789
ribe	-11790
rons	-11791
rosc	-11792
roud	-11793
zing	-11794
▁0.5	-11795
▁150	-11796
▁Byz	-11797
▁Kil	-11798
▁Pam	-11799
▁Seg	-11800
▁Sky	-11801
▁Tel	-11802
▁ast	-11803
▁bib	-11804
▁fat	-11805
▁nep	-11806
▁tow	-11807
YSTEM	-11808
acked	-11809
eland	-11810
enton	-11811
overs	-11812
paper	-11813
rible	-11814
small	-11815
utils	-11816
▁Duke	-11817
▁Euro	-11818
▁Heat	-11819
▁Jake	-11820
▁Rain	-11821
▁Sang	-11822
▁furn	-11823
▁gram	-11824
▁maid	-11825
▁moon	-11826
▁rain	-11827
▁vend	-11828
Number	-11829
Proper	-11830
actics	-11831
adelph	-11832
assium	-11833
cursor	-11834
nesota	-11835
orient	-11836
tracks	-11837
▁2006.	-11838
▁2019)	-11839
▁2020,	-11840
▁2021,	-11841
▁Block	-11842
▁Kings	-11843
▁Nancy	-11844
▁annoy	-11845
▁deput	-11846
▁flood	-11847
▁royal	-11848
▁skill	-11849
▁yards	-11850
osopher	-11851
program	-11852
regular	-11853
theless	-11854
ulative	-11855
▁Factor	-11856
▁agency	-11857
▁disput	-11858
▁emails	-11859
▁equals	-11860
▁packed	-11861
▁plates	-11862
▁prices	-11863
▁replic	-11864
▁riding	-11865
graduate	-11866
▁(2022).	-11867
▁Country	-11868
▁Finance	-11869
▁Outlook	-11870
▁Version	-11871
▁applies	-11872
▁longest	-11873
▁moments	-11874
▁reduces	-11875
▁romance	-11876
▁theater	-11877
▁threats	-11878
▁watches	-11879
ibilities	-11880
▁accommod	-11881
▁answered	-11882
▁arranges	-11883
▁composer	-11884
▁historic	-11885
▁pointing	-11886
▁railroad	-11887
▁violence	-11888
▁immediate	-11889
▁integrate	-11890
▁primitive	-11891
▁promising	-11892
▁similarly	-11893
▁templates	-11894
▁Credential	-11895
▁Experiment	-11896
▁compatible	-11897
▁concerning	-11898
▁difficulty	-11899
▁percussion	-11900
▁productive	-11901
▁transforms	-11902
▁accompanied	-11903
▁conditional	-11904
▁educational	-11905
▁perspective	-11906
▁programmers	-11907
▁conventional	-11908
▁unauthorized	-11909
▁straightforward	-11910
$)	-11911
%.	-11912
/6	-11913
/\	-11914
1"	-11915
8:	-11916
AV	-11917
FE	-11918
js	-11919
oh	-11920
)}$	-11921
---	-11922
16,	-11923
1</	-11924
LAB	-11925
Sum	-11926
hai	-11927
lah	-11928
ori	-11929
sur	-11930
uki	-11931
}$-	-11932
▁'/	-11933
▁=\	-11934
▁Gö	-11935
▁SL	-11936
▁ow	-11937
Requ	-11938
ador	-11939
cest	-11940
elsh	-11941
elve	-11942
even	-11943
fall	-11944
game	-11945
idal	-11946
last	-11947
oned	-11948
pine	-11949
uits	-11950
unks	-11951
▁(),	-11952
▁Bed	-11953
▁Cob	-11954
▁Han	-11955
▁Jak	-11956
▁Liu	-11957
▁Rap	-11958
▁Son	-11959
▁aka	-11960
▁asc	-11961
▁cha	-11962
▁ski	-11963
ashed	-11964
depth	-11965
eping	-11966
heses	-11967
ieval	-11968
joint	-11969
kappa	-11970
liest	-11971
month	-11972
onsin	-11973
ysics	-11974
▁1945	-11975
▁1966	-11976
▁Buff	-11977
▁Cost	-11978
▁Have	-11979
▁Hope	-11980
▁Khan	-11981
▁Lane	-11982
▁Meen	-11983
▁Need	-11984
▁Nets	-11985
▁Wind	-11986
▁ease	-11987
▁fate	-11988
▁gate	-11989
▁hier	-11990
▁jobs	-11991
▁thin	-11992
euclid	-11993
forall	-11994
rocess	-11995
rypted	-11996
ulates	-11997
ulator	-11998
▁2002,	-11999
▁Chile	-12000
▁Chuck	-12001
▁Ellen	-12002
▁Kelly	-12003
▁Muham	-12004
▁discl	-12005
▁flags	-12006
▁gains	-12007
▁goods	-12008
▁maxim	-12009
▁renew	-12010
ducible	-12011
ettings	-12012
ilation	-12013
ranches	-12014
▁Dakota	-12015
▁Doctor	-12016
▁Former	-12017
▁Friend	-12018
▁Martha	-12019
▁Nevada	-12020
▁Pierre	-12021
▁Poland	-12022
▁Warren	-12023
▁append	-12024
▁assets	-12025
▁dancer	-12026
▁forgot	-12027
▁mining	-12028
▁missed	-12029
▁movies	-12030
▁notion	-12031
▁presum	-12032
▁safely	-12033
▁styles	-12034
▁suburb	-12035
adelphia	-12036
isconsin	-12037
▁Colonel	-12038
▁angular	-12039
▁clothes	-12040
▁failing	-12041
▁invalid	-12042
▁payment	-12043
▁preview	-12044
▁sheriff	-12045
▁starred	-12046
▁staying	-12047
▁thermal	-12048
▁Calculus	-12049
▁Columbus	-12050
▁Hospital	-12051
▁Physical	-12052
▁Together	-12053
▁Township	-12054
▁captures	-12055
▁counting	-12056
▁exploits	-12057
▁gambling	-12058
▁gradient	-12059
▁managing	-12060
▁outcomes	-12061
▁swimming	-12062
▁thorough	-12063
romagnetic	-12064
▁Determine	-12065
▁Geography	-12066
▁Minnesota	-12067
▁Reference	-12068
▁filtering	-12069
▁franchise	-12070
▁poisoning	-12071
▁recursive	-12072
▁surprised	-12073
▁arithmetic	-12074
▁definitely	-12075
▁everywhere	-12076
▁membership	-12077
▁monitoring	-12078
▁profession	-12079
▁triangular	-12080
▁arrangement	-12081
▁consumption	-12082
▁corresponds	-12083
▁equivalence	-12084
▁Intelligence	-12085
▁Philadelphia	-12086
▁agricultural	-12087
▁dictionaries	-12088
▁performances	-12089
▁productivity	-12090
/3	-12091
1|	-12092
6$	-12093
PG	-12094
PL	-12095
PM	-12096
RR	-12097
TM	-12098
UN	-12099
[]	-12100
aq	-12101
)^{	-12102
-18	-12103
105	-12104
Let	-12105
asm	-12106
cls	-12107
cmd	-12108
iat	-12109
ión	-12110
lia	-12111
{2}	-12112
}{3	-12113
▁38	-12114
▁CS	-12115
▁FI	-12116
▁Il	-12117
".</	-12118
_{2}	-12119
aval	-12120
bage	-12121
club	-12122
enny	-12123
font	-12124
iane	-12125
past	-12126
umin	-12127
usal	-12128
▁15.	-12129
▁180	-12130
▁Alt	-12131
▁Dix	-12132
▁Flo	-12133
▁Kom	-12134
▁Lin	-12135
▁McG	-12136
▁Nar	-12137
▁Yam	-12138
▁cot	-12139
▁ham	-12140
▁lon	-12141
3934/	-12142
Index	-12143
analy	-12144
binom	-12145
ental	-12146
lists	-12147
prime	-12148
rency	-12149
urday	-12150
white	-12151
▁0.01	-12152
▁1919	-12153
▁1944	-12154
▁Bomb	-12155
▁Hold	-12156
▁Holy	-12157
▁Nich	-12158
▁aims	-12159
▁dipl	-12160
▁dogs	-12161
▁felt	-12162
▁gent	-12163
▁nest	-12164
▁wear	-12165
▁wiki	-12166
hanced	-12167
imeter	-12168
rified	-12169
second	-12170
ustion	-12171
▁2015,	-12172
▁Bruce	-12173
▁Diego	-12174
▁Labor	-12175
▁Liter	-12176
▁Pseud	-12177
▁cheap	-12178
▁drown	-12179
▁faced	-12180
▁fired	-12181
▁navig	-12182
▁occas	-12183
archive	-12184
▁Advent	-12185
▁Albums	-12186
▁Batman	-12187
▁Clevel	-12188
▁Invest	-12189
▁MATLAB	-12190
▁Monday	-12191
▁Normal	-12192
▁conjug	-12193
▁eating	-12194
▁lowest	-12195
▁paying	-12196
▁photos	-12197
-2000-02	-12198
ologists	-12199
subseteq	-12200
▁Desktop	-12201
▁Express	-12202
▁Indiana	-12203
▁Sources	-12204
▁Village	-12205
▁Virtual	-12206
▁besides	-12207
▁cluster	-12208
▁contrad	-12209
▁farmers	-12210
▁lengths	-12211
▁magical	-12212
▁targets	-12213
▁unaware	-12214
▁volumes	-12215
▁10.3934/	-12216
▁Pictures	-12217
▁coaching	-12218
▁educated	-12219
▁graphics	-12220
▁imported	-12221
▁portable	-12222
▁scholars	-12223
▁superior	-12224
▁upstream	-12225
▁Cleveland	-12226
▁Computing	-12227
▁Initially	-12228
▁Wisconsin	-12229
▁affection	-12230
▁corporate	-12231
▁elevation	-12232
▁overwrite	-12233
▁oxidation	-12234
▁paragraph	-12235
▁personnel	-12236
▁predicted	-12237
▁Continuous	-12238
▁Generation	-12239
▁Lieutenant	-12240
▁Parameters	-12241
▁Scientific	-12242
▁atmosphere	-12243
▁contribute	-12244
▁deprecated	-12245
▁identifies	-12246
▁specifying	-12247
▁requirement	-12248
▁Professional	-12249
▁substitution	-12250
▁investigating	-12251
▁Classification	-12252
'}	-12253
+(	-12254
51	-12255
El	-12256
NU	-12257
uz	-12258
)(2	-12259
-04	-12260
.{{	-12261
0.0	-12262
ASS	-12263
Add	-12264
IST	-12265
Mah	-12266
See	-12267
Ste	-12268
apa	-12269
aza	-12270
iop	-12271
▁2$	-12272
▁51	-12273
▁Vi	-12274
,000	-12275
..</	-12276
Hand	-12277
LECT	-12278
LLMs	-12279
PATH	-12280
Work	-12281
alin	-12282
aspx	-12283
aten	-12284
auge	-12285
auri	-12286
▁(3,	-12287
▁Alb	-12288
▁Ary	-12289
▁Cow	-12290
▁Hou	-12291
▁Row	-12292
▁Sax	-12293
▁Tar	-12294
alone	-12295
buntu	-12296
ensen	-12297
eting	-12298
minus	-12299
odium	-12300
raham	-12301
umann	-12302
utely	-12303
visor	-12304
▁Dall	-12305
▁Iran	-12306
▁Mall	-12307
▁Pick	-12308
▁Prep	-12309
▁eggs	-12310
▁fasc	-12311
▁fulf	-12312
▁mixt	-12313
▁poll	-12314
▁sust	-12315
▁tied	-12316
Expand	-12317
Source	-12318
emeter	-12319
inking	-12320
orders	-12321
▁1994,	-12322
▁2008.	-12323
▁About	-12324
▁Explo	-12325
▁Heart	-12326
▁Moore	-12327
▁Place	-12328
▁Prove	-12329
▁Simpl	-12330
▁Spike	-12331
▁Swiss	-12332
▁Thurs	-12333
▁Welsh	-12334
▁advis	-12335
▁crowd	-12336
▁delet	-12337
▁fetch	-12338
▁fianc	-12339
▁hench	-12340
▁hires	-12341
▁locks	-12342
▁loved	-12343
▁recre	-12344
▁shear	-12345
▁shore	-12346
▁warns	-12347
▁wings	-12348
ailable	-12349
ecurity	-12350
forming	-12351
itories	-12352
section	-12353
▁Anjali	-12354
▁Hitler	-12355
▁Willie	-12356
▁democr	-12357
▁enroll	-12358
▁ignore	-12359
▁ladder	-12360
▁pseudo	-12361
▁racing	-12362
▁timing	-12363
▁traces	-12364
plements	-12365
requency	-12366
response	-12367
unittest	-12368
▁Bernard	-12369
▁Methods	-12370
▁Privacy	-12371
▁Switzer	-12372
▁acquire	-12373
▁builtin	-12374
▁corners	-12375
▁disrupt	-12376
▁dollars	-12377
▁equally	-12378
▁experts	-12379
▁extends	-12380
▁happily	-12381
▁heading	-12382
▁imports	-12383
▁offices	-12384
▁painter	-12385
▁pursuit	-12386
▁rescued	-12387
▁scaling	-12388
▁secrets	-12389
▁simplic	-12390
▁substit	-12391
Microsoft	-12392
dependent	-12393
efficient	-12394
▁Advanced	-12395
▁Maryland	-12396
▁Multiple	-12397
▁Overview	-12398
▁advances	-12399
▁flexible	-12400
▁insecure	-12401
▁membrane	-12402
▁opponent	-12403
▁switches	-12404
▁Commander	-12405
▁Mountains	-12406
▁believing	-12407
▁champions	-12408
▁compilers	-12409
▁constants	-12410
▁household	-12411
▁processor	-12412
▁referring	-12413
▁subscript	-12414
▁advantages	-12415
▁collisions	-12416
▁constantly	-12417
▁continuing	-12418
▁destroying	-12419
▁filesystem	-12420
▁formatting	-12421
▁identifier	-12422
▁mathematic	-12423
▁principles	-12424
▁relativity	-12425
▁threatened	-12426
▁wavelength	-12427
▁Hamiltonian	-12428
▁Persistence	-12429
▁distinguish	-12430
▁efficiently	-12431
▁participate	-12432
▁specialized	-12433
▁uncertainty	-12434
▁Specifically	-12435
▁participants	-12436
▁authorization	-12437
!)	-12438
1$	-12439
>0	-12440
LP	-12441
SW	-12442
hl	-12443
{-	-12444
öm	-12445
));	-12446
32.	-12447
:47	-12448
=0.	-12449
GAN	-12450
Int	-12451
Run	-12452
Ver	-12453
___	-12454
_{1	-12455
isy	-12456
mes	-12457
oca	-12458
oln	-12459
ski	-12460
{25	-12461
}{4	-12462
▁3\	-12463
▁95	-12464
▁MB	-12465
▁PE	-12466
▁ca	-12467
(200	-12468
...,	-12469
=0$$	-12470
akia	-12471
asma	-12472
elia	-12473
fold	-12474
hatt	-12475
heme	-12476
hill	-12477
ingo	-12478
inth	-12479
isms	-12480
itis	-12481
odal	-12482
orus	-12483
osis	-12484
ouri	-12485
tery	-12486
ught	-12487
vine	-12488
walk	-12489
zech	-12490
▁1.5	-12491
▁13.	-12492
▁18:	-12493
▁4.0	-12494
▁Cov	-12495
▁FFT	-12496
▁Got	-12497
▁Kan	-12498
▁Ran	-12499
▁Som	-12500
▁Wel	-12501
▁[3]	-12502
▁ped	-12503
▁que	-12504
▁rum	-12505
▁sle	-12506
▁und	-12507
Build	-12508
agger	-12509
allow	-12510
eling	-12511
iston	-12512
iture	-12513
oices	-12514
ptoms	-12515
riven	-12516
river	-12517
vised	-12518
▁1985	-12519
▁Bowl	-12520
▁Gray	-12521
▁Info	-12522
▁Jama	-12523
▁Mini	-12524
▁Neut	-12525
▁Pitt	-12526
▁Sequ	-12527
▁Site	-12528
▁Size	-12529
▁coal	-12530
▁dust	-12531
▁hurt	-12532
▁pump	-12533
▁touc	-12534
00,000	-12535
Search	-12536
angers	-12537
intend	-12538
mented	-12539
ockets	-12540
onents	-12541
otions	-12542
render	-12543
urname	-12544
▁Azure	-12545
▁Corps	-12546
▁Judge	-12547
▁Kumar	-12548
▁Magic	-12549
▁Peggy	-12550
▁Perry	-12551
▁Songs	-12552
▁Timer	-12553
▁badly	-12554
▁cable	-12555
▁chlor	-12556
▁coins	-12557
▁cyber	-12558
▁minus	-12559
▁paste	-12560
▁picks	-12561
▁typed	-12562
connect	-12563
initely	-12564
timeout	-12565
▁Indeed	-12566
▁Mobile	-12567
▁Stuart	-12568
▁Territ	-12569
▁ancest	-12570
▁bright	-12571
▁casino	-12572
▁chains	-12573
▁flower	-12574
▁frames	-12575
▁junior	-12576
▁lights	-12577
▁novels	-12578
▁owners	-12579
▁resort	-12580
▁soccer	-12581
▁throne	-12582
▁uncons	-12583
▁unlike	-12584
▁Alexand	-12585
▁Channel	-12586
▁Connect	-12587
▁Context	-12588
▁Israeli	-12589
▁Numbers	-12590
▁Private	-12591
▁Thunder	-12592
▁battery	-12593
▁careful	-12594
▁catalog	-12595
▁faculty	-12596
▁kitchen	-12597
▁mystery	-12598
▁origins	-12599
▁promote	-12600
▁pronoun	-12601
▁rejects	-12602
▁spreads	-12603
▁wanting	-12604
attribute	-12605
myPrivate	-12606
▁Building	-12607
▁Missouri	-12608
▁Railroad	-12609
▁coupling	-12610
▁criteria	-12611
▁infinity	-12612
▁medicine	-12613
▁pipeline	-12614
▁proposal	-12615
▁reunited	-12616
▁speaking	-12617
▁validate	-12618
▁valuable	-12619
▁villages	-12620
▁workflow	-12621
▁Americans	-12622
▁Architect	-12623
▁Sometimes	-12624
▁comparing	-12625
▁confusing	-12626
▁creatures	-12627
▁municipal	-12628
▁northeast	-12629
▁reporting	-12630
▁Queensland	-12631
▁calculator	-12632
▁isomorphic	-12633
▁neighbours	-12634
▁parliament	-12635
▁Switzerland	-12636
▁philosopher	-12637
▁Publications	-12638
▁collaboration	-12639
▁probabilities	-12640
▁sophisticated	-12641
myPrivateMethod	-12642
▁Infrastructure	-12643
▁reconnaissance	-12644
1+	-12645
>\	-12646
Ge	-12647
_5	-12648
iu	-12649
nb	-12650
si	-12651
yo	-12652
{7	-12653
-09	-12654
107	-12655
:58	-12656
End	-12657
Uni	-12658
_1\	-12659
bes	-12660
ibn	-12661
ikz	-12662
mac	-12663
oom	-12664
rod	-12665
{10	-12666
}}}	-12667
▁"-	-12668
▁(,	-12669
▁57	-12670
▁66	-12671
▁FM	-12672
▁SD	-12673
1000	-12674
asha	-12675
inch	-12676
rule	-12677
thel	-12678
uity	-12679
yler	-12680
▁0$$	-12681
▁183	-12682
▁Bag	-12683
▁Cho	-12684
▁DNA	-12685
▁Eff	-12686
▁Eve	-12687
▁Gun	-12688
▁ISO	-12689
▁Kab	-12690
▁Kit	-12691
▁Liz	-12692
▁MHz	-12693
▁Meg	-12694
▁TCP	-12695
▁Typ	-12696
▁Var	-12697
▁sky	-12698
▁tie	-12699
▁tur	-12700
▁vib	-12701
arded	-12702
arius	-12703
avier	-12704
chner	-12705
gency	-12706
onaut	-12707
oping	-12708
resol	-12709
riers	-12710
woman	-12711
ylons	-12712
}{2}\	-12713
▁1971	-12714
▁Bird	-12715
▁Boot	-12716
▁Gran	-12717
▁Hank	-12718
▁Jews	-12719
▁Resp	-12720
▁Same	-12721
▁Sara	-12722
▁chip	-12723
▁mort	-12724
▁scan	-12725
astery	-12726
astian	-12727
estate	-12728
necess	-12729
stairs	-12730
▁2003.	-12731
▁2004.	-12732
▁Cyber	-12733
▁Diana	-12734
▁Lower	-12735
▁Round	-12736
▁Sigma	-12737
▁Smart	-12738
▁Treat	-12739
▁Users	-12740
▁Youth	-12741
▁clust	-12742
▁forum	-12743
▁galax	-12744
▁grade	-12745
▁slide	-12746
▁subsc	-12747
Default	-12748
General	-12749
changed	-12750
emetery	-12751
jecture	-12752
ynamics	-12753
▁Dallas	-12754
▁Launch	-12755
▁Mother	-12756
▁Rhodes	-12757
▁Sample	-12758
▁behave	-12759
▁cooper	-12760
▁counts	-12761
▁denied	-12762
▁ethnic	-12763
▁fights	-12764
▁guards	-12765
▁locked	-12766
▁logged	-12767
▁merely	-12768
▁proofs	-12769
▁propri	-12770
▁relies	-12771
▁rounds	-12772
▁scream	-12773
▁strike	-12774
▁ticket	-12775
▁trains	-12776
▁triple	-12777
▁varies	-12778
-2000-01	-12779
heastern	-12780
standard	-12781
▁Attacks	-12782
▁Perhaps	-12783
▁bedroom	-12784
▁boolean	-12785
▁crashes	-12786
▁curious	-12787
▁devoted	-12788
▁diverse	-12789
▁easiest	-12790
▁fantasy	-12791
▁flowers	-12792
▁fortune	-12793
▁hunting	-12794
▁monthly	-12795
▁parking	-12796
▁raising	-12797
▁storing	-12798
▁subsets	-12799
▁varying	-12800
sequently	-12801
struction	-12802
▁Benjamin	-12803
▁Discrete	-12804
▁Thursday	-12805
▁binomial	-12806
▁collapse	-12807
▁injuries	-12808
▁printing	-12809
▁regiment	-12810
▁suffered	-12811
▁vampires	-12812
▁Districts	-12813
▁considers	-12814
▁desperate	-12815
▁directors	-12816
▁electoral	-12817
▁finishing	-12818
▁induction	-12819
▁intellect	-12820
▁lifestyle	-12821
▁recognize	-12822
▁remainder	-12823
▁seriously	-12824
▁survivors	-12825
▁Properties	-12826
▁artificial	-12827
permutations	-12828
▁Environment	-12829
▁collections	-12830
▁personality	-12831
▁unconscious	-12832
▁Commissioner	-12833
▁descriptions	-12834
▁presentation	-12835
▁sufficiently	-12836
▁architectural	-12837
▁comprehensive	-12838
▁entertainment	-12839
/.	-12840
4-	-12841
CA	-12842
CE	-12843
DT	-12844
HL	-12845
SF	-12846
sa	-12847
(5)	-12848
+1}	-12849
15.	-12850
:49	-12851
Foo	-12852
MAC	-12853
Mat	-12854
UTC	-12855
_1)	-12856
eek	-12857
kar	-12858
kat	-12859
usa	-12860
▁(8	-12861
▁-3	-12862
▁02	-12863
▁49	-12864
▁6:	-12865
▁>>	-12866
▁Kw	-12867
▁OP	-12868
▁Od	-12869
▁Ov	-12870
▁ju	-12871
Date	-12872
HKEY	-12873
Serv	-12874
burn	-12875
icip	-12876
iens	-12877
itya	-12878
khar	-12879
prov	-12880
pson	-12881
rien	-12882
rops	-12883
stan	-12884
sten	-12885
supp	-12886
wait	-12887
▁(10	-12888
▁0.1	-12889
▁102	-12890
▁Bud	-12891
▁Fog	-12892
▁Had	-12893
▁Hum	-12894
▁Mul	-12895
▁Pay	-12896
▁Sad	-12897
▁Sie	-12898
▁Unt	-12899
▁Vic	-12900
▁[3,	-12901
▁axi	-12902
▁dim	-12903
▁gro	-12904
▁ing	-12905
▁jet	-12906
▁sql	-12907
▁src	-12908
▁tar	-12909
▁tum	-12910
▁unh	-12911
Start	-12912
^{-1}	-12913
alion	-12914
alore	-12915
cases	-12916
cross	-12917
ecker	-12918
ieves	-12919
login	-12920
oslav	-12921
phony	-12922
spect	-12923
ureau	-12924
users	-12925
▁Bren	-12926
▁Cook	-12927
▁Core	-12928
▁Five	-12929
▁Gary	-12930
▁Hero	-12931
▁Mort	-12932
▁Pret	-12933
▁Self	-12934
▁Seth	-12935
▁Task	-12936
▁aunt	-12937
▁busy	-12938
▁canc	-12939
▁cube	-12940
▁curv	-12941
▁dece	-12942
▁exha	-12943
▁intu	-12944
▁laid	-12945
▁temp	-12946
Create	-12947
anther	-12948
boards	-12949
entral	-12950
factor	-12951
filter	-12952
icking	-12953
itched	-12954
return	-12955
ussels	-12956
▁2002.	-12957
▁2010.	-12958
▁2011.	-12959
▁Cisco	-12960
▁Crown	-12961
▁Derby	-12962
▁Derek	-12963
▁Final	-12964
▁Frost	-12965
▁Micro	-12966
▁Monte	-12967
▁Optim	-12968
▁Stack	-12969
▁Tibet	-12970
▁bonds	-12971
▁bonus	-12972
▁chest	-12973
▁crown	-12974
▁innov	-12975
▁morph	-12976
▁trail	-12977
▁worst	-12978
Version	-12979
atorial	-12980
borough	-12981
▁Bishop	-12982
▁Connie	-12983
▁Davies	-12984
▁Legend	-12985
▁Leslie	-12986
▁afford	-12987
▁behalf	-12988
▁ensues	-12989
▁extent	-12990
▁injury	-12991
▁metals	-12992
▁mutual	-12993
▁ranked	-12994
▁recall	-12995
▁revers	-12996
▁sneaks	-12997
▁solely	-12998
▁stderr	-12999
▁substr	-13000
▁violin	-13001
TestCase	-13002
ertified	-13003
gressive	-13004
ilateral	-13005
learning	-13006
ployment	-13007
▁Airport	-13008
▁Atlanta	-13009
▁Austria	-13010
▁Feature	-13011
▁Houston	-13012
▁Manhatt	-13013
▁Returns	-13014
▁Student	-13015
▁Studies	-13016
▁clarify	-13017
▁crucial	-13018
▁gaining	-13019
▁insight	-13020
▁passage	-13021
▁rescues	-13022
▁runners	-13023
▁shorter	-13024
▁unitary	-13025
liography	-13026
▁Buddhist	-13027
▁Imperial	-13028
▁Princess	-13029
▁Training	-13030
▁announce	-13031
▁dramatic	-13032
▁informed	-13033
▁minimize	-13034
▁prepares	-13035
▁thriller	-13036
▁transmit	-13037
▁Currently	-13038
▁Jefferson	-13039
▁Personnel	-13040
▁allocated	-13041
▁associate	-13042
▁companion	-13043
▁competing	-13044
▁composite	-13045
▁divisions	-13046
▁duplicate	-13047
▁neighbors	-13048
▁reception	-13049
▁surviving	-13050
▁asymptotic	-13051
▁autonomous	-13052
▁implements	-13053
▁leveraging	-13054
▁occupation	-13055
▁recordings	-13056
▁soundtrack	-13057
▁stationary	-13058
▁challenging	-13059
▁contributed	-13060
▁eigenvalues	-13061
▁electricity	-13062
▁limitations	-13063
▁researchers	-13064
▁temporarily	-13065
▁accomplished	-13066
▁constructing	-13067
▁continuously	-13068
▁unsuccessful	-13069
overrightarrow	-13070
&#	-13071
'_	-13072
+)	-13073
.1	-13074
CI	-13075
OK	-13076
sb	-13077
).$	-13078
-25	-13079
API	-13080
Dis	-13081
SDL	-13082
XML	-13083
_3$	-13084
asu	-13085
aws	-13086
baz	-13087
ema	-13088
hit	-13089
ige	-13090
lag	-13091
}\,	-13092
▁$-	-13093
▁(.	-13094
▁HE	-13095
▁Ry	-13096
▁dc	-13097
...)	-13098
2017	-13099
Fore	-13100
HTML	-13101
Star	-13102
acık	-13103
anal	-13104
ania	-13105
ardo	-13106
boat	-13107
borg	-13108
elli	-13109
expl	-13110
folk	-13111
ilow	-13112
java	-13113
mind	-13114
olar	-13115
olas	-13116
qual	-13117
rike	-13118
ylon	-13119
▁14.	-13120
▁256	-13121
▁?</	-13122
▁FGF	-13123
▁Imp	-13124
▁NBA	-13125
▁Neo	-13126
▁Num	-13127
▁SSL	-13128
▁Sav	-13129
▁Tit	-13130
▁Yet	-13131
▁bik	-13132
▁dad	-13133
▁ecc	-13134
▁kin	-13135
▁lyr	-13136
▁rit	-13137
/2008	-13138
5,000	-13139
Group	-13140
Power	-13141
ansom	-13142
antry	-13143
cknow	-13144
mdash	-13145
ocate	-13146
otted	-13147
owski	-13148
qquad	-13149
three	-13150
ulous	-13151
uties	-13152
▁1954	-13153
▁Anax	-13154
▁Brew	-13155
▁Curt	-13156
▁Drag	-13157
▁Earl	-13158
▁Edit	-13159
▁Gram	-13160
▁Hels	-13161
▁Judy	-13162
▁PATH	-13163
▁Perm	-13164
▁Rest	-13165
▁Roth	-13166
▁Synt	-13167
▁adds	-13168
▁bike	-13169
▁coun	-13170
▁evol	-13171
▁feas	-13172
▁fool	-13173
▁mand	-13174
▁meta	-13175
▁rape	-13176
▁sine	-13177
▁sits	-13178
▁tack	-13179
▁vast	-13180
Client	-13181
aments	-13182
aneous	-13183
enders	-13184
enness	-13185
ermont	-13186
escape	-13187
incoln	-13188
marine	-13189
rained	-13190
screen	-13191
ulence	-13192
▁1997,	-13193
▁2009.	-13194
▁2013.	-13195
▁Bryan	-13196
▁Camer	-13197
▁Coach	-13198
▁Czech	-13199
▁Hyper	-13200
▁Inner	-13201
▁Julia	-13202
▁Karen	-13203
▁Miles	-13204
▁Price	-13205
▁Prize	-13206
▁Still	-13207
▁banks	-13208
▁conce	-13209
▁cubic	-13210
▁eager	-13211
▁loose	-13212
▁milit	-13213
▁nurse	-13214
▁ports	-13215
▁timer	-13216
▁trunc	-13217
▁unint	-13218
▁voted	-13219
Another	-13220
Example	-13221
redited	-13222
speople	-13223
western	-13224
▁Conver	-13225
▁Denver	-13226
▁Hannah	-13227
▁Higher	-13228
▁Marion	-13229
▁Notice	-13230
▁Observ	-13231
▁Peters	-13232
▁Studio	-13233
▁Survey	-13234
▁adults	-13235
▁duplic	-13236
▁embark	-13237
▁enthus	-13238
▁gentle	-13239
▁golden	-13240
▁incons	-13241
▁rarely	-13242
▁repair	-13243
▁stabil	-13244
▁thesis	-13245
▁unders	-13246
▁widget	-13247
itations	-13248
password	-13249
▁Gabriel	-13250
▁Neumann	-13251
▁Notable	-13252
▁Officer	-13253
▁Singles	-13254
▁backing	-13255
▁checked	-13256
▁debuted	-13257
▁disturb	-13258
▁folders	-13259
▁footage	-13260
▁induced	-13261
▁inspect	-13262
▁lateral	-13263
▁pursued	-13264
▁unclear	-13265
▁utilize	-13266
aditional	-13267
microsoft	-13268
▁Complete	-13269
▁Franklin	-13270
▁Movement	-13271
▁Saturday	-13272
▁athletes	-13273
▁calendar	-13274
▁detected	-13275
▁friction	-13276
▁indirect	-13277
▁memories	-13278
▁molecule	-13279
▁morphism	-13280
▁painting	-13281
▁princess	-13282
▁registry	-13283
▁relating	-13284
▁singular	-13285
▁subtract	-13286
▁supplied	-13287
▁troubles	-13288
▁variants	-13289
▁Detective	-13290
▁Different	-13291
▁Manhattan	-13292
▁appearing	-13293
▁blackmail	-13294
▁campaigns	-13295
▁colleague	-13296
▁convicted	-13297
▁marketing	-13298
▁preparing	-13299
▁relatives	-13300
▁synthetic	-13301
▁witnesses	-13302
▁Comparison	-13303
▁absolutely	-13304
▁determines	-13305
▁enterprise	-13306
▁expedition	-13307
▁prostitute	-13308
▁retirement	-13309
▁encountered	-13310
▁improvement	-13311
▁interrupted	-13312
▁involvement	-13313
documentclass	-13314
▁responsibility	-13315
!/	-13316
(.	-13317
,'	-13318
/~	-13319
3-	-13320
=3	-13321
CS	-13322
Oh	-13323
TF	-13324
cf	-13325
fi	-13326
pu	-13327
tk	-13328
%20	-13329
-17	-13330
-2\	-13331
12,	-13332
137	-13333
14,	-13334
ANG	-13335
Bas	-13336
EEE	-13337
III	-13338
Oct	-13339
akk	-13340
iko	-13341
lli	-13342
sts	-13343
uum	-13344
▁([	-13345
▁43	-13346
▁54	-13347
▁LE	-13348
▁SM	-13349
▁np	-13350
3,4,	-13351
Long	-13352
Node	-13353
_{1}	-13354
acon	-13355
anya	-13356
arre	-13357
azon	-13358
bind	-13359
elle	-13360
fire	-13361
girl	-13362
home	-13363
ilty	-13364
isha	-13365
ivia	-13366
lown	-13367
odia	-13368
onde	-13369
pany	-13370
save	-13371
shot	-13372
step	-13373
vens	-13374
vere	-13375
▁ASC	-13376
▁Abh	-13377
▁Bit	-13378
▁CON	-13379
▁Fig	-13380
▁Gov	-13381
▁Hil	-13382
▁PAR	-13383
▁Ped	-13384
▁Rol	-13385
▁Wid	-13386
▁dip	-13387
▁sad	-13388
books	-13389
error	-13390
fetch	-13391
layer	-13392
store	-13393
there	-13394
▁${{\	-13395
▁1951	-13396
▁1962	-13397
▁Bach	-13398
▁Buck	-13399
▁Calc	-13400
▁Crow	-13401
▁Glen	-13402
▁Hart	-13403
▁Hend	-13404
▁Iraq	-13405
▁José	-13406
▁Kann	-13407
▁Load	-13408
▁Mail	-13409
▁Mill	-13410
▁Ryan	-13411
▁anch	-13412
▁bone	-13413
▁coin	-13414
▁cong	-13415
▁enum	-13416
▁flux	-13417
▁hull	-13418
▁mile	-13419
▁milk	-13420
▁ward	-13421
byshev	-13422
comput	-13423
create	-13424
ignKey	-13425
indent	-13426
lahoma	-13427
▁Aaron	-13428
▁Baker	-13429
▁Batch	-13430
▁Jerem	-13431
▁Login	-13432
▁bands	-13433
▁cabin	-13434
▁cream	-13435
▁depos	-13436
▁hides	-13437
▁lying	-13438
▁parab	-13439
▁reply	-13440
▁stalk	-13441
▁sugar	-13442
context	-13443
ifiable	-13444
ighters	-13445
▁Carbon	-13446
▁Darius	-13447
▁Deputy	-13448
▁Forces	-13449
▁Graham	-13450
▁Junior	-13451
▁Policy	-13452
▁ctypes	-13453
▁elabor	-13454
▁expose	-13455
▁farmer	-13456
▁layout	-13457
▁lovers	-13458
▁nephew	-13459
▁outper	-13460
▁phones	-13461
▁raises	-13462
▁ratios	-13463
▁regime	-13464
▁sought	-13465
▁telesc	-13466
▁viewer	-13467
although	-13468
▁Measure	-13469
▁Mistral	-13470
▁MyClass	-13471
▁Regular	-13472
▁Univers	-13473
▁Wallace	-13474
▁closure	-13475
▁delayed	-13476
▁entropy	-13477
▁exhibit	-13478
▁kingdom	-13479
▁optical	-13480
▁posting	-13481
▁relates	-13482
▁shelter	-13483
▁signing	-13484
▁squared	-13485
▁stadium	-13486
▁stretch	-13487
▁surgery	-13488
▁volunte	-13489
▁worried	-13490
istically	-13491
ositories	-13492
reference	-13493
unication	-13494
▁Colombia	-13495
▁Economic	-13496
▁Emeritus	-13497
▁Emmanuel	-13498
▁Muhammad	-13499
▁Resource	-13500
▁approved	-13501
▁branches	-13502
▁emerging	-13503
▁meantime	-13504
▁paradigm	-13505
▁portions	-13506
▁preserve	-13507
▁subgroup	-13508
▁subjects	-13509
▁survived	-13510
controlled	-13511
▁Administr	-13512
▁Argentina	-13513
▁Detection	-13514
▁empirical	-13515
▁importing	-13516
▁improving	-13517
▁prompting	-13518
▁recovered	-13519
▁regularly	-13520
▁substance	-13521
▁Bangladesh	-13522
▁controller	-13523
▁correction	-13524
▁designated	-13525
▁employment	-13526
▁inspection	-13527
▁invitation	-13528
▁possession	-13529
▁regardless	-13530
▁separately	-13531
▁suggestion	-13532
▁Christopher	-13533
▁destruction	-13534
▁executables	-13535
▁identifying	-13536
▁preparation	-13537
▁transformed	-13538
▁Construction	-13539
▁availability	-13540
▁consequences	-13541
▁conservation	-13542
▁temperatures	-13543
▁transportation	-13544
/7	-13545
0}	-13546
2'	-13547
7%	-13548
:%	-13549
BS	-13550
oa	-13551
tz	-13552
ui	-13553
–5	-13554
)(\	-13555
-20	-13556
.$$	-13557
1}&	-13558
AND	-13559
Eye	-13560
VID	-13561
_{2	-13562
azi	-13563
cht	-13564
edo	-13565
eld	-13566
eqn	-13567
ftp	-13568
has	-13569
iii	-13570
irk	-13571
kov	-13572
say	-13573
tle	-13574
trl	-13575
try	-13576
uis	-13577
{1+	-13578
▁(0	-13579
▁(9	-13580
▁5)	-13581
▁Je	-13582
Just	-13583
acht	-13584
aude	-13585
bean	-13586
etor	-13587
ilde	-13588
iped	-13589
lord	-13590
osph	-13591
send	-13592
uted	-13593
vals	-13594
▁(16	-13595
▁17.	-13596
▁2.4	-13597
▁400	-13598
▁Amb	-13599
▁Arc	-13600
▁Bee	-13601
▁Bin	-13602
▁FOR	-13603
▁Gad	-13604
▁Guy	-13605
▁Hat	-13606
▁LNG	-13607
▁Ltd	-13608
▁NAS	-13609
▁Sri	-13610
▁USS	-13611
▁```	-13612
▁awk	-13613
▁bid	-13614
▁ray	-13615
▁rub	-13616
▁tan	-13617
Admin	-13618
actor	-13619
apper	-13620
elect	-13621
floor	-13622
geant	-13623
heres	-13624
imore	-13625
inals	-13626
inces	-13627
isect	-13628
isons	-13629
itten	-13630
offic	-13631
ogram	-13632
ppers	-13633
separ	-13634
ström	-13635
▁1965	-13636
▁1974	-13637
▁APIs	-13638
▁Baku	-13639
▁Chap	-13640
▁Cond	-13641
▁Juan	-13642
▁Lang	-13643
▁Nand	-13644
▁Orth	-13645
▁coat	-13646
▁fled	-13647
▁gear	-13648
▁java	-13649
▁obsc	-13650
▁okay	-13651
▁salt	-13652
▁symp	-13653
▁tale	-13654
▁trap	-13655
000000	-13656
embles	-13657
insert	-13658
overty	-13659
season	-13660
topics	-13661
urches	-13662
▁2000,	-13663
▁Array	-13664
▁Charl	-13665
▁Grant	-13666
▁Marty	-13667
▁Mayor	-13668
▁Patri	-13669
▁Steel	-13670
▁Would	-13671
▁actin	-13672
▁calib	-13673
▁fires	-13674
▁inaug	-13675
▁knife	-13676
▁laugh	-13677
▁loads	-13678
▁rigid	-13679
▁ruled	-13680
▁slice	-13681
▁snipp	-13682
▁spons	-13683
▁taste	-13684
▁thief	-13685
▁tough	-13686
▁witch	-13687
▁wound	-13688
▁zeros	-13689
Library	-13690
achment	-13691
herical	-13692
ulatory	-13693
▁(2007)	-13694
▁Comics	-13695
▁Dublin	-13696
▁Finite	-13697
▁Morris	-13698
▁Update	-13699
▁acknow	-13700
▁caller	-13701
▁dealer	-13702
▁declar	-13703
▁deputy	-13704
▁inches	-13705
▁routes	-13706
▁severe	-13707
▁transm	-13708
▁wooden	-13709
homology	-13710
ivariate	-13711
oriented	-13712
released	-13713
template	-13714
▁Faculty	-13715
▁Limited	-13716
▁Missing	-13717
▁Oakland	-13718
▁Shortly	-13719
▁Stanley	-13720
▁Various	-13721
▁Whether	-13722
▁affairs	-13723
▁cameras	-13724
▁coupled	-13725
▁critics	-13726
▁crystal	-13727
▁encoded	-13728
▁evolved	-13729
▁fastest	-13730
▁forever	-13731
▁ongoing	-13732
▁relying	-13733
▁stating	-13734
▁totally	-13735
▁trading	-13736
ictionary	-13737
osophical	-13738
▁Brussels	-13739
▁Citation	-13740
▁Critical	-13741
▁Griffith	-13742
▁belonged	-13743
▁boarding	-13744
▁callable	-13745
▁centered	-13746
▁decrease	-13747
▁interrog	-13748
▁misunder	-13749
▁oriented	-13750
▁revolves	-13751
▁segments	-13752
▁teenager	-13753
▁Hijacking	-13754
▁Operation	-13755
▁accompany	-13756
▁compounds	-13757
▁emotional	-13758
▁indicated	-13759
▁inherited	-13760
▁legendary	-13761
▁literally	-13762
▁malformed	-13763
▁recipient	-13764
▁satisfies	-13765
▁semantics	-13766
▁spiritual	-13767
▁Encryption	-13768
▁Enterprise	-13769
▁derivation	-13770
▁distribute	-13771
▁frustrated	-13772
▁incomplete	-13773
▁Independent	-13774
▁calculating	-13775
▁determinant	-13776
▁orientation	-13777
▁contemporary	-13778
▁photographer	-13779
▁Alternatively	-13780
▁Understanding	-13781
▁factorization	-13782
▁Administration	-13783
"|	-13784
#,	-13785
2%	-13786
6]	-13787
Ab	-13788
CR	-13789
GC	-13790
GS	-13791
OF	-13792
UL	-13793
mn	-13794
oT	-13795
&=\	-13796
)),	-13797
)}\	-13798
++)	-13799
-03	-13800
-16	-13801
119	-13802
123	-13803
8).	-13804
:55	-13805
Mar	-13806
Rel	-13807
VER	-13808
_20	-13809
aft	-13810
agi	-13811
haw	-13812
lay	-13813
nex	-13814
ulo	-13815
uni	-13816
uns	-13817
zon	-13818
}^2	-13819
▁''	-13820
▁41	-13821
▁47	-13822
▁7:	-13823
▁AJ	-13824
▁CA	-13825
▁CV	-13826
▁PV	-13827
▁SC	-13828
▁VB	-13829
▁\:	-13830
▁ty	-13831
(100	-13832
Soup	-13833
abad	-13834
aved	-13835
cycl	-13836
hend	-13837
heng	-13838
iner	-13839
itte	-13840
kara	-13841
loop	-13842
pars	-13843
ping	-13844
proc	-13845
reck	-13846
sets	-13847
shop	-13848
thal	-13849
ylum	-13850
ınar	-13851
▁(17	-13852
▁0.0	-13853
▁1.1	-13854
▁101	-13855
▁21.	-13856
▁:</	-13857
▁ALL	-13858
▁Arg	-13859
▁Kle	-13860
▁Kos	-13861
▁Osc	-13862
▁PhD	-13863
▁mas	-13864
▁spy	-13865
▁toy	-13866
Based	-13867
craft	-13868
inner	-13869
opsis	-13870
ostic	-13871
ottom	-13872
owned	-13873
trunk	-13874
ullah	-13875
ungle	-13876
▁1936	-13877
▁Cand	-13878
▁Dead	-13879
▁Dean	-13880
▁Flow	-13881
▁Magn	-13882
▁Much	-13883
▁Race	-13884
▁Rule	-13885
▁Sony	-13886
▁Summ	-13887
▁Ther	-13888
▁Viet	-13889
▁Zero	-13890
▁Zone	-13891
▁ensu	-13892
▁hack	-13893
▁hire	-13894
▁lens	-13895
▁pays	-13896
▁pupp	-13897
▁scar	-13898
▁stab	-13899
▁swap	-13900
compat	-13901
enkins	-13902
expect	-13903
integr	-13904
otimes	-13905
ranean	-13906
switch	-13907
terior	-13908
▁Asked	-13909
▁Byron	-13910
▁Chain	-13911
▁Claud	-13912
▁Drake	-13913
▁Irene	-13914
▁Jules	-13915
▁Natal	-13916
▁Priya	-13917
▁Produ	-13918
▁Shell	-13919
▁aired	-13920
▁alarm	-13921
▁broke	-13922
▁cheer	-13923
▁crazy	-13924
▁doors	-13925
▁fears	-13926
▁hints	-13927
▁loops	-13928
▁panel	-13929
▁proud	-13930
▁reson	-13931
▁shark	-13932
▁smoke	-13933
▁steam	-13934
Program	-13935
Request	-13936
ishment	-13937
package	-13938
uscript	-13939
▁(2015)	-13940
▁Accept	-13941
▁Banach	-13942
▁Bosnia	-13943
▁Legacy	-13944
▁Memory	-13945
▁Palest	-13946
▁Saints	-13947
▁Select	-13948
▁Sharon	-13949
▁Threat	-13950
▁Ubuntu	-13951
▁aboard	-13952
▁agreed	-13953
▁arbitr	-13954
▁bigger	-13955
▁builds	-13956
▁canvas	-13957
▁cyclic	-13958
▁daemon	-13959
▁drinks	-13960
▁export	-13961
▁garage	-13962
▁induct	-13963
▁naming	-13964
▁obfusc	-13965
▁pupils	-13966
▁rotate	-13967
▁shapes	-13968
▁speaks	-13969
▁statue	-13970
▁subsid	-13971
setminus	-13972
▁Belgium	-13973
▁Boolean	-13974
▁Collins	-13975
▁FireEye	-13976
▁Highway	-13977
▁Kenneth	-13978
▁Lambert	-13979
▁Lincoln	-13980
▁combine	-13981
▁compens	-13982
▁excited	-13983
▁lessons	-13984
▁mixture	-13985
▁modular	-13986
▁prompts	-13987
▁squares	-13988
▁timeout	-13989
▁Cultural	-13990
▁Marshall	-13991
▁Mitchell	-13992
▁Original	-13993
▁Previous	-13994
▁Richmond	-13995
▁Transfer	-13996
▁abundant	-13997
▁agencies	-13998
▁algebras	-13999
▁arriving	-14000
▁backward	-14001
▁basement	-14002
▁cardinal	-14003
▁congress	-14004
▁converge	-14005
▁inserted	-14006
▁intellig	-14007
▁overcome	-14008
▁prevents	-14009
▁receiver	-14010
▁retained	-14011
▁stranger	-14012
▁youngest	-14013
▁Byzantine	-14014
▁Character	-14015
▁Implement	-14016
▁befriends	-14017
▁decorated	-14018
▁dominated	-14019
▁eliminate	-14020
▁guitarist	-14021
▁policeman	-14022
▁switching	-14023
▁triangles	-14024
activestate	-14025
▁afterwards	-14026
▁benchmarks	-14027
▁converting	-14028
▁estimation	-14029
▁helicopter	-14030
▁irrational	-14031
▁Probability	-14032
▁compression	-14033
▁isomorphism	-14034
▁combinations	-14035
▁difficulties	-14036
▁consideration	-14037
▁psychological	-14038
▁Communications	-14039
▁transformations	-14040
$?	-14041
'"	-14042
4/	-14043
6}	-14044
rr	-14045
-05	-14046
1',	-14047
125	-14048
14.	-14049
:46	-14050
Jan	-14051
PEP	-14052
Par	-14053
Red	-14054
\,\	-14055
^3+	-14056
bye	-14057
cre	-14058
cur	-14059
iti	-14060
lon	-14061
nai	-14062
rez	-14063
rus	-14064
sep	-14065
ulk	-14066
▁(7	-14067
▁).	-14068
▁NO	-14069
▁[0	-14070
▁sa	-14071
▁{%	-14072
:10.	-14073
Auth	-14074
Read	-14075
afia	-14076
arya	-14077
ayan	-14078
gres	-14079
libs	-14080
lynn	-14081
olis	-14082
onna	-14083
othy	-14084
perl	-14085
pher	-14086
quis	-14087
quot	-14088
seek	-14089
tons	-14090
ugby	-14091
wave	-14092
wife	-14093
wolf	-14094
ylan	-14095
▁$\{	-14096
▁AES	-14097
▁Bou	-14098
▁CIA	-14099
▁Dur	-14100
▁Esc	-14101
▁Esp	-14102
▁Ety	-14103
▁Eug	-14104
▁Flu	-14105
▁GTK	-14106
▁Kud	-14107
▁Lok	-14108
▁Pad	-14109
▁Rid	-14110
▁Sag	-14111
▁Tol	-14112
▁Wed	-14113
▁aug	-14114
▁biz	-14115
▁fro	-14116
▁haz	-14117
▁hem	-14118
▁joy	-14119
/002)	-14120
Which	-14121
achel	-14122
agram	-14123
amine	-14124
asant	-14125
berry	-14126
liver	-14127
olith	-14128
otics	-14129
proof	-14130
regon	-14131
renal	-14132
short	-14133
sided	-14134
uting	-14135
▁1956	-14136
▁1977	-14137
▁Balt	-14138
▁Cape	-14139
▁Erik	-14140
▁FROM	-14141
▁Frit	-14142
▁Ivan	-14143
▁Kyle	-14144
▁Prop	-14145
▁THIS	-14146
▁ampl	-14147
▁fest	-14148
▁icon	-14149
▁nums	-14150
▁succ	-14151
▁tiny	-14152
▁ugly	-14153
Random	-14154
asures	-14155
client	-14156
ervoir	-14157
except	-14158
normal	-14159
orsion	-14160
sample	-14161
▁1999,	-14162
▁2018.	-14163
▁ASCII	-14164
▁Audio	-14165
▁Autom	-14166
▁Bever	-14167
▁Blues	-14168
▁Catal	-14169
▁Chart	-14170
▁Ghost	-14171
▁Hotel	-14172
▁Jesse	-14173
▁Tiger	-14174
▁Wayne	-14175
▁aspir	-14176
▁beats	-14177
▁cargo	-14178
▁chess	-14179
▁crack	-14180
▁macro	-14181
▁spell	-14182
▁suite	-14183
▁surve	-14184
▁warri	-14185
▁wrest	-14186
Handler	-14187
algebra	-14188
atching	-14189
casting	-14190
ication	-14191
igenous	-14192
imation	-14193
istered	-14194
▁Athens	-14195
▁Audrey	-14196
▁Device	-14197
▁Marcus	-14198
▁Medium	-14199
▁Milton	-14200
▁Nathan	-14201
▁Oregon	-14202
▁Recent	-14203
▁Weston	-14204
▁barely	-14205
▁bronze	-14206
▁climax	-14207
▁colors	-14208
▁combin	-14209
▁corpse	-14210
▁deadly	-14211
▁devast	-14212
▁engage	-14213
▁google	-14214
▁headed	-14215
▁locate	-14216
▁loving	-14217
▁mentor	-14218
▁packet	-14219
▁pulled	-14220
▁reader	-14221
▁tribes	-14222
▁whilst	-14223
Property	-14224
children	-14225
▁Ancient	-14226
▁Archive	-14227
▁Compute	-14228
▁Emperor	-14229
▁Gardner	-14230
▁Islamic	-14231
▁Message	-14232
▁Swedish	-14233
▁awkward	-14234
▁commits	-14235
▁delight	-14236
▁elderly	-14237
▁existed	-14238
▁finance	-14239
▁fitting	-14240
▁graphic	-14241
▁labeled	-14242
▁metrics	-14243
▁nonzero	-14244
▁reserve	-14245
▁scandal	-14246
▁veteran	-14247
directory	-14248
▁Austrian	-14249
▁Interpre	-14250
▁Medicine	-14251
▁Oklahoma	-14252
▁Remember	-14253
▁astronom	-14254
▁attorney	-14255
▁avoiding	-14256
▁blocking	-14257
▁contacts	-14258
▁earliest	-14259
▁exponent	-14260
▁invented	-14261
▁marrying	-14262
▁overlook	-14263
▁profiles	-14264
▁resigned	-14265
▁shortest	-14266
▁Beautiful	-14267
▁Billboard	-14268
▁Buildings	-14269
▁Communist	-14270
▁Dynamical	-14271
▁Extension	-14272
▁Framework	-14273
▁Political	-14274
▁Resources	-14275
▁TypeError	-14276
▁carefully	-14277
▁chemistry	-14278
▁confirmed	-14279
▁copyright	-14280
▁designing	-14281
▁diffusion	-14282
▁engineers	-14283
▁graphical	-14284
▁increment	-14285
▁inhabited	-14286
▁listening	-14287
▁maintains	-14288
▁satisfied	-14289
▁suffering	-14290
▁suspended	-14291
▁Industrial	-14292
▁Manchester	-14293
▁attraction	-14294
▁correlated	-14295
▁newspapers	-14296
▁projection	-14297
▁referenced	-14298
▁Performance	-14299
▁approaching	-14300
▁consequence	-14301
▁countryside	-14302
▁identifiers	-14303
▁photographs	-14304
▁recognition	-14305
▁transitions	-14306
▁considerable	-14307
▁homomorphism	-14308
▁manufacturer	-14309
▁comprehension	-14310
▁synchronization	-14311
LR	-14312
Ne	-14313
'''	-14314
-1.	-14315
-15	-14316
-1]	-14317
/14	-14318
18.	-14319
199	-14320
400	-14321
:56	-14322
Bob	-14323
Min	-14324
Xiv	-14325
_0$	-14326
_2\	-14327
aga	-14328
alg	-14329
dll	-14330
erb	-14331
iac	-14332
oga	-14333
sed	-14334
sem	-14335
sit	-14336
uru	-14337
}{5	-14338
▁#1	-14339
▁08	-14340
▁:-	-14341
▁AP	-14342
▁Ky	-14343
▁Ve	-14344
▁WE	-14345
▁au	-14346
Will	-14347
affy	-14348
gins	-14349
imir	-14350
isis	-14351
issa	-14352
lesh	-14353
none	-14354
note	-14355
oves	-14356
pana	-14357
prem	-14358
prod	-14359
rena	-14360
roit	-14361
spot	-14362
ugar	-14363
▁'20	-14364
▁182	-14365
▁20:	-14366
▁250	-14367
▁Ada	-14368
▁Adv	-14369
▁Aga	-14370
▁BSD	-14371
▁Cab	-14372
▁Cop	-14373
▁MPs	-14374
▁MSC	-14375
▁Raf	-14376
▁Sac	-14377
▁Yug	-14378
▁amp	-14379
▁cig	-14380
▁fol	-14381
▁org	-14382
Child	-14383
azing	-14384
clide	-14385
eared	-14386
eding	-14387
hline	-14388
igion	-14389
isdom	-14390
itoba	-14391
oline	-14392
ropic	-14393
uates	-14394
ypass	-14395
▁(195	-14396
▁/></	-14397
▁100%	-14398
▁1921	-14399
▁1959	-14400
▁1963	-14401
▁Andr	-14402
▁Bran	-14403
▁Elli	-14404
▁Host	-14405
▁Lean	-14406
▁Lynn	-14407
▁Male	-14408
▁Meta	-14409
▁Pred	-14410
▁Sent	-14411
▁aven	-14412
▁bash	-14413
▁fert	-14414
▁forb	-14415
▁gene	-14416
▁mole	-14417
▁pand	-14418
▁pent	-14419
▁soil	-14420
▁spam	-14421
▁stup	-14422
▁syml	-14423
▁till	-14424
apache	-14425
broken	-14426
browse	-14427
enames	-14428
entric	-14429
insula	-14430
mapsto	-14431
oustic	-14432
square	-14433
status	-14434
ysical	-14435
▁1991,	-14436
▁1997.	-14437
▁Claus	-14438
▁Evans	-14439
▁Hills	-14440
▁Manip	-14441
▁Olive	-14442
▁Shane	-14443
▁Tamil	-14444
▁Vista	-14445
▁chunk	-14446
▁crick	-14447
▁drift	-14448
▁embar	-14449
▁enfor	-14450
▁fruit	-14451
▁gauge	-14452
▁guilt	-14453
▁renov	-14454
▁rooms	-14455
▁sheet	-14456
▁sorts	-14457
Install	-14458
athered	-14459
ismatic	-14460
natural	-14461
recipes	-14462
service	-14463
trivial	-14464
▁(2012)	-14465
▁(2014)	-14466
▁(2017)	-14467
▁Campus	-14468
▁Cooper	-14469
▁Freder	-14470
▁Harris	-14471
▁Native	-14472
▁Oracle	-14473
▁Parker	-14474
▁Should	-14475
▁Sylvia	-14476
▁Watson	-14477
▁abduct	-14478
▁acquis	-14479
▁cement	-14480
▁decode	-14481
▁gender	-14482
▁jungle	-14483
▁lesser	-14484
▁lyrics	-14485
▁masked	-14486
▁masses	-14487
▁photon	-14488
▁phrase	-14489
▁poster	-14490
▁purely	-14491
▁reconc	-14492
▁retail	-14493
▁steady	-14494
▁strain	-14495
▁themes	-14496
▁twelve	-14497
▁vessel	-14498
▁waters	-14499
daughter	-14500
idistant	-14501
lections	-14502
olecular	-14503
▁Answers	-14504
▁Kalpana	-14505
▁Kennedy	-14506
▁Lagrang	-14507
▁Laurent	-14508
▁Nations	-14509
▁Present	-14510
▁Studios	-14511
▁amateur	-14512
▁coastal	-14513
▁conquer	-14514
▁crosses	-14515
▁doubles	-14516
▁figured	-14517
▁funding	-14518
▁illness	-14519
▁premier	-14520
▁reactor	-14521
▁refused	-14522
▁tension	-14523
▁wrapper	-14524
itational	-14525
ustration	-14526
▁Chairman	-14527
▁Firewall	-14528
▁Relevant	-14529
▁Springer	-14530
▁Variable	-14531
▁adaptive	-14532
▁brackets	-14533
▁detector	-14534
▁disguise	-14535
▁escaping	-14536
▁limiting	-14537
▁murderer	-14538
▁overview	-14539
▁persuade	-14540
▁probabil	-14541
▁protagon	-14542
▁simplify	-14543
▁succeeds	-14544
▁symptoms	-14545
▁weighted	-14546
ForeignKey	-14547
▁Baltimore	-14548
▁Champions	-14549
▁Etymology	-14550
▁Otherwise	-14551
▁abilities	-14552
▁conscious	-14553
▁emergency	-14554
▁impressed	-14555
▁prisoners	-14556
▁realistic	-14557
▁retrieval	-14558
▁successor	-14559
▁suspicion	-14560
▁translate	-14561
▁triggered	-14562
▁absorption	-14563
▁collecting	-14564
▁encouraged	-14565
▁fractional	-14566
▁impression	-14567
▁imprisoned	-14568
▁songwriter	-14569
▁weaknesses	-14570
▁Composition	-14571
▁Integration	-14572
▁integrating	-14573
▁logarithmic	-14574
▁predictions	-14575
▁Nevertheless	-14576
▁cryptography	-14577
▁repositories	-14578
▁deterministic	-14579
)[	-14580
+,	-14581
/?	-14582
1'	-14583
2=	-14584
=&	-14585
AI	-14586
HC	-14587
SU	-14588
":"	-14589
:59	-14590
IDs	-14591
apy	-14592
eda	-14593
etr	-14594
onn	-14595
rpc	-14596
uma	-14597
}},	-14598
▁4)	-14599
▁53	-14600
▁76	-14601
▁BY	-14602
▁EX	-14603
▁Mk	-14604
▁ON	-14605
▁Ri	-14606
▁ft	-14607
)}{\	-14608
Find	-14609
Spec	-14610
[0-9	-14611
anga	-14612
atus	-14613
enly	-14614
epad	-14615
fram	-14616
idae	-14617
imen	-14618
inos	-14619
iors	-14620
odox	-14621
offs	-14622
plus	-14623
ryst	-14624
})$$	-14625
}_{2	-14626
▁2.0	-14627
▁ATP	-14628
▁Box	-14629
▁CLI	-14630
▁IIS	-14631
▁LIN	-14632
▁Pig	-14633
▁RFC	-14634
▁Wen	-14635
▁abc	-14636
▁cum	-14637
▁duo	-14638
▁ohm	-14639
▁tea	-14640
▁tom	-14641
ATION	-14642
Light	-14643
Linux	-14644
aceae	-14645
agine	-14646
aired	-14647
aying	-14648
emons	-14649
equal	-14650
essor	-14651
icial	-14652
inian	-14653
later	-14654
loria	-14655
ormal	-14656
ovsky	-14657
plane	-14658
regex	-14659
since	-14660
stage	-14661
terns	-14662
total	-14663
ultan	-14664
▁Baba	-14665
▁Barb	-14666
▁Blog	-14667
▁Conc	-14668
▁Cuba	-14669
▁Dear	-14670
▁Face	-14671
▁Fame	-14672
▁Fitz	-14673
▁Food	-14674
▁Grad	-14675
▁Joan	-14676
▁Lomb	-14677
▁NEET	-14678
▁Nazi	-14679
▁Nord	-14680
▁Owen	-14681
▁Sham	-14682
▁clue	-14683
▁foss	-14684
▁hint	-14685
▁leaf	-14686
▁mini	-14687
▁ruth	-14688
▁verb	-14689
/2008/	-14690
Django	-14691
Lambda	-14692
atinum	-14693
celona	-14694
ichlet	-14695
resses	-14696
roller	-14697
stable	-14698
umbles	-14699
ushing	-14700
valued	-14701
▁(1999	-14702
▁1996,	-14703
▁2000.	-14704
▁2014)	-14705
▁Buddy	-14706
▁Daffy	-14707
▁Dixon	-14708
▁Fritz	-14709
▁Molly	-14710
▁Phill	-14711
▁Rhine	-14712
▁Types	-14713
▁asset	-14714
▁audit	-14715
▁begun	-14716
▁canal	-14717
▁cater	-14718
▁cruel	-14719
▁doubt	-14720
▁fleet	-14721
▁greet	-14722
▁heter	-14723
▁inhib	-14724
▁newer	-14725
▁sneak	-14726
▁stake	-14727
▁tooth	-14728
appings	-14729
generic	-14730
ilinear	-14731
lington	-14732
ropolis	-14733
roscopy	-14734
tically	-14735
▁(2013)	-14736
▁Afghan	-14737
▁Agency	-14738
▁Alexei	-14739
▁Alfred	-14740
▁Assume	-14741
▁Compos	-14742
▁Danish	-14743
▁Expert	-14744
▁Fellow	-14745
▁Fisher	-14746
▁Gandhi	-14747
▁Gerald	-14748
▁Hudson	-14749
▁Janata	-14750
▁Jeremy	-14751
▁Louise	-14752
▁Manuel	-14753
▁Norman	-14754
▁Player	-14755
▁Rajesh	-14756
▁Wright	-14757
▁beaten	-14758
▁beside	-14759
▁bottle	-14760
▁chunks	-14761
▁cosine	-14762
▁crisis	-14763
▁debate	-14764
▁guilty	-14765
▁markup	-14766
▁reject	-14767
▁rushes	-14768
▁sensor	-14769
▁sequel	-14770
▁shadow	-14771
▁trigon	-14772
▁weakly	-14773
isations	-14774
▁Croatia	-14775
▁Explain	-14776
▁Gallery	-14777
▁Jessica	-14778
▁Mediter	-14779
▁MySQLdb	-14780
▁Options	-14781
▁Tkinter	-14782
▁amongst	-14783
▁chronic	-14784
▁courses	-14785
▁distant	-14786
▁electro	-14787
▁elevate	-14788
▁genetic	-14789
▁grounds	-14790
▁kilomet	-14791
▁organic	-14792
▁proving	-14793
▁ranging	-14794
▁readers	-14795
▁sectors	-14796
▁surname	-14797
▁synthes	-14798
▁thieves	-14799
▁unified	-14800
▁villain	-14801
▁Brigitte	-14802
▁Fernando	-14803
▁Manitoba	-14804
▁Robinson	-14805
▁bankrupt	-14806
▁chairman	-14807
▁depicted	-14808
▁designer	-14809
▁entitled	-14810
▁ignoring	-14811
▁innocent	-14812
▁interpol	-14813
▁invasion	-14814
▁Assistant	-14815
▁Catherine	-14816
▁Chebyshev	-14817
▁Evolution	-14818
▁Secondary	-14819
▁addressed	-14820
▁adventure	-14821
▁curvature	-14822
▁debugging	-14823
▁extracted	-14824
▁filenames	-14825
▁furniture	-14826
▁intervals	-14827
▁isolation	-14828
▁orphanage	-14829
▁requested	-14830
▁Emmanuelle	-14831
▁Polynomial	-14832
▁assessment	-14833
▁conjecture	-14834
▁credential	-14835
▁delivering	-14836
▁facilitate	-14837
▁guaranteed	-14838
▁industries	-14839
▁influenced	-14840
▁opposition	-14841
▁phenomenon	-14842
▁spacecraft	-14843
▁submission	-14844
▁systematic	-14845
staticmethod	-14846
▁Westminster	-14847
▁anniversary	-14848
▁circulation	-14849
▁constructor	-14850
▁controlling	-14851
▁differently	-14852
▁multiplying	-14853
▁rectangular	-14854
▁reluctantly	-14855
▁Constitution	-14856
▁confidential	-14857
▁constitution	-14858
▁inequalities	-14859
▁spearphishing	-14860
▁approximations	-14861
▁identification	-14862
%)	-14863
){	-14864
0/	-14865
2"	-14866
DD	-14867
DO	-14868
MC	-14869
PF	-14870
]\	-14871
^6	-14872
gd	-14873
'))	-14874
');	-14875
-3)	-14876
1.1	-14877
6).	-14878
:43	-14879
:51	-14880
Lab	-14881
Pat	-14882
SSN	-14883
[1:	-14884
amm	-14885
asa	-14886
del	-14887
ipy	-14888
irs	-14889
ogi	-14890
omm	-14891
ovi	-14892
usp	-14893
yon	-14894
▁"<	-14895
▁58	-14896
▁67	-14897
▁8:	-14898
▁9:	-14899
▁IR	-14900
▁LO	-14901
▁Ru	-14902
▁SR	-14903
▁SV	-14904
▁UV	-14905
▁[5	-14906
Open	-14907
Plot	-14908
Show	-14909
agle	-14910
alam	-14911
alan	-14912
aria	-14913
arus	-14914
auer	-14915
bell	-14916
cers	-14917
emen	-14918
eper	-14919
houn	-14920
icos	-14921
irth	-14922
itha	-14923
live	-14924
mess	-14925
mith	-14926
mont	-14927
oley	-14928
song	-14929
sudo	-14930
tikz	-14931
tool	-14932
tree	-14933
unit	-14934
ycle	-14935
yers	-14936
zona	-14937
üren	-14938
▁$$2	-14939
▁(0.	-14940
▁110	-14941
▁2),	-14942
▁ASP	-14943
▁Fal	-14944
▁Fif	-14945
▁Kin	-14946
▁Kis	-14947
▁MAC	-14948
▁Mom	-14949
▁OSX	-14950
▁Pep	-14951
▁Seb	-14952
▁Sor	-14953
▁Tax	-14954
▁ZIP	-14955
▁[4]	-14956
▁scp	-14957
▁tut	-14958
Users	-14959
const	-14960
hedra	-14961
manif	-14962
nique	-14963
numer	-14964
odeca	-14965
orses	-14966
ounty	-14967
ovich	-14968
paste	-14969
piece	-14970
plain	-14971
works	-14972
▁1947	-14973
▁1975	-14974
▁Clay	-14975
▁Hell	-14976
▁IEEE	-14977
▁Kane	-14978
▁Near	-14979
▁Omar	-14980
▁Pain	-14981
▁Pink	-14982
▁Soft	-14983
▁Very	-14984
▁anom	-14985
▁begs	-14986
▁buys	-14987
▁carp	-14988
▁coup	-14989
▁dont	-14990
▁encl	-14991
▁hell	-14992
▁pion	-14993
▁soap	-14994
▁taxi	-14995
▁ther	-14996
▁tube	-14997
▁virt	-14998
▁wine	-14999
Double	-15000
Simple	-15001
akshmi	-15002
charge	-15003
embers	-15004
ensing	-15005
exists	-15006
graded	-15007
height	-15008
igible	-15009
imetre	-15010
izable	-15011
making	-15012
uesday	-15013
▁2001.	-15014
▁Burns	-15015
▁Deben	-15016
▁Devon	-15017
▁Duane	-15018
▁Excel	-15019
▁Issue	-15020
▁Liver	-15021
▁Those	-15022
▁Tower	-15023
▁Vicky	-15024
▁abbre	-15025
▁blade	-15026
▁conqu	-15027
▁diode	-15028
▁fewer	-15029
▁fifty	-15030
▁inert	-15031
▁march	-15032
▁overs	-15033
▁pizza	-15034
▁posit	-15035
▁releg	-15036
▁resem	-15037
▁toler	-15038
▁trips	-15039
clidean	-15040
ighting	-15041
instein	-15042
ometown	-15043
playing	-15044
pmatrix	-15045
▁Buster	-15046
▁Gloria	-15047
▁Hidden	-15048
▁Inside	-15049
▁Jackie	-15050
▁SYSTEM	-15051
▁Sandra	-15052
▁Sloven	-15053
▁Soccer	-15054
▁Travis	-15055
▁Trojan	-15056
▁belief	-15057
▁bishop	-15058
▁buying	-15059
▁duties	-15060
▁encode	-15061
▁harder	-15062
▁legacy	-15063
▁prince	-15064
▁reform	-15065
▁refuse	-15066
▁salary	-15067
▁struck	-15068
▁supers	-15069
ternally	-15070
ymmetric	-15071
▁Alabama	-15072
▁Foghorn	-15073
▁Harvard	-15074
▁Hunting	-15075
▁Manilow	-15076
▁Norfolk	-15077
▁Release	-15078
▁Solaris	-15079
▁cabinet	-15080
▁emerged	-15081
▁emerges	-15082
▁examine	-15083
▁imaging	-15084
▁intends	-15085
▁linking	-15086
▁protest	-15087
▁radical	-15088
▁seventh	-15089
▁torture	-15090
▁zipfile	-15091
generated	-15092
necessary	-15093
rocessing	-15094
▁Abdullah	-15095
▁Confeder	-15096
▁Contents	-15097
▁Independ	-15098
▁Interest	-15099
▁Material	-15100
▁Problems	-15101
▁Squadron	-15102
▁Students	-15103
▁archives	-15104
▁bachelor	-15105
▁colonial	-15106
▁concaten	-15107
▁confined	-15108
▁cultures	-15109
▁distract	-15110
▁duration	-15111
▁emission	-15112
▁enhanced	-15113
▁imperson	-15114
▁iterable	-15115
▁ministry	-15116
▁obsessed	-15117
▁responds	-15118
▁troubled	-15119
▁ultimate	-15120
▁Barcelona	-15121
▁Basically	-15122
▁Classical	-15123
▁Depending	-15124
▁Friedrich	-15125
▁Hungarian	-15126
▁Structure	-15127
▁belonging	-15128
▁configure	-15129
▁intrusion	-15130
▁numerator	-15131
▁paintings	-15132
▁sacrifice	-15133
▁satellite	-15134
▁southeast	-15135
▁spherical	-15136
▁untrusted	-15137
▁witnessed	-15138
odecahedron	-15139
▁Additional	-15140
▁Collection	-15141
▁approached	-15142
▁classifier	-15143
▁downloaded	-15144
▁engagement	-15145
▁graduating	-15146
▁supposedly	-15147
▁surprising	-15148
▁thereafter	-15149
▁celebration	-15150
▁conjunction	-15151
▁distinction	-15152
▁transported	-15153
▁arrangements	-15154
▁broadcasting	-15155
▁demonstrates	-15156
▁improvements	-15157
▁occasionally	-15158
▁organisation	-15159
▁publications	-15160
▁Mediterranean	-15161
▁architectures	-15162
▁Representatives	-15163
Em	-15164
HK	-15165
IF	-15166
LD	-15167
TO	-15168
Ti	-15169
je	-15170
rb	-15171
ét	-15172
(2,	-15173
-07	-15174
09)	-15175
16.	-15176
17.	-15177
99)	-15178
ALL	-15179
ARG	-15180
Are	-15181
Dev	-15182
Ext	-15183
Try	-15184
_0,	-15185
aji	-15186
fle	-15187
fox	-15188
lad	-15189
orp	-15190
rac	-15191
rov	-15192
tec	-15193
umi	-15194
who	-15195
wig	-15196
zeg	-15197
▁',	-15198
▁-&	-15199
▁72	-15200
▁98	-15201
▁Ax	-15202
▁BA	-15203
▁ED	-15204
▁FL	-15205
▁Gw	-15206
▁KB	-15207
▁Wu	-15208
▁XP	-15209
▁],	-15210
0001	-15211
ATED	-15212
Next	-15213
bird	-15214
cond	-15215
elou	-15216
ethe	-15217
gate	-15218
geon	-15219
good	-15220
gree	-15221
irts	-15222
mare	-15223
mund	-15224
noon	-15225
occo	-15226
omic	-15227
ovan	-15228
ripp	-15229
rock	-15230
rone	-15231
sort	-15232
ulum	-15233
unar	-15234
whel	-15235
wick	-15236
▁'''	-15237
▁09:	-15238
▁177	-15239
▁===	-15240
▁Cyn	-15241
▁Fab	-15242
▁Hyd	-15243
▁Mei	-15244
▁Sah	-15245
▁TiO	-15246
▁WMI	-15247
▁arr	-15248
▁blo	-15249
▁bol	-15250
▁les	-15251
▁mes	-15252
▁mim	-15253
▁nan	-15254
▁nar	-15255
▁pul	-15256
▁tnt	-15257
▁voy	-15258
=0}^{	-15259
atiya	-15260
black	-15261
casts	-15262
elson	-15263
empty	-15264
ensor	-15265
found	-15266
fraid	-15267
gthen	-15268
imals	-15269
itals	-15270
oters	-15271
phant	-15272
phase	-15273
prene	-15274
swald	-15275
tered	-15276
tuple	-15277
yield	-15278
▁Bath	-15279
▁Beck	-15280
▁Brid	-15281
▁Cron	-15282
▁Fisc	-15283
▁Kirk	-15284
▁Ling	-15285
▁Luck	-15286
▁Mode	-15287
▁Nell	-15288
▁Plus	-15289
▁Saul	-15290
▁Shim	-15291
▁Soph	-15292
▁Vice	-15293
▁aest	-15294
▁demo	-15295
▁fran	-15296
▁kick	-15297
▁lazy	-15298
▁nerv	-15299
▁obst	-15300
▁sake	-15301
▁shed	-15302
▁stim	-15303
▁{1}&	-15304
Direct	-15305
assert	-15306
bullet	-15307
likely	-15308
offset	-15309
profit	-15310
ranged	-15311
target	-15312
ynolds	-15313
▁1990,	-15314
▁1992.	-15315
▁2015.	-15316
▁2016)	-15317
▁Actor	-15318
▁Ellis	-15319
▁Hardy	-15320
▁Hindi	-15321
▁Honor	-15322
▁Leban	-15323
▁Logic	-15324
▁Maths	-15325
▁Pitts	-15326
▁Quote	-15327
▁Ralph	-15328
▁Solve	-15329
▁Tools	-15330
▁Trend	-15331
▁Trent	-15332
▁Trump	-15333
▁Uncle	-15334
▁Willy	-15335
▁aimed	-15336
▁brown	-15337
▁chose	-15338
▁draws	-15339
▁energ	-15340
▁facts	-15341
▁fatal	-15342
▁grabs	-15343
▁jewel	-15344
▁lingu	-15345
▁naval	-15346
▁oblig	-15347
▁pivot	-15348
▁rises	-15349
▁slave	-15350
▁swing	-15351
▁tends	-15352
▁theta	-15353
▁tract	-15354
▁truly	-15355
▁volat	-15356
▁weird	-15357
abulary	-15358
contrib	-15359
perture	-15360
reprene	-15361
tactics	-15362
through	-15363
urlopen	-15364
winning	-15365
▁(2020)	-15366
▁Dragon	-15367
▁Garden	-15368
▁Harold	-15369
▁Struct	-15370
▁Trophy	-15371
▁Vishal	-15372
▁Wednes	-15373
▁explan	-15374
▁hashes	-15375
▁invert	-15376
[...]
