{
  "version": "1.0",
  "truncation": null,
  "padding": null,
  "added_tokens": [
    {
      "id": 0,
      "content": "<pad>",
      "single_word": false,
      "lstrip": false,
      "rstrip": false,
      "normalized": false,
      "special": true
    },
    {
      "id": 1,
      "content": "<unk>",
      "single_word": false,
      "lstrip": false,
      "rstrip": false,
      "normalized": false,
      "special": true
    },
    {
      "id": 2,
      "content": "<bos>",
      "single_word": false,
      "lstrip": false,
      "rstrip": false,
      "normalized": false,
      "special": true
    },
    {
      "id": 3,
      "content": "<eos>",
      "single_word": false,
      "lstrip": false,
      "rstrip": false,
      "normalized": false,
      "special": true
    },
    {
      "id": 4,
      "content": "<sep>",
      "single_word": false,
      "lstrip": false,
      "rstrip": false,
      "normalized": false,
      "special": true
    },
    {
      "id": 5,
      "content": "<mask>",
      "single_word": false,
      "lstrip": false,
      "rstrip": false,
      "normalized": false,
      "special": true
    }
  ],
  "normalizer": {
    "type": "Sequence",
    "normalizers": [
      {
        "type": "NFD"
      },
      {
        "type": "StripAccents"
      }
    ]
  },
  "pre_tokenizer": {
    "type": "ByteLevel",
    "add_prefix_space": false,
    "trim_offsets": true,
    "use_regex": true
  },
  "post_processor": {
    "type": "TemplateProcessing",
    "single": [
      {
        "SpecialToken": {
          "id": "<bos>",
          "type_id": 0
        }
      },
      {
        "Sequence": {
          "id": "A",
          "type_id": 0
        }
      },
      {
        "SpecialToken": {
          "id": "<eos>",
          "type_id": 0
        }
      }
    ],
    "pair": [
      {
        "SpecialToken": {
          "id": "<bos>",
          "type_id": 0
        }
      },
      {
        "Sequence": {
          "id": "A",
          "type_id": 0
        }
      },
      {
        "SpecialToken": {
          "id": "<eos>",
          "type_id": 0
        }
      },
      {
        "SpecialToken": {
          "id": "<sep>",
          "type_id": 0
        }
      },
      {
        "Sequence": {
          "id": "B",
          "type_id": 1
        }
      },
      {
        "SpecialToken": {
          "id": "<eos>",
          "type_id": 1
        }
      }
    ],
    "special_tokens": {
      "<bos>": {
        "id": "<bos>",
        "ids": [
          2
        ],
        "tokens": [
          "<bos>"
        ]
      },
      "<eos>": {
        "id": "<eos>",
        "ids": [
          3
        ],
        "tokens": [
          "<eos>"
        ]
      },
      "<sep>": {
        "id": "<sep>",
        "ids": [
          4
        ],
        "tokens": [
          "<sep>"
        ]
      }
    }
  },
  "decoder": {
    "type": "ByteLevel",
    "add_prefix_space": true,
    "trim_offsets": true,
    "use_regex": true
  },
  "model": {
    "type": "BPE",
    "dropout": null,
    "unk_token": "<unk>",
    "continuing_subword_prefix": null,
    "end_of_word_suffix": null,
    "fuse_unk": false,
    "byte_fallback": false,
    "ignore_merges": false,
    "vocab": {
      "<pad>": 0,
      "<unk>": 1,
      "<bos>": 2,
      "<eos>": 3,
      "<sep>": 4,
      "<mask>": 5,
      "!": 6,
      "\"": 7,
      "#": 8,
      "$": 9,
      "%": 10,
      "&": 11,
      "'": 12,
      "(": 13,
      ")": 14,
      "*": 15,
      "+": 16,
      ",": 17,
      "-": 18,
      ".": 19,
      "/": 20,
      "0": 21,
      "1": 22,
      "2": 23,
      "3": 24,
      "4": 25,
      "5": 26,
      "6": 27,
      "7": 28,
      "8": 29,
      "9": 30,
      ":": 31,
      ";": 32,
      "<": 33,
      "=": 34,
      ">": 35,
      "?": 36,
      "@": 37,
      "A": 38,
      "B": 39,
      "C": 40,
      "D": 41,
      "E": 42,
      "F": 43,
      "G": 44,
      "H": 45,
      "I": 46,
      "J": 47,
      "K": 48,
      "L": 49,
      "M": 50,
      "N": 51,
      "O": 52,
      "P": 53,
      "Q": 54,
      "R": 55,
      "S": 56,
      "T": 57,
      "U": 58,
      "V": 59,
      "W": 60,
      "X": 61,
      "Y": 62,
      "Z": 63,
      "[": 64,
      "\\": 65,
      "]": 66,
      "^": 67,
      "_": 68,
      "`": 69,
      "a": 70,
      "b": 71,
      "c": 72,
      "d": 73,
      "e": 74,
      "f": 75,
      "g": 76,
      "h": 77,
      "i": 78,
      "j": 79,
      "k": 80,
      "l": 81,
      "m": 82,
      "n": 83,
      "o": 84,
      "p": 85,
      "q": 86,
      "r": 87,
      "s": 88,
      "t": 89,
      "u": 90,
      "v": 91,
      "w": 92,
      "x": 93,
      "y": 94,
      "z": 95,
      "{": 96,
      "|": 97,
      "}": 98,
      "~": 99,
      "¡": 100,
      "¢": 101,
      "£": 102,
      "¤": 103,
      "¥": 104,
      "¦": 105,
      "§": 106,
      "¨": 107,
      "©": 108,
      "ª": 109,
      "«": 110,
      "¬": 111,
      "®": 112,
      "¯": 113,
      "°": 114,
      "±": 115,
      "²": 116,
      "³": 117,
      "´": 118,
      "µ": 119,
      "¶": 120,
      "·": 121,
      "¸": 122,
      "¹": 123,
      "º": 124,
      "»": 125,
      "¼": 126,
      "½": 127,
      "¾": 128,
      "¿": 129,
      "Â": 130,
      "Ã": 131,
      "Ä": 132,
      "Å": 133,
      "Æ": 134,
      "Ç": 135,
      "È": 136,
      "É": 137,
      "Ê": 138,
      "Ë": 139,
      "Î": 140,
      "Ï": 141,
      "Ð": 142,
      "Ñ": 143,
      "Ò": 144,
      "Ó": 145,
      "Ô": 146,
      "Õ": 147,
      "Ö": 148,
      "×": 149,
      "Ø": 150,
      "Ù": 151,
      "Ú": 152,
      "Û": 153,
      "Ü": 154,
      "Ý": 155,
      "Þ": 156,
      "ß": 157,
      "à": 158,
      "á": 159,
      "â": 160,
      "ã": 161,
      "ä": 162,
      "å": 163,
      "æ": 164,
      "ç": 165,
      "è": 166,
      "é": 167,
      "ê": 168,
      "î": 169,
      "ï": 170,
      "ð": 171,
      "ă": 172,
      "ĉ": 173,
      "Ċ": 174,
      "Ġ": 175,
      "ġ": 176,
      "Ģ": 177,
      "ģ": 178,
      "Ĥ": 179,
      "ĥ": 180,
      "Ħ": 181,
      "ħ": 182,
      "Ĩ": 183,
      "ĩ": 184,
      "Ī": 185,
      "ī": 186,
      "Ĭ": 187,
      "ĭ": 188,
      "Į": 189,
      "į": 190,
      "İ": 191,
      "ı": 192,
      "Ĳ": 193,
      "ĳ": 194,
      "Ĵ": 195,
      "ĵ": 196,
      "Ķ": 197,
      "ķ": 198,
      "ĸ": 199,
      "Ĺ": 200,
      "ĺ": 201,
      "Ļ": 202,
      "ļ": 203,
      "Ľ": 204,
      "ľ": 205,
      "Ŀ": 206,
      "ŀ": 207,
      "Ł": 208,
      "ł": 209,
      "Ń": 210,
      "Ġt": 211,
      "he": 212,
      "Ġa": 213,
      "ĠĠ": 214,
      "in": 215,
      "Ġthe": 216,
      "re": 217,
      "on": 218,
      "Ġs": 219,
      "er": 220,
      "Ġw": 221,
      "Ġo": 222,
      "nd": 223,
      "at": 224,
      "is": 225,
      "it": 226,
      "Ġb": 227,
      "Ġf": 228,
      "es": 229,
      "Ġc": 230,
      "en": 231,
      "or": 232,
      "ed": 233,
      "Ġh": 234,
      "an": 235,
      "ar": 236,
      "ing": 237,
      "Ġof": 238,
      "Ġand": 239,
      "Ġto": 240,
      "ou": 241,
      "Ġm": 242,
      "al": 243,
      "Ġp": 244,
      "Ġin": 245,
      "Ġd": 246,
      "ĠĠĠĠ": 247,
      "le": 248,
      "as": 249,
      "ic": 250,
      "om": 251,
      "Ġth": 252,
      "ion": 253,
      "ĠĠĠĠĠ": 254,
      "il": 255,
      "Ġl": 256,
      "Ġn": 257,
      "Ġhe": 258,
      "âĢ": 259,
      "el": 260,
      "ot": 261,
      "st": 262,
      "ent": 263,
      "ĠT": 264,
      "im": 265,
      "Ġe": 266,
      "Ġg": 267,
      "Ġre": 268,
      "ac": 269,
      "et": 270,
      "ut": 271,
      "ow": 272,
      "ĠS": 273,
      "Ġis": 274,
      "ad": 275,
      "ly": 276,
      "ĠI": 277,
      "Ġbe": 278,
      "ve": 279,
      "ĠA": 280,
      "ro": 281,
      "am": 282,
      "id": 283,
      "ct": 284,
      "ol": 285,
      "Ġon": 286,
      "ith": 287,
      "Ġthat": 288,
      "ig": 289,
      "Ġfor": 290,
      "Ġu": 291,
      "ver": 292,
      "ur": 293,
      "ĠM": 294,
      "Ġwh": 295,
      "ay": 296,
      "ĠC": 297,
      "ir": 298,
      "Ġwith": 299,
      "Ġst": 300,
      "se": 301,
      "ter": 302,
      "Ġas": 303,
      "Ġhis": 304,
      "ce": 305,
      "ation": 306,
      "ri": 307,
      "ĠH": 308,
      "ĠP": 309,
      "Ġit": 310,
      "Ġwas": 311,
      "ul": 312,
      "ĠThe": 313,
      "Ġan": 314,
      "Ġy": 315,
      "ĠB": 316,
      "her": 317,
      "ch": 318,
      "Ġal": 319,
      "od": 320,
      "Ġ(": 321,
      "if": 322,
      "and": 323,
      "Ġat": 324,
      "ge": 325,
      "ht": 326,
      "um": 327,
      "Ġby": 328,
      "Ġ1": 329,
      "ld": 330,
      "ĠD": 331,
      "Ġcon": 332,
      "ill": 333,
      "Ġr": 334,
      "ain": 335,
      "ere": 336,
      "Ġher": 337,
      "'s": 338,
      "ap": 339,
      "us": 340,
      "ak": 341,
      "Ġyou": 342,
      "un": 343,
      "ab": 344,
      "th": 345,
      "ĠW": 346,
      "em": 347,
      "ĠF": 348,
      "ist": 349,
      "rom": 350,
      "Âł": 351,
      "Ġse": 352,
      "ĠR": 353,
      "Ġv": 354,
      "ĠL": 355,
      "pe": 356,
      "ess": 357,
      "ore": 358,
      "qu": 359,
      "Ġde": 360,
      "Ġnot": 361,
      "ers": 362,
      "Ġcom": 363,
      "est": 364,
      "ight": 365,
      "Ġex": 366,
      "Ġhim": 367,
      "ĠG": 368,
      "Ġk": 369,
      "res": 370,
      "ie": 371,
      "ĠâĢ": 372,
      "ave": 373,
      "os": 374,
      "Ġsh": 375,
      "Ġfrom": 376,
      "art": 377,
      "ĠE": 378,
      "ate": 379,
      "ĠJ": 380,
      "ant": 381,
      "ich": 382,
      "Ġare": 383,
      "Ġor": 384,
      "ĠN": 385,
      "Ġsu": 386,
      "iv": 387,
      "all": 388,
      "Ġpro": 389,
      "oc": 390,
      "op": 391,
      "ell": 392,
      "Ġ2": 393,
      "Ġne": 394,
      "Ġbut": 395,
      "Ġch": 396,
      "ard": 397,
      "âĢĿ": 398,
      "ould": 399,
      "Ġle": 400,
      "nt": 401,
      "pl": 402,
      "Ġhad": 403,
      "Ġwhe": 404,
      "ag": 405,
      "00": 406,
      "ack": 407,
      "âĢĻ": 408,
      "Ġtr": 409,
      "Ġint": 410,
      "ity": 411,
      "Ġwho": 412,
      "Ġwhich": 413,
      "pt": 414,
      "Ġshe": 415,
      "ĠO": 416,
      "Ġ\"": 417,
      "ind": 418,
      "av": 419,
      "Ġhave": 420,
      "oug": 421,
      "ive": 422,
      "Ġthis": 423,
      "ies": 424,
      "ort": 425,
      "ure": 426,
      "ome": 427,
      "Ġme": 428,
      "ous": 429,
      "ok": 430,
      "Ġall": 431,
      "ust": 432,
      "ĠâĢľ": 433,
      "out": 434,
      "ary": 435,
      "ud": 436,
      "ine": 437,
      "Ġdo": 438,
      "our": 439,
      "Ġup": 440,
      "ment": 441,
      "Ġthey": 442,
      "age": 443,
      "Ġab": 444,
      "ire": 445,
      "ally": 446,
      "ĠK": 447,
      "Ġar": 448,
      "ast": 449,
      "Ġwe": 450,
      "ong": 451,
      "Ġpl": 452,
      "ame": 453,
      "Ġout": 454,
      "Ġlo": 455,
      "ction": 456,
      "Ġman": 457,
      "are": 458,
      "ĠĠĠĠĊ": 459,
      "Ġso": 460,
      "Ġone": 461,
      "Ġwor": 462,
      "ound": 463,
      "ans": 464,
      "Ġgo": 465,
      "Ġ$": 466,
      "Ġtheir": 467,
      "Ġhas": 468,
      "pp": 469,
      "ide": 470,
      "ĠHe": 471,
      "âĢĶ": 472,
      "The": 473,
      "Ġcan": 474,
      "ry": 475,
      "per": 476,
      "ff": 477,
      "Ġus": 478,
      "ile": 479,
      "ath": 480,
      "ber": 481,
      "iz": 482,
      "ass": 483,
      "ime": 484,
      "own": 485,
      "Ġgr": 486,
      "ost": 487,
      "Ġj": 488,
      "act": 489,
      "ough": 490,
      "ov": 491,
      "ace": 492,
      "end": 493,
      "ther": 494,
      "one": 495,
      "Ġwere": 496,
      "ik": 497,
      "Ġthem": 498,
      "ang": 499,
      "cc": 500,
      "Ġun": 501,
      "au": 502,
      "ue": 503,
      "ory": 504,
      "ilm": 505,
      "ect": 506,
      "ated": 507,
      "ip": 508,
      "ice": 509,
      "Ġcl": 510,
      "ks": 511,
      "ite": 512,
      "ial": 513,
      "ake": 514,
      "fter": 515,
      "ance": 516,
      "og": 517,
      "Ġinto": 518,
      "Ġmy": 519,
      "Ġwhen": 520,
      "ĠIn": 521,
      "ĠSt": 522,
      "able": 523,
      "Ġkn": 524,
      "urn": 525,
      "Ġ19": 526,
      "Ġim": 527,
      "Ġcomp": 528,
      "Ġen": 529,
      "ĠĊ": 530,
      "ear": 531,
      "very": 532,
      "ĠTh": 533,
      "Ġ\\": 534,
      "##": 535,
      "Ġsa": 536,
      "Ġno": 537,
      "ical": 538,
      "ish": 539,
      "ĠV": 540,
      "sel": 541,
      "Ġad": 542,
      "ep": 543,
      "ond": 544,
      "ib": 545,
      "for": 546,
      "ĠU": 547,
      "ach": 548,
      "ra": 549,
      "uc": 550,
      "ence": 551,
      "ult": 552,
      "Ġdis": 553,
      "Ġwill": 554,
      "..": 555,
      "Ġtw": 556,
      "ions": 557,
      "ng": 558,
      "other": 559,
      "int": 560,
      "ia": 561,
      "Ġ=": 562,
      "Ġsc": 563,
      "Ġcont": 564,
      "ĠCh": 565,
      "Ġbeen": 566,
      "cl": 567,
      "itt": 568,
      "Ġthere": 569,
      "Ġqu": 570,
      "Ġag": 571,
      "ress": 572,
      "ru": 573,
      "Ġother": 574,
      "Ġres": 575,
      "ew": 576,
      "so": 577,
      "Ġsp": 578,
      "Ġfilm": 579,
      "Ġev": 580,
      "low": 581,
      "Ġbr": 582,
      "ft": 583,
      "Ġro": 584,
      "ays": 585,
      "Ġwould": 586,
      "ely": 587,
      "Ġif": 588,
      "Ġmore": 589,
      "Ġabout": 590,
      "red": 591,
      "01": 592,
      "ose": 593,
      "ations": 594,
      "Ġthen": 595,
      "Ġpr": 596,
      "Ġsome": 597,
      "ub": 598,
      "ree": 599,
      "Ġ0": 600,
      "irst": 601,
      "ex": 602,
      "Ġtime": 603,
      "ater": 604,
      "ĠY": 605,
      "ian": 606,
      "ord": 607,
      "self": 608,
      "Ġoff": 609,
      "hed": 610,
      "Ġpart": 611,
      "ious": 612,
      "ition": 613,
      "the": 614,
      "ll": 615,
      "ings": 616,
      "Ġover": 617,
      "Ġper": 618,
      "Ġtwo": 619,
      "ens": 620,
      "ike": 621,
      "ild": 622,
      "Ġbec": 623,
      "Ġ-": 624,
      "old": 625,
      "ather": 626,
      "ife": 627,
      "ĠIt": 628,
      "ign": 629,
      "Ġatt": 630,
      "wn": 631,
      "oy": 632,
      "ick": 633,
      "ase": 634,
      "</": 635,
      "ict": 636,
      "Ġonly": 637,
      "ne": 638,
      "ood": 639,
      "Ġafter": 640,
      "Ġpre": 641,
      "reat": 642,
      "vers": 643,
      "Ġsaid": 644,
      "Ġget": 645,
      "ail": 646,
      "Ġany": 647,
      "ount": 648,
      "nder": 649,
      "ces": 650,
      "ple": 651,
      "mer": 652,
      "Ġbl": 653,
      "Ġwhere": 654,
      "fore": 655,
      "ade": 656,
      "Ġthan": 657,
      "ents": 658,
      "ates": 659,
      "Ġfirst": 660,
      "Ġalso": 661,
      "),": 662,
      "ock": 663,
      "19": 664,
      "Ġam": 665,
      "Ġspe": 666,
      "man": 667,
      "Ġ'": 668,
      ").": 669,
      "Ġthr": 670,
      ".âĢĿ": 671,
      "we": 672,
      "ĠĠĠĠĠĠ": 673,
      "ied": 674,
      "Ġwhat": 675,
      "form": 676,
      "Ġ3": 677,
      "ors": 678,
      "Ġpo": 679,
      "ered": 680,
      "ont": 681,
      "ĠPl": 682,
      "ode": 683,
      "iss": 684,
      "Ġbet": 685,
      "Ġits": 686,
      "gr": 687,
      "fere": 688,
      "Ġmay": 689,
      "ful": 690,
      "ward": 691,
      "Ġap": 692,
      "ise": 693,
      "Ġfind": 694,
      "Ġdes": 695,
      "les": 696,
      "hen": 697,
      "Ġco": 698,
      "Ġknow": 699,
      "ons": 700,
      "Ġback": 701,
      "ovie": 702,
      "riend": 703,
      "'t": 704,
      "ark": 705,
      "Ġhow": 706,
      "ily": 707,
      "ink": 708,
      "Ġyear": 709,
      "hing": 710,
      "Ġlike": 711,
      "Ġset": 712,
      "air": 713,
      "Ġsee": 714,
      "Ġacc": 715,
      "umm": 716,
      "ec": 717,
      "Ġrem": 718,
      "Ġunder": 719,
      "Ġnew": 720,
      "Ġwork": 721,
      "Ġ,": 722,
      "Ġcomm": 723,
      "Ġyour": 724,
      "ÂłÂł": 725,
      "Ġret": 726,
      "ix": 727,
      "ob": 728,
      ",âĢĿ": 729,
      "erv": 730,
      "ollow": 731,
      "Ġrec": 732,
      "hes": 733,
      "Ġcould": 734,
      "rit": 735,
      "ble": 736,
      "app": 737,
      "Ġagain": 738,
      "igh": 739,
      "irect": 740,
      "ener": 741,
      "Ġlook": 742,
      "ning": 743,
      "ars": 744,
      "ouse": 745,
      "ĠĠĠĠĠĊ": 746,
      "ever": 747,
      "Ġstr": 748,
      "ove": 749,
      "Ġob": 750,
      "uch": 751,
      "Ġcall": 752,
      "Ġrel": 753,
      "way": 754,
      "ows": 755,
      "oth": 756,
      "ER": 757,
      "Ġvery": 758,
      "tain": 759,
      "Ġbefore": 760,
      "Ġfe": 761,
      "Ġfl": 762,
      "Ġte": 763,
      "Ġind": 764,
      "ĠShe": 765,
      "ook": 766,
      "Ġnow": 767,
      "Ġimp": 768,
      "oss": 769,
      "ev": 770,
      "Ġthrough": 771,
      "$$": 772,
      "ject": 773,
      "Ġpe": 774,
      "du": 775,
      "Ġhand": 776,
      "aw": 777,
      "Ġsm": 778,
      "ause": 779,
      "ty": 780,
      "erm": 781,
      "Ġdown": 782,
      "Ġinter": 783,
      "ĠPlot": 784,
      "Ġend": 785,
      "ummary": 786,
      "pect": 787,
      "hy": 788,
      "{\\": 789,
      "its": 790,
      "ought": 791,
      "Ġform": 792,
      "ves": 793,
      "Ġfollow": 794,
      "Ġsuch": 795,
      "Ġmod": 796,
      "Ġbeg": 797,
      "Ġcol": 798,
      "hat": 799,
      "ics": 800,
      "Movie": 801,
      "ĠSummary": 802,
      "Ġown": 803,
      "ins": 804,
      "Ġcons": 805,
      "cept": 806,
      "anc": 807,
      "ĠAn": 808,
      "ĠAs": 809,
      "ĠThis": 810,
      "aug": 811,
      "Ġlife": 812,
      "rib": 813,
      "ĠAr": 814,
      "Ġfriend": 815,
      "Ġbeing": 816,
      "Ġway": 817,
      "ĠBut": 818,
      "Ġshould": 819,
      "ĠUn": 820,
      "ool": 821,
      "Ġdif": 822,
      "Ġtell": 823,
      "Ġsec": 824,
      "Ġsy": 825,
      "Ġnum": 826,
      "als": 827,
      "led": 828,
      "ug": 829,
      "Ġ200": 830,
      "Ġact": 831,
      "ters": 832,
      "Ġapp": 833,
      "Ġdid": 834,
      "Ġ4": 835,
      "Ġtak": 836,
      "ittle": 837,
      "Ġrep": 838,
      "ĠĠĠĠĠĠĠ": 839,
      "âĢ¢": 840,
      "ret": 841,
      "ness": 842,
      "ari": 843,
      "ren": 844,
      "get": 845,
      "ph": 846,
      "ĠMr": 847,
      "Ġuse": 848,
      "fr": 849,
      "land": 850,
      "Ġdist": 851,
      "Ġthese": 852,
      "ased": 853,
      "Ġtrans": 854,
      "Ġsub": 855,
      "Ġ201": 856,
      "âĢľ": 857,
      "Ġreturn": 858,
      "Ġass": 859,
      "Ġold": 860,
      "Ġchar": 861,
      "Ġjust": 862,
      ".\"": 863,
      "uring": 864,
      "ax": 865,
      "cess": 866,
      "Ġdec": 867,
      "Ġent": 868,
      "Ġinv": 869,
      "Ġkill": 870,
      "ating": 871,
      "ween": 872,
      "Ġmade": 873,
      "Ġ.": 874,
      "Ġac": 875,
      "str": 876,
      "Ġdoes": 877,
      "ull": 878,
      "ank": 879,
      "Ġlong": 880,
      "lect": 881,
      "der": 882,
      "ient": 883,
      "ives": 884,
      "els": 885,
      "Ġwell": 886,
      "Ġwhile": 887,
      "Ġdisc": 888,
      "In": 889,
      "ĠâĢĵ": 890,
      "ople": 891,
      "Ġfather": 892,
      "ĠAl": 893,
      "ange": 894,
      "omet": 895,
      "tern": 896,
      "arn": 897,
      "Ġmake": 898,
      "Ġfin": 899,
      "Ġfun": 900,
      "Ġsur": 901,
      "Ġwant": 902,
      "ps": 903,
      "Ġ5": 904,
      "irl": 905,
      "Ġval": 906,
      "Ġreg": 907,
      "arri": 908,
      "Ġpol": 909,
      "Ġwr": 910,
      "Ġday": 911,
      "ey": 912,
      "ual": 913,
      "ited": 914,
      "Ġour": 915,
      "Ġeven": 916,
      "Ġyoung": 917,
      "ince": 918,
      "Ġbetween": 919,
      "ible": 920,
      "clud": 921,
      "ss": 922,
      "Ġlittle": 923,
      "Ġmost": 924,
      "ĠSc": 925,
      "ident": 926,
      "ĠThey": 927,
      "Ġsame": 928,
      "Ġtri": 929,
      "Ġbel": 930,
      "ures": 931,
      "orn": 932,
      "Ġ$$": 933,
      "Ġexp": 934,
      "te": 935,
      "xt": 936,
      "Ġ[": 937,
      "Ġ*": 938,
      "Ġdet": 939,
      "Ġfam": 940,
      "Ġevery": 941,
      "Ġchild": 942,
      "ting": 943,
      "Ġpres": 944,
      "Ġupon": 945,
      "ata": 946,
      "ular": 947,
      "Ġmuch": 948,
      "ee": 949,
      "ady": 950,
      "200": 951,
      "aving": 952,
      "Ġinst": 953,
      "Ġhimself": 954,
      "oh": 955,
      "ier": 956,
      "Ġem": 957,
      "ĠAnd": 958,
      "Ġgood": 959,
      "Ġdef": 960,
      "right": 961,
      "ubl": 962,
      "Ġhel": 963,
      "up": 964,
      "Ġdirect": 965,
      "of": 966,
      "Ġmany": 967,
      "Ġeach": 968,
      "Ġhouse": 969,
      "Ġwom": 970,
      "Ġgreat": 971,
      "ution": 972,
      "Ġmust": 973,
      "alk": 974,
      "az": 975,
      "ext": 976,
      "Ġ&": 977,
      "Ġmat": 978,
      "Ġmen": 979,
      "Ġyears": 980,
      "eld": 981,
      "Ġop": 982,
      "to": 983,
      "Ġ<": 984,
      "Ġed": 985,
      "esc": 986,
      "eg": 987,
      "Ġused": 988,
      "ues": 989,
      "ork": 990,
      "Ġrun": 991,
      "ĠSh": 992,
      "Ġpass": 993,
      "ative": 994,
      "ts": 995,
      "Ġsim": 996,
      "ets": 997,
      "ually": 998,
      "io": 999,
      "Ġturn": 1000,
      "Ġpoint": 1001,
      "Ġtake": 1002,
      "Ġreal": 1003,
      "Ġ+": 1004,
      "Ġpeople": 1005,
      "pr": 1006,
      "imes": 1007,
      "stem": 1008,
      "sh": 1009,
      "Ġgirl": 1010,
      "Ġmet": 1011,
      "Ġcr": 1012,
      "Ġgener": 1013,
      "ote": 1014,
      "com": 1015,
      "Ġadd": 1016,
      "ined": 1017,
      "_{": 1018,
      "Ġfound": 1019,
      "Ġboth": 1020,
      "ific": 1021,
      "ĠMar": 1022,
      "iew": 1023,
      "Ġfunction": 1024,
      "put": 1025,
      "ner": 1026,
      "ĠWhen": 1027,
      "fer": 1028,
      "Ġsay": 1029,
      "ash": 1030,
      "Ġhead": 1031,
      "amp": 1032,
      "ale": 1033,
      "Ġthree": 1034,
      "Ġhome": 1035,
      "chool": 1036,
      "Ġsupp": 1037,
      "ah": 1038,
      "Ġbu": 1039,
      "Ġstud": 1040,
      "sw": 1041,
      "Ġbecause": 1042,
      "ved": 1043,
      "feren": 1044,
      "arl": 1045,
      "ides": 1046,
      "ower": 1047,
      "ĠX": 1048,
      "ican": 1049,
      "Ġfr": 1050,
      "ational": 1051,
      "arr": 1052,
      "code": 1053,
      "Ġspec": 1054,
      "Ġnever": 1055,
      "Ġaway": 1056,
      "Ġdev": 1057,
      "Ġstart": 1058,
      "ature": 1059,
      "ted": 1060,
      "Ġloc": 1061,
      "Ġcur": 1062,
      "Ġlast": 1063,
      "Ġequ": 1064,
      "//": 1065,
      "ared": 1066,
      "Ġinclud": 1067,
      "HE": 1068,
      "oot": 1069,
      "Ġanother": 1070,
      "Ġexam": 1071,
      "Ġlove": 1072,
      "Ġgl": 1073,
      "Ġappe": 1074,
      "ĠHow": 1075,
      "HA": 1076,
      "duc": 1077,
      "ĠCom": 1078,
      "Ġlet": 1079,
      "ĠFor": 1080,
      "Ġdr": 1081,
      "ains": 1082,
      "}}": 1083,
      "ck": 1084,
      "...": 1085,
      "Ġstill": 1086,
      "uth": 1087,
      "Ġseem": 1088,
      "ize": 1089,
      "ished": 1090,
      "Ġneed": 1091,
      "Ġcount": 1092,
      "ments": 1093,
      "eng": 1094,
      "ms": 1095,
      "Ġinc": 1096,
      "Ġcome": 1097,
      "Ġsl": 1098,
      "Ġmother": 1099,
      "ane": 1100,
      "less": 1101,
      "::": 1102,
      "Ġthink": 1103,
      "?âĢĿ": 1104,
      "10": 1105,
      "ities": 1106,
      "ann": 1107,
      "oun": 1108,
      "Ġins": 1109,
      "ody": 1110,
      "Ġcor": 1111,
      "Ġpers": 1112,
      "ĠCl": 1113,
      "ley": 1114,
      "Ġplay": 1115,
      "tr": 1116,
      "ield": 1117,
      "Ġ6": 1118,
      "ross": 1119,
      "ĠWe": 1120,
      "Ġhelp": 1121,
      "olog": 1122,
      "ying": 1123,
      "Ġnumber": 1124,
      "âĢĵ": 1125,
      "Ġnight": 1126,
      "ames": 1127,
      "dd": 1128,
      "Ġexpl": 1129,
      "Ġhigh": 1130,
      "ility": 1131,
      "Ġconf": 1132,
      "ages": 1133,
      "Ġart": 1134,
      "Ġgu": 1135,
      "Ġusing": 1136,
      "Ġey": 1137,
      "enc": 1138,
      "by": 1139,
      "Ġworld": 1140,
      "Ġmak": 1141,
      "Ġtoo": 1142,
      "Ġread": 1143,
      "att": 1144,
      "Ġ7": 1145,
      "ript": 1146,
      "Ġcar": 1147,
      "wh": 1148,
      "Ġbre": 1149,
      "ines": 1150,
      "Ġmon": 1151,
      "ton": 1152,
      "ists": 1153,
      "ator": 1154,
      "Ġwithout": 1155,
      "Ġser": 1156,
      "TER": 1157,
      ",\"": 1158,
      "und": 1159,
      "oup": 1160,
      "II": 1161,
      "ef": 1162,
      "Ġgiv": 1163,
      "riv": 1164,
      "ĠEng": 1165,
      "Ġeff": 1166,
      "empt": 1167,
      "Ġmight": 1168,
      "ĠThere": 1169,
      ".,": 1170,
      "ĠTr": 1171,
      "uck": 1172,
      "Ġfamily": 1173,
      "Ġshow": 1174,
      "Ġcour": 1175,
      "ruct": 1176,
      "ened": 1177,
      "()": 1178,
      "ĠAfter": 1179,
      "gg": 1180,
      "my": 1181,
      "Ġthose": 1182,
      "Ġ18": 1183,
      "aj": 1184,
      "ĠBr": 1185,
      "arm": 1186,
      "Ġfact": 1187,
      "Ġright": 1188,
      "Ġ{": 1189,
      "Ġcap": 1190,
      "ired": 1191,
      "ĠGr": 1192,
      "Ġmin": 1193,
      "ivers": 1194,
      "Ġsomet": 1195,
      "ferent": 1196,
      "ience": 1197,
      "Ġlar": 1198,
      "ĠAt": 1199,
      "Ġfilms": 1200,
      "ohn": 1201,
      "Ġsmall": 1202,
      "ĠĠĠĠĠĠĠĠ": 1203,
      "Ġsystem": 1204,
      "Ġhapp": 1205,
      "Ġcomple": 1206,
      "ĠFr": 1207,
      "ĠNew": 1208,
      "ute": 1209,
      "Ġcame": 1210,
      "left": 1211,
      "Ġresult": 1212,
      "iet": 1213,
      "Ġbo": 1214,
      "Ġfall": 1215,
      "not": 1216,
      "Ġname": 1217,
      "Ġke": 1218,
      "Ġmem": 1219,
      "Ġlater": 1220,
      "ling": 1221,
      "over": 1222,
      "Ġposs": 1223,
      "Ġ$\\": 1224,
      "ĠQ": 1225,
      "}$": 1226,
      "Ġschool": 1227,
      "Ġplace": 1228,
      "ĠPr": 1229,
      "Ġx": 1230,
      "ized": 1231,
      "Ġboy": 1232,
      "vent": 1233,
      "ĠZ": 1234,
      "Ġconst": 1235,
      "ister": 1236,
      "Ġlead": 1237,
      "Ġcalled": 1238,
      "Ġduring": 1239,
      "ery": 1240,
      "arly": 1241,
      "here": 1242,
      "ĠWh": 1243,
      "Ġsol": 1244,
      "Ġche": 1245,
      "Th": 1246,
      "Ġleft": 1247,
      "ern": 1248,
      "math": 1249,
      "Ġph": 1250,
      "ma": 1251,
      "augh": 1252,
      "Ġhere": 1253,
      "Ġhor": 1254,
      "ric": 1255,
      "Ġvis": 1256,
      "estion": 1257,
      "ublic": 1258,
      "Ġcre": 1259,
      "ĠPro": 1260,
      "ison": 1261,
      "Ġdata": 1262,
      "\",": 1263,
      "bers": 1264,
      "ĠOn": 1265,
      "Ġword": 1266,
      "Ġcharac": 1267,
      "Ġput": 1268,
      "20": 1269,
      "Ġask": 1270,
      "Ġprov": 1271,
      "HAP": 1272,
      "ĠAmer": 1273,
      "201": 1274,
      "ering": 1275,
      "Ġunt": 1276,
      "osed": 1277,
      "HAPTER": 1278,
      "any": 1279,
      "ĠYou": 1280,
      "pend": 1281,
      "ĠJohn": 1282,
      "plic": 1283,
      "oney": 1284,
      "Ġty": 1285,
      "Ġline": 1286,
      "ON": 1287,
      "Ġthought": 1288,
      "con": 1289,
      "Ġdifferent": 1290,
      "ately": 1291,
      "gy": 1292,
      "ertain": 1293,
      "iles": 1294,
      "pre": 1295,
      "Ġref": 1296,
      "be": 1297,
      "Ġsecond": 1298,
      "Ġoper": 1299,
      "}{": 1300,
      "Ġserv": 1301,
      "Ġvari": 1302,
      "Ġpar": 1303,
      "Ġroom": 1304,
      "Ġ10": 1305,
      "}\\": 1306,
      "amed": 1307,
      "Ġdon": 1308,
      "rap": 1309,
      "Ġ8": 1310,
      "Ġagainst": 1311,
      "Ġsing": 1312,
      "atic": 1313,
      "Ġstre": 1314,
      "ways": 1315,
      "ived": 1316,
      "Ġsign": 1317,
      "ĠInd": 1318,
      "br": 1319,
      "sc": 1320,
      "thing": 1321,
      "wards": 1322,
      "aps": 1323,
      "Ġbeh": 1324,
      "Ġattack": 1325,
      "Ġthough": 1326,
      "Ġstand": 1327,
      "Ġcent": 1328,
      "ury": 1329,
      "',": 1330,
      "Ġnext": 1331,
      "Ġclass": 1332,
      "ape": 1333,
      "Ġansw": 1334,
      "Ġcontin": 1335,
      "frac": 1336,
      "ead": 1337,
      "Ġsw": 1338,
      "Ġdeath": 1339,
      "orm": 1340,
      "ott": 1341,
      "ĠIf": 1342,
      "Ġtells": 1343,
      "Ġstate": 1344,
      "Ġinf": 1345,
      "âĪ": 1346,
      "Ġel": 1347,
      "aves": 1348,
      "ai": 1349,
      "Ġrev": 1350,
      "Ġgiven": 1351,
      "ene": 1352,
      "ĠTHE": 1353,
      "Ġwoman": 1354,
      "iness": 1355,
      "ĠHis": 1356,
      "Ġocc": 1357,
      "Ġext": 1358,
      "Ġbelie": 1359,
      "ason": 1360,
      "erest": 1361,
      "Ġhum": 1362,
      "###": 1363,
      "inc": 1364,
      "Ġhaving": 1365,
      "ised": 1366,
      "usb": 1367,
      "Ġonce": 1368,
      "itle": 1369,
      "Ġfew": 1370,
      "Ġbook": 1371,
      "eter": 1372,
      "Ġwife": 1373,
      "vert": 1374,
      "hip": 1375,
      "Ġappro": 1376,
      "oon": 1377,
      "err": 1378,
      ");": 1379,
      "12": 1380,
      "arch": 1381,
      "son": 1382,
      "!âĢĿ": 1383,
      "aus": 1384,
      "Ġsince": 1385,
      "atch": 1386,
      "VE": 1387,
      "Ġest": 1388,
      "Ġfollowing": 1389,
      "IN": 1390,
      "lish": 1391,
      "ĠCHAPTER": 1392,
      "thon": 1393,
      "Ġorder": 1394,
      "hod": 1395,
      "Ġuntil": 1396,
      "par": 1397,
      "ently": 1398,
      "ctions": 1399,
      "Ġson": 1400,
      "Ġgoing": 1401,
      "Ġthings": 1402,
      "Ġstory": 1403,
      "ither": 1404,
      "Ġinform": 1405,
      "Ġ199": 1406,
      "--": 1407,
      "Ġmus": 1408,
      "Ġwent": 1409,
      "ural": 1410,
      "Ġeyes": 1411,
      "Ġlight": 1412,
      "ĠHowever": 1413,
      "Ġmarri": 1414,
      "Ġ9": 1415,
      "ained": 1416,
      "\".": 1417,
      "ke": 1418,
      "ism": 1419,
      "Ġface": 1420,
      "ctor": 1421,
      "Ġgroup": 1422,
      "Ġattempt": 1423,
      "Ġfile": 1424,
      "cul": 1425,
      "Ġesc": 1426,
      "Ġlist": 1427,
      "Ġele": 1428,
      "Ġcase": 1429,
      "^{": 1430,
      "Ġexample": 1431,
      "__": 1432,
      "Ġwater": 1433,
      "ĠDe": 1434,
      "Ġaround": 1435,
      "Ġz": 1436,
      "Ġcle": 1437,
      "inal": 1438,
      "ices": 1439,
      "ants": 1440,
      "rent": 1441,
      "Ġmoney": 1442,
      "aster": 1443,
      "mb": 1444,
      "iam": 1445,
      "Ġpartic": 1446,
      "ĠCon": 1447,
      "alf": 1448,
      "Ġtakes": 1449,
      "ĠĠĠ": 1450,
      "ument": 1451,
      "Ġcare": 1452,
      "aces": 1453,
      "ĠSe": 1454,
      "port": 1455,
      "Ġgre": 1456,
      "aut": 1457,
      "Ġaff": 1458,
      "aly": 1459,
      "Ġgive": 1460,
      "Ġrequ": 1461,
      "Ġdel": 1462,
      "ster": 1463,
      "://": 1464,
      "arry": 1465,
      "ung": 1466,
      "ially": 1467,
      "ision": 1468,
      "ital": 1469,
      "Ġchildren": 1470,
      "ured": 1471,
      "gram": 1472,
      "iversity": 1473,
      "Ġpower": 1474,
      "Ġsays": 1475,
      "Ġbus": 1476,
      "Ġpath": 1477,
      "Ġopen": 1478,
      "uss": 1479,
      "Ġalways": 1480,
      "Ġvalue": 1481,
      "elop": 1482,
      "Ġsomething": 1483,
      "ional": 1484,
      "Ġmean": 1485,
      "Ġgoes": 1486,
      "ccess": 1487,
      "hem": 1488,
      "Ġalong": 1489,
      "outh": 1490,
      "Ġrest": 1491,
      "Ġpur": 1492,
      "ral": 1493,
      "Ġwind": 1494,
      "enn": 1495,
      "Ġproble": 1496,
      "SS": 1497,
      "Ġinterest": 1498,
      "Ġ20": 1499,
      "oint": 1500,
      "ically": 1501,
      "Ġknown": 1502,
      "Ġfour": 1503,
      "Ġprocess": 1504,
      "arent": 1505,
      "ython": 1506,
      "aughter": 1507,
      "Ġtown": 1508,
      "ĠIs": 1509,
      "ots": 1510,
      "ĠCol": 1511,
      "Ġide": 1512,
      "ĠDr": 1513,
      "most": 1514,
      "Ġperson": 1515,
      "bl": 1516,
      "Ġmeet": 1517,
      "Ġpresent": 1518,
      "Ġland": 1519,
      "Ġrece": 1520,
      "Ġadv": 1521,
      "Ġfinds": 1522,
      "ense": 1523,
      "Ġdem": 1524,
      "Ġever": 1525,
      "ified": 1526,
      "Ġbrother": 1527,
      "ĠTo": 1528,
      "Ġpop": 1529,
      "Ġconsid": 1530,
      "ope": 1531,
      "Ġcal": 1532,
      "Ġsoon": 1533,
      "gan": 1534,
      "Ġside": 1535,
      "18": 1536,
      "It": 1537,
      "elt": 1538,
      "Ġsk": 1539,
      "hys": 1540,
      "Ġbest": 1541,
      "duct": 1542,
      "ats": 1543,
      "ĠThen": 1544,
      "ÂłÂłÂłÂł": 1545,
      "med": 1546,
      "ron": 1547,
      "Ġfore": 1548,
      "Ġmor": 1549,
      "rol": 1550,
      "Ġreve": 1551,
      "ĠAd": 1552,
      "Ġlearn": 1553,
      "Ġfar": 1554,
      "Ġprom": 1555,
      "Ġmom": 1556,
      "**": 1557,
      "stand": 1558,
      "idd": 1559,
      "Ġmain": 1560,
      "Ġvo": 1561,
      "Ġpos": 1562,
      "Ġheart": 1563,
      "ization": 1564,
      "arth": 1565,
      "bert": 1566,
      "Ġtoget": 1567,
      "Ġtogether": 1568,
      "Ġbecom": 1569,
      "li": 1570,
      "Ġmind": 1571,
      "Ġexper": 1572,
      "Ġhowever": 1573,
      "Ġkeep": 1574,
      "irc": 1575,
      "Ġlocal": 1576,
      "aid": 1577,
      "11": 1578,
      "Ġ|": 1579,
      "Ġcomes": 1580,
      "ression": 1581,
      "ced": 1582,
      "ert": 1583,
      "chn": 1584,
      "ĠRe": 1585,
      "Ġfriends": 1586,
      "Ġbetter": 1587,
      "Ex": 1588,
      "itions": 1589,
      "Ġperform": 1590,
      "Ġtook": 1591,
      "Ġrele": 1592,
      "duction": 1593,
      "side": 1594,
      "Ġdays": 1595,
      "Ġshall": 1596,
      "ait": 1597,
      "ean": 1598,
      "ention": 1599,
      "ĠPh": 1600,
      "angu": 1601,
      "ĠCan": 1602,
      "Ġdesc": 1603,
      "Ġdeterm": 1604,
      "min": 1605,
      "ians": 1606,
      "ole": 1607,
      "ases": 1608,
      "Ġbreak": 1609,
      "ĠSp": 1610,
      "play": 1611,
      "iqu": 1612,
      "OR": 1613,
      "ven": 1614,
      "Ġless": 1615,
      "Ġnothing": 1616,
      "ference": 1617,
      "aining": 1618,
      "Ġorig": 1619,
      "ĠEx": 1620,
      "ĠMrs": 1621,
      "ĠTom": 1622,
      "Ġbro": 1623,
      "ĠBl": 1624,
      "line": 1625,
      "ipp": 1626,
      "Ġprop": 1627,
      "ĠAmerican": 1628,
      "000": 1629,
      "Ġmethod": 1630,
      "iving": 1631,
      "Ġyet": 1632,
      "Ġdri": 1633,
      "ina": 1634,
      "ided": 1635,
      "ably": 1636,
      "Ġseen": 1637,
      "Ġhard": 1638,
      "use": 1639,
      "Ġple": 1640,
      "Ġcharacter": 1641,
      "ox": 1642,
      "Ġsent": 1643,
      "ĠBe": 1644,
      "You": 1645,
      "rop": 1646,
      "Ġarri": 1647,
      "Ġimport": 1648,
      "))": 1649,
      "ged": 1650,
      "Ġlarge": 1651,
      "aim": 1652,
      "ger": 1653,
      "rist": 1654,
      "Ġ12": 1655,
      "ude": 1656,
      "inks": 1657,
      "Ġterm": 1658,
      "read": 1659,
      "Ġwhom": 1660,
      "Ġ:": 1661,
      "Ġenough": 1662,
      "ten": 1663,
      "Ġsupport": 1664,
      "ges": 1665,
      "ĠâĢĺ": 1666,
      "Ġfield": 1667,
      "Ġcountry": 1668,
      "Ġlab": 1669,
      "sy": 1670,
      "orth": 1671,
      "Ġcourse": 1672,
      "iver": 1673,
      "Ġstop": 1674,
      "Ġshort": 1675,
      "Ġsil": 1676,
      "Ġfire": 1677,
      "Ġcertain": 1678,
      "aring": 1679,
      "An": 1680,
      "ffic": 1681,
      "lo": 1682,
      "Ġthing": 1683,
      "raw": 1684,
      "Ġdevelop": 1685,
      "Ġfeel": 1686,
      "Ġevent": 1687,
      "St": 1688,
      "ird": 1689,
      "Ġste": 1690,
      "amb": 1691,
      "yle": 1692,
      "Ġdaughter": 1693,
      "text": 1694,
      "Ġbased": 1695,
      "Ġeng": 1696,
      "Ġwar": 1697,
      "Ġgot": 1698,
      "ively": 1699,
      "ring": 1700,
      "ĠGe": 1701,
      "vious": 1702,
      "Ġquestion": 1703,
      "work": 1704,
      "ĠSo": 1705,
      "Re": 1706,
      "ograp": 1707,
      "Ġdoor": 1708,
      "Ġkind": 1709,
      "Ġmodel": 1710,
      "Ġfull": 1711,
      "Ġtop": 1712,
      "Ġmult": 1713,
      "ĠAll": 1714,
      "ream": 1715,
      "Ġhist": 1716,
      "Ġsever": 1717,
      "Ġwhose": 1718,
      "Ġhalf": 1719,
      "199": 1720,
      "ember": 1721,
      "oud": 1722,
      "ability": 1723,
      "14": 1724,
      "Ġgets": 1725,
      "Ġeffect": 1726,
      "day": 1727,
      "Ġsuccess": 1728,
      "He": 1729,
      "bs": 1730,
      "tp": 1731,
      "Ġbecome": 1732,
      "Ġpolice": 1733,
      "su": 1734,
      "Ġmed": 1735,
      "elf": 1736,
      "ulation": 1737,
      "Ġmiss": 1738,
      "Ġleave": 1739,
      "ches": 1740,
      "though": 1741,
      "Ġbuild": 1742,
      "This": 1743,
      "AN": 1744,
      "Ġtalk": 1745,
      "ior": 1746,
      "AT": 1747,
      "Ġet": 1748,
      "Ġrather": 1749,
      "Ġdep": 1750,
      "ek": 1751,
      "Ġtem": 1752,
      "Ġfell": 1753,
      "Ġblack": 1754,
      "resent": 1755,
      "Ġallow": 1756,
      "AR": 1757,
      "pro": 1758,
      "let": 1759,
      "Ġair": 1760,
      "ences": 1761,
      "):": 1762,
      "ances": 1763,
      "Ġmag": 1764,
      "erman": 1765,
      "ival": 1766,
      "Ġarr": 1767,
      "rm": 1768,
      "Ġprof": 1769,
      "Ġnamed": 1770,
      "vern": 1771,
      "50": 1772,
      "Ġprogram": 1773,
      "Ġi": 1774,
      "Ġseveral": 1775,
      "Ġtold": 1776,
      "Ġabove": 1777,
      "yn": 1778,
      "Ġmur": 1779,
      "orld": 1780,
      "Ġhands": 1781,
      "And": 1782,
      "Ġsoc": 1783,
      "Ġlib": 1784,
      "ĠOne": 1785,
      "that": 1786,
      "Ġmov": 1787,
      "Ġkilled": 1788,
      "Ġwomen": 1789,
      "ferences": 1790,
      "face": 1791,
      "Ġhold": 1792,
      "ĠLe": 1793,
      "ĠWith": 1794,
      "Ġwrit": 1795,
      "Ġreally": 1796,
      "ceed": 1797,
      "Ġoffic": 1798,
      "rel": 1799,
      "ched": 1800,
      "Ġeas": 1801,
      "Ġenc": 1802,
      "Ġinde": 1803,
      "Ġincluding": 1804,
      "org": 1805,
      "ength": 1806,
      "Ġfight": 1807,
      "rees": 1808,
      "Ġnon": 1809,
      "Ġelect": 1810,
      "val": 1811,
      "Ġamong": 1812,
      "Ġwithin": 1813,
      "Ġcond": 1814,
      "Ġsaw": 1815,
      "duced": 1816,
      "ology": 1817,
      "Ġmoment": 1818,
      "oub": 1819,
      "Ġwhole": 1820,
      "Ġnear": 1821,
      "ony": 1822,
      "itten": 1823,
      "oe": 1824,
      "ĠEd": 1825,
      "Ġplan": 1826,
      "Ġcode": 1827,
      "ract": 1828,
      "une": 1829,
      "EN": 1830,
      "Ġvill": 1831,
      "Ġmakes": 1832,
      "Ġtaken": 1833,
      ".</": 1834,
      "Ġav": 1835,
      "Ġpat": 1836,
      "ief": 1837,
      "selves": 1838,
      "Ġasked": 1839,
      "Ġsle": 1840,
      "alth": 1841,
      "Ġsat": 1842,
      "Ġbody": 1843,
      "Ġpost": 1844,
      "artment": 1845,
      "ressed": 1846,
      "Ġbegin": 1847,
      "Ġpublic": 1848,
      "Ġquite": 1849,
      "Ġtest": 1850,
      "Ġdone": 1851,
      "ĠMan": 1852,
      "ĠMiss": 1853,
      "Ġinformation": 1854,
      "Ġbecomes": 1855,
      "Ġcommand": 1856,
      "Ġcity": 1857,
      "Ġdiv": 1858,
      "Ġrad": 1859,
      "ĠYork": 1860,
      "ï¿": 1861,
      "Ġoften": 1862,
      "Ġobject": 1863,
      "Ġcurrent": 1864,
      "unt": 1865,
      "Ġdead": 1866,
      "Ġaut": 1867,
      "ask": 1868,
      "Ġparty": 1869,
      "ï¿½": 1870,
      "Ġchang": 1871,
      "ault": 1872,
      "aced": 1873,
      "ription": 1874,
      "Ġfail": 1875,
      "ories": 1876,
      "cle": 1877,
      "rew": 1878,
      "aper": 1879,
      "=\"": 1880,
      "sp": 1881,
      "Ġcannot": 1882,
      "ĠGod": 1883,
      ")$": 1884,
      "osp": 1885,
      "ney": 1886,
      "ĠUniversity": 1887,
      "Ġproper": 1888,
      "Ġconc": 1889,
      "ement": 1890,
      "Ġ16": 1891,
      "Ġbegins": 1892,
      "umb": 1893,
      "fully": 1894,
      "Ġalmost": 1895,
      "Ġaw": 1896,
      "reen": 1897,
      "Ġ198": 1898,
      "Ġve": 1899,
      "ĠThat": 1900,
      "ency": 1901,
      "}_{": 1902,
      "ination": 1903,
      "Ġopp": 1904,
      "Ġgeneral": 1905,
      "Ġmaking": 1906,
      "bit": 1907,
      "ĠAm": 1908,
      "Ġresp": 1909,
      "ĠMin": 1910,
      "Ġlim": 1911,
      "pec": 1912,
      "ored": 1913,
      "Ġrelations": 1914,
      "Ġtries": 1915,
      "Ġcalcul": 1916,
      "aul": 1917,
      "Ġfre": 1918,
      "ĠEnglish": 1919,
      "ises": 1920,
      "ouble": 1921,
      "Ġtheory": 1922,
      "Ġrepl": 1923,
      "ples": 1924,
      "ST": 1925,
      "Ġdest": 1926,
      "Ġcommon": 1927,
      "ĠQu": 1928,
      "Ġview": 1929,
      "Ġgovern": 1930,
      "ception": 1931,
      "Ġincre": 1932,
      "ĠNo": 1933,
      "Ġgrow": 1934,
      "Ġfur": 1935,
      "Ġstat": 1936,
      "Ġmusic": 1937,
      "ĠKing": 1938,
      "rary": 1939,
      "Ġobs": 1940,
      "ĠOr": 1941,
      "rem": 1942,
      "aph": 1943,
      "Ġblock": 1944,
      "Ġtype": 1945,
      "Ġ/": 1946,
      "Ġport": 1947,
      "Ġable": 1948,
      "Ġleaves": 1949,
      "erry": 1950,
      "Ġcaus": 1951,
      "Ġknew": 1952,
      "yl": 1953,
      "aged": 1954,
      "ĠĠĠĠĠĠĊ": 1955,
      "Ġbehind": 1956,
      "Ġbar": 1957,
      "ready": 1958,
      "ĠRo": 1959,
      "Ġpossible": 1960,
      "uff": 1961,
      "ips": 1962,
      "ĠCanad": 1963,
      "ising": 1964,
      "Ġhour": 1965,
      "oll": 1966,
      "Ġtrue": 1967,
      "Ġintro": 1968,
      "men": 1969,
      "Tr": 1970,
      "aint": 1971,
      "Ġchange": 1972,
      "ential": 1973,
      "Ġleast": 1974,
      "usband": 1975,
      "anguage": 1976,
      "af": 1977,
      "Ġcommun": 1978,
      "Ġaccept": 1979,
      "ĠWar": 1980,
      "Ġsn": 1981,
      "Ġkey": 1982,
      "Ġrecord": 1983,
      "Ġsecret": 1984,
      "Ġtimes": 1985,
      "ĠWhat": 1986,
      "orr": 1987,
      "ĠAb": 1988,
      "Ġlooked": 1989,
      "13": 1990,
      "egr": 1991,
      "Ġhuman": 1992,
      "with": 1993,
      "Ġwords": 1994,
      "orge": 1995,
      "Ġlay": 1996,
      "Ġ197": 1997,
      "16": 1998,
      "ended": 1999,
      "Ġarg": 2000,
      "ume": 2001,
      "Ġspeak": 2002,
      "Ġworks": 2003,
      "anger": 2004,
      "Ġsingle": 2005,
      "set": 2006,
      "isc": 2007,
      "Ġherself": 2008,
      "uthor": 2009,
      "de": 2010,
      "vel": 2011,
      "Ġgun": 2012,
      "aven": 2013,
      "Ġexpect": 2014,
      "Ġabs": 2015,
      "kn": 2016,
      "Ġgives": 2017,
      "ule": 2018,
      "Ġvert": 2019,
      "atter": 2020,
      "Ġacross": 2021,
      "ww": 2022,
      "Ġlaw": 2023,
      "aught": 2024,
      "Ġworking": 2025,
      "15": 2026,
      "ica": 2027,
      "Ġdiff": 2028,
      "Ġanswer": 2029,
      "mp": 2030,
      "ajor": 2031,
      "Ġsit": 2032,
      "utions": 2033,
      "Ġorgan": 2034,
      "Ġbecame": 2035,
      "Ġpolit": 2036,
      "Ġbusiness": 2037,
      "uro": 2038,
      "izes": 2039,
      "ref": 2040,
      "Ġsold": 2041,
      "ĠHer": 2042,
      "Ġstrong": 2043,
      "Ġri": 2044,
      "Ġstep": 2045,
      "Ġunderstand": 2046,
      "Ġill": 2047,
      "na": 2048,
      "Ġself": 2049,
      "ĠChrist": 2050,
      "Ġhy": 2051,
      "Ġhusband": 2052,
      "ara": 2053,
      "'ll": 2054,
      "Ġvers": 2055,
      "ÂłĊ": 2056,
      "?\"": 2057,
      "Ġpast": 2058,
      "Ġord": 2059,
      "Ġprob": 2060,
      "Ġlooking": 2061,
      "oke": 2062,
      "Ġpret": 2063,
      "nal": 2064,
      "Ġwin": 2065,
      "haps": 2066,
      "Ġparam": 2067,
      "igure": 2068,
      "Ġvol": 2069,
      "Ġinit": 2070,
      "Ġvar": 2071,
      "ĠGerman": 2072,
      "Ġbegan": 2073,
      "Ġlik": 2074,
      "Ġgave": 2075,
      "fort": 2076,
      "Ġsqu": 2077,
      "ĠWhile": 2078,
      "Ġlow": 2079,
      "iation": 2080,
      "ables": 2081,
      "Ġinvol": 2082,
      "where": 2083,
      "Ġpict": 2084,
      "Ġann": 2085,
      "ondon": 2086,
      "Ġdesign": 2087,
      "ternal": 2088,
      "Ġopt": 2089,
      "itted": 2090,
      "Ġwalk": 2091,
      "ĠMc": 2092,
      "Ġconv": 2093,
      "ush": 2094,
      "Ġdistrib": 2095,
      "LE": 2096,
      "lex": 2097,
      "Ġwhy": 2098,
      "Ġfinal": 2099,
      "ires": 2100,
      "itive": 2101,
      "Ġproblem": 2102,
      "time": 2103,
      "Ġbit": 2104,
      "Ġbeaut": 2105,
      "Ġappear": 2106,
      "ify": 2107,
      "ĠDon": 2108,
      "Ġsure": 2109,
      "Ġreturns": 2110,
      "22": 2111,
      "Ġfree": 2112,
      "Ġteam": 2113,
      "Ġrepresent": 2114,
      "achine": 2115,
      "Ġrespect": 2116,
      "We": 2117,
      "Ġalready": 2118,
      "Ġround": 2119,
      "Ġmeans": 2120,
      "ths": 2121,
      "ards": 2122,
      "Ġimage": 2123,
      "Ġmorning": 2124,
      "ler": 2125,
      "iction": 2126,
      "Ġwhite": 2127,
      "while": 2128,
      "Ġlive": 2129,
      "Ġothers": 2130,
      "Ġbrought": 2131,
      "ĠSam": 2132,
      "ĠUnited": 2133,
      "rect": 2134,
      "><": 2135,
      "ĠMay": 2136,
      "30": 2137,
      "Ġsum": 2138,
      "Ġreason": 2139,
      "Ġjo": 2140,
      "Film": 2141,
      "Ġ14": 2142,
      "apter": 2143,
      "ideo": 2144,
      "Ġadm": 2145,
      "],": 2146,
      "asure": 2147,
      "error": 2148,
      "ries": 2149,
      "ĠPar": 2150,
      "action": 2151,
      "Ġsix": 2152,
      "Ġ15": 2153,
      "ĠDav": 2154,
      "Ġexist": 2155,
      "Ġprot": 2156,
      "iron": 2157,
      "ĠBrit": 2158,
      "'m": 2159,
      "Ġphys": 2160,
      "Ġeither": 2161,
      "xtd": 2162,
      "Ġfil": 2163,
      "Ġmot": 2164,
      "Ġdescrib": 2165,
      "undred": 2166,
      "iety": 2167,
      "ium": 2168,
      "ving": 2169,
      "hel": 2170,
      "Ġbed": 2171,
      "Ġcreat": 2172,
      "Ġcirc": 2173,
      "ĠOF": 2174,
      "omb": 2175,
      "ĠComm": 2176,
      "friend": 2177,
      "sage": 2178,
      "rest": 2179,
      "ĠWorld": 2180,
      "Ġseries": 2181,
      "oo": 2182,
      "inary": 2183,
      "iter": 2184,
      "add": 2185,
      "Ġquick": 2186,
      "21": 2187,
      "attle": 2188,
      "But": 2189,
      "mber": 2190,
      "sis": 2191,
      "Ġang": 2192,
      "Ġexc": 2193,
      "Ġsugg": 2194,
      "Ġthemselves": 2195,
      "Title": 2196,
      "ality": 2197,
      "ĠEl": 2198,
      "Ġarea": 2199,
      "Ġtransfer": 2200,
      "Ġdue": 2201,
      "Ġearly": 2202,
      "ĠGu": 2203,
      "Ġident": 2204,
      "ones": 2205,
      "ĠFilm": 2206,
      "eb": 2207,
      "gor": 2208,
      "Ġbas": 2209,
      "Ġmove": 2210,
      "airs": 2211,
      "Ġdirectory": 2212,
      "oul": 2213,
      "Ch": 2214,
      "ael": 2215,
      "ĠMy": 2216,
      "ĠWill": 2217,
      "dden": 2218,
      "ram": 2219,
      "ocr": 2220,
      "Ġseemed": 2221,
      "Ġsuper": 2222,
      "25": 2223,
      "Ġtry": 2224,
      "Ġground": 2225,
      "gt": 2226,
      "Ġcolle": 2227,
      "oor": 2228,
      "Ġsus": 2229,
      "but": 2230,
      "iol": 2231,
      "ĠLondon": 2232,
      "ĠJack": 2233,
      "Ġbig": 2234,
      "Ġdark": 2235,
      "Ġpoor": 2236,
      "If": 2237,
      "Ġcomb": 2238,
      "rix": 2239,
      "iff": 2240,
      "ĠCal": 2241,
      "Ġstruct": 2242,
      "FS": 2243,
      "Ġmeets": 2244,
      "Ġasks": 2245,
      "Ġred": 2246,
      "ĠBy": 2247,
      "rupt": 2248,
      "ĠHar": 2249,
      "Ġhot": 2250,
      "ump": 2251,
      "Ġ196": 2252,
      "Ġspace": 2253,
      "net": 2254,
      "Ġ17": 2255,
      "Ġsudden": 2256,
      "ection": 2257,
      "go": 2258,
      "istic": 2259,
      "Ġclose": 2260,
      "Ġescape": 2261,
      "gs": 2262,
      "unk": 2263,
      "Ġshows": 2264,
      "Ġwhether": 2265,
      "Ġturned": 2266,
      "Ġcontinu": 2267,
      "itch": 2268,
      "Ġdeal": 2269,
      "Ġanything": 2270,
      "aff": 2271,
      "Ġfoot": 2272,
      "urch": 2273,
      "ried": 2274,
      "Ġvoice": 2275,
      "Ġsort": 2276,
      "Ġheld": 2277,
      "Ġscene": 2278,
      "Ġmatter": 2279,
      "Ġproject": 2280,
      "Ġfinally": 2281,
      "Ġdoc": 2282,
      "Ġshoot": 2283,
      "Ġener": 2284,
      "Ġfive": 2285,
      "oses": 2286,
      "Ġseems": 2287,
      "han": 2288,
      "olution": 2289,
      "ected": 2290,
      "iod": 2291,
      "acy": 2292,
      "Ġformer": 2293,
      "Ġwants": 2294,
      "Ġcop": 2295,
      "utes": 2296,
      "http": 2297,
      "usion": 2298,
      "itting": 2299,
      "Ġprevious": 2300,
      "Ġparticular": 2301,
      "back": 2302,
      "Ġvalues": 2303,
      "Ġtable": 2304,
      "Ġsend": 2305,
      "ĠEn": 2306,
      "Ġpoints": 2307,
      "Ġnat": 2308,
      "antly": 2309,
      "Ġdecides": 2310,
      "Ġwait": 2311,
      "iment": 2312,
      "Ġruns": 2313,
      "Ġfront": 2314,
      "uk": 2315,
      "ĠMart": 2316,
      "ource": 2317,
      "Ġrelationship": 2318,
      "(\\": 2319,
      "Ġden": 2320,
      "eth": 2321,
      "Ġtrav": 2322,
      "head": 2323,
      "Ġcut": 2324,
      "istr": 2325,
      "ached": 2326,
      "What": 2327,
      "Ġshot": 2328,
      "Ġ#": 2329,
      "IS": 2330,
      "Ġcrit": 2331,
      "roy": 2332,
      "Ġidea": 2333,
      "Ġbur": 2334,
      "ilt": 2335,
      "Ġwritten": 2336,
      "escription": 2337,
      "Ġexec": 2338,
      "')": 2339,
      "Ġdoesn": 2340,
      "like": 2341,
      "erc": 2342,
      "Ġhig": 2343,
      "room": 2344,
      "ĠPart": 2345,
      "Ġnoise": 2346,
      "Ġsuggest": 2347,
      "></": 2348,
      "Ġsound": 2349,
      "Ġsize": 2350,
      "iful": 2351,
      "Ġ13": 2352,
      "....": 2353,
      "Ġcontrol": 2354,
      "Ġanaly": 2355,
      "ĠStates": 2356,
      "Ġprison": 2357,
      "Ġcarri": 2358,
      "aled": 2359,
      "ĠAng": 2360,
      "Ġ$$\\": 2361,
      "Ġfalls": 2362,
      "Ġoriginal": 2363,
      "ording": 2364,
      "17": 2365,
      "hood": 2366,
      "ining": 2367,
      "Ġheard": 2368,
      "idence": 2369,
      "ĠJan": 2370,
      "Ġallows": 2371,
      "Ġinvest": 2372,
      "Ġlost": 2373,
      "Ġinstead": 2374,
      "Ġparent": 2375,
      "####": 2376,
      "ilar": 2377,
      "Ġshown": 2378,
      "Ġplot": 2379,
      "ĠGeorge": 2380,
      "ĠâĢĶ": 2381,
      "Ġfollows": 2382,
      "Ġband": 2383,
      "ĠPol": 2384,
      "ta": 2385,
      "ĠLa": 2386,
      "plt": 2387,
      "ĠPaul": 2388,
      "che": 2389,
      "},": 2390,
      "Ġmovie": 2391,
      "Ġmark": 2392,
      "Ġinput": 2393,
      "Ġage": 2394,
      "Ġwond": 2395,
      "Ġcou": 2396,
      "icult": 2397,
      "lu": 2398,
      "Ġreport": 2399,
      "Ġsleep": 2400,
      "ny": 2401,
      "ilit": 2402,
      "por": 2403,
      "Ġsister": 2404,
      "ĠSu": 2405,
      "Ġresults": 2406,
      "Ġmarried": 2407,
      "Ġgovernment": 2408,
      "me": 2409,
      "medi": 2410,
      "Ġ11": 2411,
      "RE": 2412,
      "omin": 2413,
      "Ġlate": 2414,
      "ogn": 2415,
      "Ġvia": 2416,
      "Ġends": 2417,
      "Ġbelieve": 2418,
      "Ġvarious": 2419,
      "iber": 2420,
      "Ġant": 2421,
      "Ġxtd": 2422,
      "Ġled": 2423,
      "Ġcomput": 2424,
      "197": 2425,
      "Ġsepar": 2426,
      "itude": 2427,
      "irt": 2428,
      "Ġstring": 2429,
      "Ġestab": 2430,
      "bb": 2431,
      "co": 2432,
      "ze": 2433,
      "Ġhost": 2434,
      "Ġwon": 2435,
      "Ġentire": 2436,
      "Ġstri": 2437,
      "ledge": 2438,
      "da": 2439,
      "Ġsees": 2440,
      "Ġstarts": 2441,
      "References": 2442,
      "Ġvertical": 2443,
      "Ġâ": 2444,
      "iding": 2445,
      "Ġvideo": 2446,
      "Ġbring": 2447,
      "Ġpract": 2448,
      "Ġevents": 2449,
      "Ġaccess": 2450,
      "23": 2451,
      "Ġut": 2452,
      "ĠII": 2453,
      "Ġsun": 2454,
      "uses": 2455,
      "198": 2456,
      "âĢ²": 2457,
      "Ġelse": 2458,
      "ula": 2459,
      "ĠFrank": 2460,
      "ety": 2461,
      "ĠRep": 2462,
      "Ġtruth": 2463,
      "Ġcomplex": 2464,
      "('": 2465,
      "well": 2466,
      "Ġtrying": 2467,
      "Ġstates": 2468,
      "Ġclaim": 2469,
      "ĠAust": 2470,
      "used": 2471,
      "Ġapplic": 2472,
      "Ġenergy": 2473,
      "Description": 2474,
      "Ġlives": 2475,
      "resp": 2476,
      "Ġcho": 2477,
      "Ġintegr": 2478,
      "Ġdisco": 2479,
      "Ġpain": 2480,
      "lev": 2481,
      "Ġnames": 2482,
      "ĠTe": 2483,
      "imate": 2484,
      "ĠSy": 2485,
      "Ġalone": 2486,
      "Ġtaking": 2487,
      ")\\": 2488,
      "fect": 2489,
      "Ġdoub": 2490,
      "Ġitself": 2491,
      "ession": 2492,
      "24": 2493,
      "Ġauthor": 2494,
      "IT": 2495,
      "ĠÂł": 2496,
      "Ġtext": 2497,
      "ĠMat": 2498,
      "Ġship": 2499,
      "Ġdoing": 2500,
      "ission": 2501,
      "Ġwrite": 2502,
      "uly": 2503,
      "Ġmill": 2504,
      "ift": 2505,
      "itation": 2506,
      "Ġflow": 2507,
      "Ġgetting": 2508,
      "Ġturns": 2509,
      "Ġcapt": 2510,
      "Ġconsider": 2511,
      "direct": 2512,
      "Ġletter": 2513,
      "'ve": 2514,
      ",âĢĶ": 2515,
      "26": 2516,
      "entle": 2517,
      "ĠID": 2518,
      "path": 2519,
      "ĠRes": 2520,
      "There": 2521,
      "Ġobserv": 2522,
      "Films": 2523,
      "Con": 2524,
      "Ġfiles": 2525,
      "Ġpay": 2526,
      "Ġpack": 2527,
      "Ġdi": 2528,
      "ĠCar": 2529,
      "ichael": 2530,
      "Ġoccur": 2531,
      "For": 2532,
      "Ġliving": 2533,
      "roll": 2534,
      "ĠHol": 2535,
      "ĠTrans": 2536,
      "Ġcast": 2537,
      "akes": 2538,
      "istry": 2539,
      "Ġoutside": 2540,
      "ixed": 2541,
      "was": 2542,
      "ita": 2543,
      "Ġmass": 2544,
      "Ġlength": 2545,
      "Ġdeep": 2546,
      "Ġtechn": 2547,
      "dis": 2548,
      "Ġmis": 2549,
      "Ġsea": 2550,
      "Ġnor": 2551,
      "ivity": 2552,
      "Ġneg": 2553,
      "Ġra": 2554,
      "ager": 2555,
      "Ġsubject": 2556,
      "ĠBritish": 2557,
      "Ġdied": 2558,
      "ancy": 2559,
      "!\"": 2560,
      "plot": 2561,
      "ousand": 2562,
      "Ġgrad": 2563,
      "Ġcompany": 2564,
      ".)": 2565,
      "ales": 2566,
      "Ġheat": 2567,
      "Ġperiod": 2568,
      "Ġcell": 2569,
      "Ġsett": 2570,
      "rench": 2571,
      "Ġsong": 2572,
      "ĠAg": 2573,
      "ĠGl": 2574,
      "aterial": 2575,
      "ype": 2576,
      "stit": 2577,
      "enty": 2578,
      "imal": 2579,
      "chan": 2580,
      "ears": 2581,
      "Ġposition": 2582,
      "body": 2583,
      "Ġgang": 2584,
      "âĪĴ": 2585,
      "ares": 2586,
      "aries": 2587,
      "idge": 2588,
      "Ġjour": 2589,
      "fe": 2590,
      "lt": 2591,
      "Ġreturned": 2592,
      "ĠMean": 2593,
      "Ġsearch": 2594,
      "Ġjob": 2595,
      "iple": 2596,
      "Ġvillage": 2597,
      "ha": 2598,
      "oid": 2599,
      "era": 2600,
      "sequ": 2601,
      "Ġsuff": 2602,
      "Ġmembers": 2603,
      "ĠThese": 2604,
      "Ġhistory": 2605,
      "Ġhon": 2606,
      "ploy": 2607,
      "Ġwindow": 2608,
      "ighb": 2609,
      "atures": 2610,
      "Ġlinks": 2611,
      "emy": 2612,
      "Ġuses": 2613,
      "pendent": 2614,
      "Ġfurther": 2615,
      "Ġbad": 2616,
      "ĠEm": 2617,
      "Ġdraw": 2618,
      "Ġleaving": 2619,
      "IC": 2620,
      "cent": 2621,
      "lin": 2622,
      "Ġnumbers": 2623,
      "ĠEngland": 2624,
      "iers": 2625,
      "ero": 2626,
      "Ġpri": 2627,
      "ĠNow": 2628,
      "arrow": 2629,
      "Ġvisit": 2630,
      "ĠDavid": 2631,
      "Ġsimple": 2632,
      "Ġtyp": 2633,
      "Ġimportant": 2634,
      "Ġsimilar": 2635,
      "Ġhoriz": 2636,
      "gorith": 2637,
      "aun": 2638,
      "Ġcamp": 2639,
      "icle": 2640,
      "Ġgone": 2641,
      "Ġsave": 2642,
      "ama": 2643,
      "Ġregard": 2644,
      "Ġsens": 2645,
      "ĠBar": 2646,
      "cious": 2647,
      "off": 2648,
      "Ġmarry": 2649,
      "illed": 2650,
      "Ġgrand": 2651,
      "Ġpriv": 2652,
      "do": 2653,
      "Ġeventually": 2654,
      "ample": 2655,
      "Ġstay": 2656,
      "XX": 2657,
      "Ġlanguage": 2658,
      "ĠNot": 2659,
      "Ġeduc": 2660,
      "ius": 2661,
      "Ġhundred": 2662,
      "ingly": 2663,
      "Ġdecl": 2664,
      "Ġunit": 2665,
      "ĠSer": 2666,
      "Ġmist": 2667,
      "aking": 2668,
      "Ġsurv": 2669,
      "AC": 2670,
      "met": 2671,
      "Ġpie": 2672,
      "ĠSm": 2673,
      "Ġlog": 2674,
      "ĠPhil": 2675,
      "ospital": 2676,
      "40": 2677,
      "Ġaddition": 2678,
      "uation": 2679,
      "ford": 2680,
      "ED": 2681,
      "umn": 2682,
      "ĠLord": 2683,
      "Ġactually": 2684,
      "Qu": 2685,
      "Ġhope": 2686,
      "Ġmarriage": 2687,
      "Ġwid": 2688,
      "Ġbound": 2689,
      "Ġnet": 2690,
      "ĠCap": 2691,
      "ĠChapter": 2692,
      "Ġblood": 2693,
      "Ġspecial": 2694,
      "Ġcross": 2695,
      "ille": 2696,
      "Ġviol": 2697,
      "Ġdeg": 2698,
      "Ġoutput": 2699,
      "AL": 2700,
      "ening": 2701,
      "Ġoffice": 2702,
      "ontal": 2703,
      "Ġobtain": 2704,
      "Ġparents": 2705,
      "OU": 2706,
      "ously": 2707,
      "Ġbelow": 2708,
      "ivil": 2709,
      "'re": 2710,
      "ken": 2711,
      "Ġrese": 2712,
      "iddle": 2713,
      "Ġwood": 2714,
      "Ġpaper": 2715,
      "Ġaccount": 2716,
      "Ġpassed": 2717,
      "Pro": 2718,
      "ging": 2719,
      "Ġswe": 2720,
      "agon": 2721,
      "ĠMeanwhile": 2722,
      "mod": 2723,
      "Ġbir": 2724,
      "Ġearl": 2725,
      "Ġprint": 2726,
      "ming": 2727,
      "Ġfair": 2728,
      "anks": 2729,
      "ills": 2730,
      "Ġimag": 2731,
      "Ġsoft": 2732,
      "ĠChar": 2733,
      "ruction": 2734,
      "Ġcolor": 2735,
      "ators": 2736,
      "ĠHen": 2737,
      "izing": 2738,
      "Ġmyself": 2739,
      "inite": 2740,
      "ĠIr": 2741,
      "Ġstood": 2742,
      "Ġneighb": 2743,
      "Ġreleased": 2744,
      "Ġdifficult": 2745,
      "urope": 2746,
      "iated": 2747,
      "Ġpix": 2748,
      "Ġthus": 2749,
      "acher": 2750,
      "ĠDev": 2751,
      "Ġquant": 2752,
      "anced": 2753,
      "Ġservice": 2754,
      "That": 2755,
      "py": 2756,
      "Ġtowards": 2757,
      "ĠPer": 2758,
      "Ġbuilding": 2759,
      "hi": 2760,
      "reg": 2761,
      "Ġwall": 2762,
      "Ġthousand": 2763,
      "lying": 2764,
      "ique": 2765,
      "33": 2766,
      "ux": 2767,
      "}$$": 2768,
      "Ġspir": 2769,
      "To": 2770,
      "Ġgame": 2771,
      "Ġnecess": 2772,
      "ĠVal": 2773,
      "Ġeverything": 2774,
      "On": 2775,
      "ĠAlex": 2776,
      "ĠMichael": 2777,
      "Ġfav": 2778,
      "ustom": 2779,
      "Ġsaying": 2780,
      "Ġhorse": 2781,
      "Ġpopulation": 2782,
      "Ġwatch": 2783,
      "Ġperhaps": 2784,
      "Ġaud": 2785,
      "ĠDo": 2786,
      "erson": 2787,
      "29": 2788,
      "Â·": 2789,
      "ĠSec": 2790,
      "Ġproduct": 2791,
      "Ġclear": 2792,
      "27": 2793,
      "Ġslow": 2794,
      "Ġmount": 2795,
      "ĠSir": 2796,
      "ĠPython": 2797,
      "ĠJames": 2798,
      "Ġedge": 2799,
      "bed": 2800,
      "ĉĉ": 2801,
      "Ġten": 2802,
      "Ġheav": 2803,
      "Ġgentle": 2804,
      "ĠFirst": 2805,
      "osition": 2806,
      "mathrm": 2807,
      "itor": 2808,
      "Ġtrain": 2809,
      "Ġdiscuss": 2810,
      "Ġdream": 2811,
      "omp": 2812,
      "Ġstage": 2813,
      "Ġexact": 2814,
      "udge": 2815,
      "Ġstudy": 2816,
      "ounc": 2817,
      "Ġcentury": 2818,
      "(\"": 2819,
      "Al": 2820,
      "Ġpred": 2821,
      "Ġtrack": 2822,
      "Ġinclude": 2823,
      "AM": 2824,
      "Ġce": 2825,
      "ĠSte": 2826,
      "Ġrecogn": 2827,
      "inally": 2828,
      "Ġmar": 2829,
      "Ġdim": 2830,
      "iled": 2831,
      "ĠSouth": 2832,
      "Ġtemper": 2833,
      "Ġinvestig": 2834,
      "43": 2835,
      "Ġinn": 2836,
      "ĠInt": 2837,
      "Ġroad": 2838,
      "Ġsurpr": 2839,
      "CV": 2840,
      "Ġdesp": 2841,
      "respond": 2842,
      "Ġfelt": 2843,
      "Ġnature": 2844,
      "Ġalgorith": 2845,
      "Ġarrives": 2846,
      "Ġdire": 2847,
      "Ġgraph": 2848,
      "Ġmemory": 2849,
      "Ġattempts": 2850,
      "Ġversion": 2851,
      "Ġcoming": 2852,
      "=\\": 2853,
      "mu": 2854,
      "Ġimmedi": 2855,
      "raft": 2856,
      "Ġfollowed": 2857,
      "Ġstudents": 2858,
      "trans": 2859,
      "view": 2860,
      "you": 2861,
      "istory": 2862,
      "Ġknowledge": 2863,
      "Ġcheck": 2864,
      "Ġreveals": 2865,
      "Ġmere": 2866,
      "Ġmaterial": 2867,
      "ĠFrench": 2868,
      "ocks": 2869,
      "ground": 2870,
      "Ġsets": 2871,
      "Ġinside": 2872,
      "ĠMartin": 2873,
      "lim": 2874,
      "ply": 2875,
      "wo": 2876,
      "urg": 2877,
      "apan": 2878,
      "Ġarm": 2879,
      "rugg": 2880,
      "Ġcause": 2881,
      "Ġearth": 2882,
      "ĠCent": 2883,
      "Ġsex": 2884,
      "ounter": 2885,
      "OL": 2886,
      "âĢī": 2887,
      "style": 2888,
      "ĠScore": 2889,
      "ES": 2890,
      "Ġ%": 2891,
      "ett": 2892,
      "ĠCVE": 2893,
      "ĠWest": 2894,
      "ĠEurope": 2895,
      "hemat": 2896,
      "Ġpicture": 2897,
      "Ġbeautiful": 2898,
      "bra": 2899,
      "Ġtre": 2900,
      "sec": 2901,
      "ĠUS": 2902,
      "Ġlibusb": 2903,
      "bo": 2904,
      "uted": 2905,
      "ĠDes": 2906,
      "ĠGener": 2907,
      "duce": 2908,
      "Ġreceived": 2909,
      "$\\": 2910,
      "pon": 2911,
      "rite": 2912,
      "Ġ}": 2913,
      "Ġrole": 2914,
      "Ġacqu": 2915,
      "which": 2916,
      "Ġcharacters": 2917,
      "light": 2918,
      "ror": 2919,
      "what": 2920,
      "Ġcost": 2921,
      "Ġlot": 2922,
      "ĠSim": 2923,
      "Ġdog": 2924,
      "External": 2925,
      "$.": 2926,
      "gu": 2927,
      "Ġwild": 2928,
      "Ġgold": 2929,
      "Ġunc": 2930,
      "ishing": 2931,
      "front": 2932,
      "Ġengine": 2933,
      "ald": 2934,
      "ĠMe": 2935,
      "isk": 2936,
      "Ġfut": 2937,
      "Ġdro": 2938,
      "CVE": 2939,
      "ij": 2940,
      "Ġfigure": 2941,
      "Ġsuddenly": 2942,
      "ray": 2943,
      "Ġes": 2944,
      "aby": 2945,
      "ĠNe": 2946,
      "Ġtrad": 2947,
      "Ġassoc": 2948,
      "Ġadded": 2949,
      "known": 2950,
      "Cl": 2951,
      "anch": 2952,
      "Ġalthough": 2953,
      "Ġdear": 2954,
      "Ġclos": 2955,
      "apped": 2956,
      "icks": 2957,
      "Ġhop": 2958,
      "Ġhospital": 2959,
      "Ġmajor": 2960,
      "Ġstation": 2961,
      "hern": 2962,
      "ped": 2963,
      "ani": 2964,
      "urity": 2965,
      "Ġperfect": 2966,
      "Ġfunctions": 2967,
      "Ġcorrect": 2968,
      "CVSS": 2969,
      "Ġter": 2970,
      "inn": 2971,
      "ites": 2972,
      "ĠMus": 2973,
      "ĠLou": 2974,
      "ĠNorth": 2975,
      "iously": 2976,
      "mbol": 2977,
      "FT": 2978,
      "Ġcorrespond": 2979,
      "As": 2980,
      "Ġ...": 2981,
      "Ġforce": 2982,
      "ĠLee": 2983,
      "Ġequation": 2984,
      "dom": 2985,
      "Ġsense": 2986,
      "ĠDuring": 2987,
      "Ġweek": 2988,
      "Ġ--": 2989,
      "Ġaccident": 2990,
      "directory": 2991,
      "ET": 2992,
      "aling": 2993,
      "ĠCity": 2994,
      "estival": 2995,
      "Ġtransform": 2996,
      "Ġsurface": 2997,
      "ological": 2998,
      "Ġ)": 2999,
      "Ġiss": 3000,
      "ĠMa": 3001,
      "Ġwanted": 3002,
      "Ġphot": 3003,
      "Ġterms": 3004,
      "she": 3005,
      "Ġsir": 3006,
      "Ġrunning": 3007,
      "Ġlady": 3008,
      "ĠMac": 3009,
      "ivid": 3010,
      "agement": 3011,
      "Ġhappy": 3012,
      "Ġboys": 3013,
      "Ġhorizontal": 3014,
      "night": 3015,
      "Ġleg": 3016,
      "ĠCanada": 3017,
      "ĠAug": 3018,
      "ĠRich": 3019,
      "Ġremote": 3020,
      "fficient": 3021,
      "uments": 3022,
      "Ġsequ": 3023,
      "Ġfeet": 3024,
      "Ġmurder": 3025,
      "Ġthird": 3026,
      "imum": 3027,
      "oph": 3028,
      "Ġfellow": 3029,
      "aches": 3030,
      "ĠMary": 3031,
      "chie": 3032,
      "Ġkid": 3033,
      "ĠJim": 3034,
      "angle": 3035,
      "Ġavail": 3036,
      "viron": 3037,
      "apt": 3038,
      "Ġlooks": 3039,
      "Ġnatural": 3040,
      "Well": 3041,
      "inct": 3042,
      "resh": 3043,
      "Ġdetail": 3044,
      "col": 3045,
      "acing": 3046,
      "Ġexcept": 3047,
      "Ġcontains": 3048,
      "Ġwrong": 3049,
      "ormal": 3050,
      "Ar": 3051,
      "Ġpubl": 3052,
      "Ġnov": 3053,
      "udd": 3054,
      "Ġmanner": 3055,
      "Amer": 3056,
      "Ġcalls": 3057,
      "Ġappears": 3058,
      "Ġdestroy": 3059,
      "ham": 3060,
      "wise": 3061,
      "Ġcat": 3062,
      "alt": 3063,
      "Ġfort": 3064,
      "Ġvict": 3065,
      "estions": 3066,
      "Ġ25": 3067,
      "overed": 3068,
      "lected": 3069,
      "egin": 3070,
      "Ġdocument": 3071,
      "ilitary": 3072,
      "Oh": 3073,
      "house": 3074,
      "Ġep": 3075,
      "ament": 3076,
      "Ġgirls": 3077,
      "****": 3078,
      "Ġcouple": 3079,
      "rec": 3080,
      "Ġreview": 3081,
      "Ġescap": 3082,
      "45": 3083,
      "{{": 3084,
      "Ġdemand": 3085,
      "Ġquickly": 3086,
      "hand": 3087,
      "Ġmess": 3088,
      "Ġarch": 3089,
      "ification": 3090,
      "Ġvariable": 3091,
      "Ġindeed": 3092,
      "Ġautom": 3093,
      "Ġdoubt": 3094,
      "edy": 3095,
      "Ġder": 3096,
      "Ġrich": 3097,
      "Ġlonger": 3098,
      "So": 3099,
      "part": 3100,
      "ĠWind": 3101,
      "Ġrequest": 3102,
      "Ġpolitical": 3103,
      "Ġdiscovers": 3104,
      "28": 3105,
      "ese": 3106,
      "arget": 3107,
      "Ġrate": 3108,
      "Ġarrest": 3109,
      "igned": 3110,
      "ocked": 3111,
      "Ġeye": 3112,
      "ography": 3113,
      "Ġgen": 3114,
      "gebra": 3115,
      "ĠOct": 3116,
      "Ġevening": 3117,
      "Ġapproach": 3118,
      "Ġpretty": 3119,
      "ĠAustral": 3120,
      "Ġwat": 3121,
      "enge": 3122,
      "Ġdistance": 3123,
      "III": 3124,
      "ky": 3125,
      "ino": 3126,
      "Ġrange": 3127,
      "Ġemploy": 3128,
      "ship": 3129,
      "Ġfrequ": 3130,
      "Ġaction": 3131,
      "isf": 3132,
      "igma": 3133,
      "plied": 3134,
      "pecially": 3135,
      "AS": 3136,
      "Ġdin": 3137,
      "Ġhear": 3138,
      "ĠJul": 3139,
      "ustr": 3140,
      "Ġperm": 3141,
      "Ġbox": 3142,
      "Ġproblems": 3143,
      "Ġsocial": 3144,
      "Not": 3145,
      "ato": 3146,
      "verage": 3147,
      "ĠJapan": 3148,
      "Ġrock": 3149,
      "Ġindic": 3150,
      "Ġdidn": 3151,
      "Ġstreng": 3152,
      "\">": 3153,
      "ades": 3154,
      "olf": 3155,
      "levision": 3156,
      "At": 3157,
      "Ġmax": 3158,
      "Ġisland": 3159,
      "Ġstandard": 3160,
      "Ġdistribution": 3161,
      "How": 3162,
      "Ġwit": 3163,
      "ĠAN": 3164,
      "Ġinitial": 3165,
      "Ġhigher": 3166,
      "uel": 3167,
      "ĠFrom": 3168,
      "Ġking": 3169,
      "ĠWilliam": 3170,
      "39": 3171,
      "gin": 3172,
      "pen": 3173,
      "Ġhur": 3174,
      "Ġcoll": 3175,
      "Ġdirected": 3176,
      "conom": 3177,
      "rs": 3178,
      "Ġwish": 3179,
      "Ġhref": 3180,
      "Ġmaster": 3181,
      "eta": 3182,
      "ĠPe": 3183,
      "Ġconn": 3184,
      "ĠNational": 3185,
      "Ġsometimes": 3186,
      "oly": 3187,
      "rif": 3188,
      "Ġmechan": 3189,
      "Ġappeared": 3190,
      "Ġsolution": 3191,
      "Ġprofess": 3192,
      "Ġbott": 3193,
      "Ġwriting": 3194,
      "display": 3195,
      "Ġcorn": 3196,
      "Ġliter": 3197,
      "ĠHel": 3198,
      "Ġmodern": 3199,
      "illy": 3200,
      "elling": 3201,
      "ĠThom": 3202,
      "ministr": 3203,
      "No": 3204,
      "Ġfle": 3205,
      "Ġready": 3206,
      "Ġattract": 3207,
      "Ġexpression": 3208,
      "Ġemb": 3209,
      "Ġoperation": 3210,
      "Ġfilter": 3211,
      "Ġearlier": 3212,
      "bf": 3213,
      "ĠFl": 3214,
      "Ġkills": 3215,
      "Ġdetermined": 3216,
      "eters": 3217,
      "ads": 3218,
      "abel": 3219,
      "antic": 3220,
      "ounded": 3221,
      "Ġassist": 3222,
      "'d": 3223,
      "Ġtill": 3224,
      "Ġlevel": 3225,
      "American": 3226,
      "uz": 3227,
      "Ġlines": 3228,
      "rief": 3229,
      "andom": 3230,
      "ores": 3231,
      "class": 3232,
      "ĠMarch": 3233,
      "----": 3234,
      "Ġcondition": 3235,
      "ĠSoc": 3236,
      "ĠMed": 3237,
      "ptember": 3238,
      "plement": 3239,
      "RI": 3240,
      "iar": 3241,
      "ana": 3242,
      "Ġpot": 3243,
      "Ġreach": 3244,
      "ĠIm": 3245,
      "ĠBob": 3246,
      "appe": 3247,
      "ĠComp": 3248,
      "ĠAngel": 3249,
      "ague": 3250,
      "Ġworth": 3251,
      "Ġstrange": 3252,
      "ĠIndian": 3253,
      "RO": 3254,
      "uary": 3255,
      "Ġpress": 3256,
      "ĠJerry": 3257,
      "Ġknows": 3258,
      "Ġmonths": 3259,
      "Ġinflu": 3260,
      "Ġfuture": 3261,
      "iant": 3262,
      "}^": 3263,
      "Ġcold": 3264,
      "Ġconfront": 3265,
      "Ġprep": 3266,
      "05": 3267,
      "Yes": 3268,
      "wood": 3269,
      "Ġhair": 3270,
      "Ġresc": 3271,
      "Ġdiscover": 3272,
      "Wh": 3273,
      "Ġsight": 3274,
      "Ġmachine": 3275,
      "Ġpair": 3276,
      "Ġdig": 3277,
      "ĠIntern": 3278,
      "Ġstreet": 3279,
      "Ġways": 3280,
      "abb": 3281,
      "Ġdepend": 3282,
      "Ġimpro": 3283,
      "ii": 3284,
      "Ġcred": 3285,
      "ĠMax": 3286,
      "ĠCor": 3287,
      "Ġrom": 3288,
      "cont": 3289,
      "ware": 3290,
      "alse": 3291,
      "ĠĠĠĠĠĠĠĠĠ": 3292,
      "Ġstrugg": 3293,
      "Ġmeeting": 3294,
      "arc": 3295,
      "asing": 3296,
      "ĠNor": 3297,
      "Ġprinc": 3298,
      "32": 3299,
      "ients": 3300,
      "Ġinj": 3301,
      "asion": 3302,
      "Ġthreat": 3303,
      "urs": 3304,
      "ĠCo": 3305,
      "Ġdoctor": 3306,
      "Ġ2010": 3307,
      "Ġwonder": 3308,
      "ouncil": 3309,
      "_{\\": 3310,
      "ishes": 3311,
      "Ġfear": 3312,
      "oper": 3313,
      "Ġplane": 3314,
      "Ġparameter": 3315,
      "displaystyle": 3316,
      "uge": 3317,
      "oman": 3318,
      "ĠSol": 3319,
      "ĠHere": 3320,
      "elled": 3321,
      "swer": 3322,
      "Ġpopular": 3323,
      "46": 3324,
      "ball": 3325,
      "ym": 3326,
      "pped": 3327,
      "])": 3328,
      "Ġfine": 3329,
      "Ġtot": 3330,
      "ources": 3331,
      "Ġeffort": 3332,
      "ï¿½ï¿½": 3333,
      "ding": 3334,
      "aded": 3335,
      "ĠMad": 3336,
      "aker": 3337,
      "Ġwrote": 3338,
      "Ġsimply": 3339,
      "Ġbehav": 3340,
      "35": 3341,
      ":</": 3342,
      "begin": 3343,
      "from": 3344,
      "gen": 3345,
      "ĠSome": 3346,
      "ĠApr": 3347,
      "Ġrul": 3348,
      "ĠReg": 3349,
      "Ġchanges": 3350,
      "pg": 3351,
      "Ġpick": 3352,
      "Ġheight": 3353,
      "Ġhappened": 3354,
      "ĠPres": 3355,
      "Ġago": 3356,
      "Ġapartment": 3357,
      "Ġstarted": 3358,
      "Ġmeaning": 3359,
      "ya": 3360,
      "Ġht": 3361,
      "ĠSw": 3362,
      "vey": 3363,
      "ops": 3364,
      "Ġcompon": 3365,
      "THE": 3366,
      "Ġ>": 3367,
      "Ġox": 3368,
      "amma": 3369,
      "Ġchance": 3370,
      "Ġcarry": 3371,
      "Ġcreated": 3372,
      "Ġstructure": 3373,
      "Ġeducation": 3374,
      "When": 3375,
      "het": 3376,
      "Ġdate": 3377,
      "Ġsuit": 3378,
      "Ġtherefore": 3379,
      "Ġspect": 3380,
      "Ġpurp": 3381,
      "Ġbattle": 3382,
      "Ġcam": 3383,
      "ĠState": 3384,
      "Ġrespons": 3385,
      "47": 3386,
      "ION": 3387,
      "Ġsoul": 3388,
      "Ġanc": 3389,
      "Ġnote": 3390,
      "Ġrob": 3391,
      "Ġamount": 3392,
      "[[": 3393,
      "Ġbase": 3394,
      "Ġhit": 3395,
      "Ġlived": 3396,
      "ĠMon": 3397,
      "Ġtried": 3398,
      "ĠAugust": 3399,
      "Un": 3400,
      "ias": 3401,
      "Ġcult": 3402,
      "Ġstra": 3403,
      "ĠAnn": 3404,
      "Ġgrowth": 3405,
      "Ġprobably": 3406,
      "alks": 3407,
      "ĠAc": 3408,
      "ĠCount": 3409,
      "Ġanim": 3410,
      "Ġconduct": 3411,
      "Ġcontent": 3412,
      "Ġ30": 3413,
      "Ġfeatures": 3414,
      "Ġimmediately": 3415,
      "Sh": 3416,
      "ien": 3417,
      "ĠSar": 3418,
      "Ġrap": 3419,
      "ĠLater": 3420,
      "ĠJune": 3421,
      "ĠJuly": 3422,
      "Ġconsidered": 3423,
      "Ġespecially": 3424,
      "0000": 3425,
      "Ġrealizes": 3426,
      "joy": 3427,
      "Ġerror": 3428,
      "Ġdress": 3429,
      "Trans": 3430,
      "equ": 3431,
      "Ġimm": 3432,
      "Ġsignific": 3433,
      "cy": 3434,
      "Ġhom": 3435,
      "olly": 3436,
      "Ġbuilt": 3437,
      "Ġspecific": 3438,
      "Ġbooks": 3439,
      "ĠParis": 3440,
      "Ġmillion": 3441,
      ".âĢĻ": 3442,
      "60": 3443,
      "}^{": 3444,
      "arning": 3445,
      "state": 3446,
      "ider": 3447,
      "ĠCr": 3448,
      "Ġparts": 3449,
      "Ġconstant": 3450,
      "elta": 3451,
      "Ġinvolved": 3452,
      "She": 3453,
      "ober": 3454,
      "Ġcried": 3455,
      "âĢĺ": 3456,
      "ĠPal": 3457,
      "Ġproduced": 3458,
      "www": 3459,
      "iences": 3460,
      "Ġcry": 3461,
      "ĠIN": 3462,
      "ĠAp": 3463,
      "ĠJoe": 3464,
      "ĠSeptember": 3465,
      "ĠLuc": 3466,
      "Ġrefuses": 3467,
      "Ġanswered": 3468,
      "Ġbirth": 3469,
      "38": 3470,
      "def": 3471,
      "ios": 3472,
      "ĠEarth": 3473,
      "ateg": 3474,
      "Ġequal": 3475,
      "Ġcreate": 3476,
      "Ġdrive": 3477,
      "Ġbeginning": 3478,
      "Is": 3479,
      "Ġbes": 3480,
      "Ġbaby": 3481,
      "ĠLet": 3482,
      "ords": 3483,
      "Ġcover": 3484,
      "Ġactiv": 3485,
      "Ġassum": 3486,
      "Ġsystems": 3487,
      "Ġspirit": 3488,
      "Ġalgorithm": 3489,
      ",âĢĻ": 3490,
      "come": 3491,
      "Ġir": 3492,
      "Ġburn": 3493,
      "ĠPat": 3494,
      "Ġconvers": 3495,
      "ĠStep": 3496,
      "icted": 3497,
      "Ġblue": 3498,
      "Ġbroad": 3499,
      "Ġeasy": 3500,
      "Ġdescribed": 3501,
      "}(": 3502,
      "Ġtarget": 3503,
      "Ġborn": 3504,
      "owed": 3505,
      "ĠJust": 3506,
      "Ġmatrix": 3507,
      "mit": 3508,
      "yond": 3509,
      "using": 3510,
      "osing": 3511,
      "Ġ2006": 3512,
      "Ġexperience": 3513,
      "ograph": 3514,
      "Ġhours": 3515,
      "Ġavailable": 3516,
      "US": 3517,
      "Zbl": 3518,
      "sm": 3519,
      "sing": 3520,
      "isher": 3521,
      "Ġmer": 3522,
      "Ġmiddle": 3523,
      "ends": 3524,
      "anged": 3525,
      "Ġenter": 3526,
      "ĠParty": 3527,
      "Ġanalysis": 3528,
      "ĠCharles": 3529,
      "37": 3530,
      "his": 3531,
      "lished": 3532,
      "lege": 3533,
      "Ġloss": 3534,
      "ĠMor": 3535,
      "Ġmeasure": 3536,
      "Ġleading": 3537,
      "Pl": 3538,
      "Ġball": 3539,
      "eness": 3540,
      "owd": 3541,
      "Ġbeyond": 3542,
      "ĠCont": 3543,
      "rian": 3544,
      "istan": 3545,
      "ibly": 3546,
      "Ġopened": 3547,
      "under": 3548,
      "Ġur": 3549,
      "Ġattention": 3550,
      "Ġprevent": 3551,
      "Ġboard": 3552,
      "Ġmurd": 3553,
      "Ġriver": 3554,
      "Ġdirection": 3555,
      "vironment": 3556,
      "64": 3557,
      "enes": 3558,
      "cember": 3559,
      "ĠBill": 3560,
      "Ġrace": 3561,
      "ĠRuss": 3562,
      "Ġ2012": 3563,
      "abs": 3564,
      "ĠGree": 3565,
      "Ġexpress": 3566,
      "ĠRobert": 3567,
      "My": 3568,
      "Ġdanger": 3569,
      "lement": 3570,
      "icro": 3571,
      "Ġforced": 3572,
      "ours": 3573,
      "Ġformula": 3574,
      "Ġfamil": 3575,
      "Ġstrength": 3576,
      ".]": 3577,
      "Ġremember": 3578,
      "Ġcharge": 3579,
      "cr": 3580,
      "Ġmilitary": 3581,
      "Ġge": 3582,
      "ĠBro": 3583,
      "ĠRichard": 3584,
      "Ġwed": 3585,
      "Ġeight": 3586,
      "Ġrepe": 3587,
      "urk": 3588,
      "Ġwealth": 3589,
      "Ġcomplete": 3590,
      "Ġlearns": 3591,
      "ĠHenry": 3592,
      "gress": 3593,
      "Ġtitle": 3594,
      "Ġbank": 3595,
      "lection": 3596,
      "apers": 3597,
      "Ġmatch": 3598,
      "Ġreading": 3599,
      "Ġcomplet": 3600,
      "Ġvariables": 3601,
      "Ġetc": 3602,
      "Ġreplied": 3603,
      "Ġsquare": 3604,
      "how": 3605,
      "Ġtreat": 3606,
      "Ġlif": 3607,
      "ĠRaj": 3608,
      "Ġchief": 3609,
      "Ġfeature": 3610,
      "anny": 3611,
      "Ġforest": 3612,
      "Ġperformance": 3613,
      "\\\\": 3614,
      "rad": 3615,
      "Ġsource": 3616,
      "Ġevil": 3617,
      "Ġregion": 3618,
      "08": 3619,
      "mon": 3620,
      "more": 3621,
      "Ġhat": 3622,
      "ander": 3623,
      "Ġtwenty": 3624,
      "Ġconstruct": 3625,
      "$,": 3626,
      "Type": 3627,
      "sub": 3628,
      "Ġful": 3629,
      "Ġcases": 3630,
      "alph": 3631,
      "Ġlower": 3632,
      "eless": 3633,
      "Ġuser": 3634,
      "Ġscript": 3635,
      "Ġoccup": 3636,
      "ambda": 3637,
      "Question": 3638,
      "='": 3639,
      "bum": 3640,
      "van": 3641,
      "Ġcatch": 3642,
      "Ġmention": 3643,
      "othes": 3644,
      "Ġstar": 3645,
      "ĠPark": 3646,
      "ĠDep": 3647,
      "Ġtrouble": 3648,
      "Ġscale": 3649,
      "Ġnews": 3650,
      "Ġorders": 3651,
      "ĠCaptain": 3652,
      "iting": 3653,
      "Ġfac": 3654,
      "istics": 3655,
      "opt": 3656,
      "Ġaccording": 3657,
      "Ġrelease": 3658,
      "AP": 3659,
      "ĠÎ": 3660,
      "itz": 3661,
      "Ġcivil": 3662,
      "Ġtool": 3663,
      "uty": 3664,
      "ĠMod": 3665,
      "Ġplans": 3666,
      "Ġspend": 3667,
      "Ġkept": 3668,
      "Pr": 3669,
      "arily": 3670,
      "Ġyouth": 3671,
      "ĠRev": 3672,
      "essed": 3673,
      "Ġ24": 3674,
      "Ġ195": 3675,
      "Ġcompan": 3676,
      "ĠAss": 3677,
      "':": 3678,
      "estern": 3679,
      "Ġ22": 3680,
      "Ġimplement": 3681,
      "Ġseeing": 3682,
      "Ġ2007": 3683,
      "Ġargument": 3684,
      "Ġtravel": 3685,
      "gest": 3686,
      "atre": 3687,
      "Ġmid": 3688,
      "ĠKe": 3689,
      "ordin": 3690,
      "Ġindivid": 3691,
      "Ġthinking": 3692,
      "riving": 3693,
      "Ġsav": 3694,
      "Ġcustom": 3695,
      "inger": 3696,
      "ĠSchool": 3697,
      "Ġforg": 3698,
      "alled": 3699,
      "Ġproceed": 3700,
      "plit": 3701,
      "Ġpeace": 3702,
      "Ġgiving": 3703,
      "Ġstraight": 3704,
      "49": 3705,
      ";&": 3706,
      "fl": 3707,
      "ĠSch": 3708,
      "Ġvirt": 3709,
      "Ġscient": 3710,
      "Ġquestions": 3711,
      "Ġpolic": 3712,
      "Ġdemon": 3713,
      "idden": 3714,
      "Answer": 3715,
      "ĠGeneral": 3716,
      "UT": 3717,
      "just": 3718,
      "Ġcaught": 3719,
      "ĠCharl": 3720,
      "Ġmethods": 3721,
      "Ġsatisf": 3722,
      "Ġnovel": 3723,
      "ĠAfr": 3724,
      "ĠFeb": 3725,
      "Ġoffers": 3726,
      "Ġmember": 3727,
      "Ġcrew": 3728,
      "Ġmultiple": 3729,
      "fess": 3730,
      "pret": 3731,
      "otion": 3732,
      "ĠAnt": 3733,
      "Ġund": 3734,
      "ĠCour": 3735,
      "Ġarmy": 3736,
      "Ġglass": 3737,
      "See": 3738,
      "isters": 3739,
      "Ġdru": 3740,
      "Ġforces": 3741,
      "ĠHistory": 3742,
      "ĠRec": 3743,
      "osite": 3744,
      "Ġarms": 3745,
      "Ġprim": 3746,
      "Ġdefin": 3747,
      "Ġgreen": 3748,
      "Ġapplication": 3749,
      "Ġdie": 3750,
      "Ġhero": 3751,
      "oted": 3752,
      "cend": 3753,
      "Ġapparent": 3754,
      "strong": 3755,
      "Ġcarried": 3756,
      "ena": 3757,
      "Ġ100": 3758,
      "Ġmeant": 3759,
      "Ġclosed": 3760,
      "Ġscreen": 3761,
      "Ġquiet": 3762,
      "ĠĠĠĠĠĠĠĠĠĠĠĠĠĠĠĠ": 3763,
      "____": 3764,
      "Ġnetwork": 3765,
      "Sc": 3766,
      "book": 3767,
      "uct": 3768,
      "que": 3769,
      "Ġnearly": 3770,
      "ension": 3771,
      "Ġmoved": 3772,
      "Ġexactly": 3773,
      "ĠApril": 3774,
      "48": 3775,
      "look": 3776,
      "ml": 3777,
      "Ġver": 3778,
      "Ġign": 3779,
      "Ġaverage": 3780,
      "Ġdom": 3781,
      "Ġplant": 3782,
      "Ġboat": 3783,
      "mathbb": 3784,
      "Ġcontinued": 3785,
      "eal": 3786,
      "ties": 3787,
      "ending": 3788,
      "Ġkilling": 3789,
      "Ġspecified": 3790,
      "Ġplaying": 3791,
      "Ġdetermine": 3792,
      "Ġallowed": 3793,
      "Ġofficer": 3794,
      "Ġpiece": 3795,
      "ĠWindows": 3796,
      "inter": 3797,
      "Ġfarm": 3798,
      "irty": 3799,
      "ĠEv": 3800,
      "oved": 3801,
      "ecause": 3802,
      "Ġdecide": 3803,
      "Ġbelong": 3804,
      "bar": 3805,
      "Ġsite": 3806,
      "Ġfood": 3807,
      "orks": 3808,
      "ushed": 3809,
      "Ġcompet": 3810,
      "Ġconsist": 3811,
      "Ġstudent": 3812,
      "Ġsociety": 3813,
      "Ġsituation": 3814,
      "Ġdinner": 3815,
      "host": 3816,
      "Ġpow": 3817,
      "ashing": 3818,
      "ston": 3819,
      "ether": 3820,
      "ura": 3821,
      "ounds": 3822,
      "Ġdifference": 3823,
      "Ġempt": 3824,
      "Ġdirector": 3825,
      "ĠClass": 3826,
      "Ġisn": 3827,
      "Ġdeb": 3828,
      "Ġprec": 3829,
      "Ġformed": 3830,
      "Ġneeds": 3831,
      "Ġchanged": 3832,
      "\")": 3833,
      "aith": 3834,
      "awn": 3835,
      "pic": 3836,
      "Ġtree": 3837,
      "ĠPeter": 3838,
      "ĠOf": 3839,
      "Ġenjoy": 3840,
      "#####": 3841,
      "Ġrelig": 3842,
      "Ġdirectly": 3843,
      "enced": 3844,
      "Ġzero": 3845,
      "OS": 3846,
      "fact": 3847,
      "tps": 3848,
      "itect": 3849,
      "ĠChe": 3850,
      "ĠCarl": 3851,
      "odes": 3852,
      "Ġmeas": 3853,
      "2000": 3854,
      "Ġpersonal": 3855,
      "ĠOctober": 3856,
      "==": 3857,
      "ki": 3858,
      "Ġvan": 3859,
      "ĠIndia": 3860,
      "cal": 3861,
      "year": 3862,
      "ÃĹ": 3863,
      "ÏĦ": 3864,
      "ĠMore": 3865,
      "Ġplayed": 3866,
      "Ġlabel": 3867,
      "Ġindependent": 3868,
      "->": 3869,
      "ĠAct": 3870,
      "ĠCanadian": 3871,
      "67": 3872,
      "EL": 3873,
      "Ġaf": 3874,
      "Ġfund": 3875,
      "ams": 3876,
      "iring": 3877,
      "umber": 3878,
      "ĠJose": 3879,
      "ellig": 3880,
      "Ġ2009": 3881,
      "Ġregular": 3882,
      "ĠScience": 3883,
      "Ġdefined": 3884,
      "iling": 3885,
      "Ġproduction": 3886,
      "rival": 3887,
      "ĠFrance": 3888,
      "Ġprovide": 3889,
      "Ġannoun": 3890,
      "Ġwitness": 3891,
      "Ġfif": 3892,
      "Ġfast": 3893,
      "ilos": 3894,
      "ĠMet": 3895,
      "ags": 3896,
      "ective": 3897,
      "Ġminutes": 3898,
      "ING": 3899,
      "Ġnecessary": 3900,
      "['": 3901,
      "him": 3902,
      "Ġtheore": 3903,
      "ortun": 3904,
      "Ġtelevision": 3905,
      "ĠMinister": 3906,
      "Ġpull": 3907,
      "icide": 3908,
      "ids": 3909,
      "Ġsuc": 3910,
      "Ġ2013": 3911,
      "Ġarrive": 3912,
      "Ġdevelopment": 3913,
      "eks": 3914,
      "no": 3915,
      "oes": 3916,
      "Ġsal": 3917,
      "ĠTO": 3918,
      "Ġearn": 3919,
      "ĠMag": 3920,
      "ĠBer": 3921,
      "ĠRoy": 3922,
      "ovember": 3923,
      "even": 3924,
      "Ġcareer": 3925,
      "Ġrequired": 3926,
      "Ġsoldiers": 3927,
      "Ġwaiting": 3928,
      "bi": 3929,
      "ech": 3930,
      "file": 3931,
      "ys": 3932,
      "Ġax": 3933,
      "ils": 3934,
      "Ġforward": 3935,
      "ĠRob": 3936,
      "Ġ${": 3937,
      "Ġmodels": 3938,
      "Ġcolumn": 3939,
      "Ġslight": 3940,
      "Ġexplains": 3941,
      "....:": 3942,
      "Ġestablished": 3943,
      "cher": 3944,
      "hu": 3945,
      "now": 3946,
      "ication": 3947,
      "Ġstore": 3948,
      "Ġ23": 3949,
      "Ġpresence": 3950,
      "Ġdrink": 3951,
      "Ġintroduced": 3952,
      "ĠJanuary": 3953,
      "ĠInternational": 3954,
      "-\\": 3955,
      "Ġlaug": 3956,
      "irm": 3957,
      "ĠBo": 3958,
      "Ġcomfort": 3959,
      "Ġkiss": 3960,
      "Ġusually": 3961,
      "Ġcloud": 3962,
      "ĠArt": 3963,
      "Ġbroken": 3964,
      "oring": 3965,
      "Ġtoward": 3966,
      "Ġmiles": 3967,
      "Ġsaf": 3968,
      "Ġnumer": 3969,
      "ĠFranc": 3970,
      "ĠAmerica": 3971,
      "Ġsteps": 3972,
      ".'": 3973,
      "point": 3974,
      "ache": 3975,
      "abit": 3976,
      "ests": 3977,
      "Ġevidence": 3978,
      "cast": 3979,
      "inem": 3980,
      "reet": 3981,
      "omm": 3982,
      "Ġproduc": 3983,
      "Ġscience": 3984,
      "Ġbrain": 3985,
      "Ġamb": 3986,
      "Ġcoe": 3987,
      "Ġindust": 3988,
      "Ġtelling": 3989,
      "overn": 3990,
      "ĠDecember": 3991,
      "orrow": 3992,
      "Ġsucceed": 3993,
      "Now": 3994,
      "flow": 3995,
      "ender": 3996,
      "Ġdistr": 3997,
      "Ġeveryone": 3998,
      "Ġrevealed": 3999,
      "Ġlimit": 4000,
      "ĠFestival": 4001,
      "Ġchair": 4002,
      "Ġmyster": 4003,
      "ensive": 4004,
      "Ġremark": 4005,
      "ĠXX": 4006,
      "Ġjourney": 4007,
      "onse": 4008,
      "Ġcab": 4009,
      "astic": 4010,
      "Ġfloor": 4011,
      "Ġ2011": 4012,
      "Ġeffic": 4013,
      "Ġleader": 4014,
      "Ġelement": 4015,
      "Ġelements": 4016,
      "Ġbrothers": 4017,
      "Ġappearance": 4018,
      "oups": 4019,
      "Ġ21": 4020,
      "Ġquar": 4021,
      "Ġleads": 4022,
      "Ġcollege": 4023,
      "uke": 4024,
      "Ġhang": 4025,
      "ctx": 4026,
      "Ġstyle": 4027,
      "Ġalbum": 4028,
      "Ġweb": 4029,
      "claim": 4030,
      "Ġarray": 4031,
      "Ġhotel": 4032,
      "cd": 4033,
      "down": 4034,
      "och": 4035,
      "vol": 4036,
      "Ġmine": 4037,
      "Ġpage": 4038,
      "ĠBen": 4039,
      "Ġdisplay": 4040,
      "Ġspeed": 4041,
      "Ġremain": 4042,
      "Ġdies": 4043,
      "Ġdyn": 4044,
      "Ġsection": 4045,
      "ashion": 4046,
      "Ġframe": 4047,
      "Ġcaptain": 4048,
      "Ġextrem": 4049,
      "Ġgreater": 4050,
      "had": 4051,
      "incess": 4052,
      "Ġnormal": 4053,
      "Ġreached": 4054,
      "Ġrandom": 4055,
      "ĠJo": 4056,
      "Ġweak": 4057,
      "sole": 4058,
      "Ġformat": 4059,
      "Ġgenerally": 4060,
      "Ġbreaks": 4061,
      "03": 4062,
      "06": 4063,
      "?</": 4064,
      "hib": 4065,
      "ading": 4066,
      "Ġprivate": 4067,
      "Ġresearch": 4068,
      "ME": 4069,
      "Ġbul": 4070,
      "arp": 4071,
      "Ġpal": 4072,
      "iced": 4073,
      "illery": 4074,
      "Ġgirlfriend": 4075,
      "Ġpun": 4076,
      "ibility": 4077,
      "Ġcontact": 4078,
      "Ġdecided": 4079,
      "aur": 4080,
      "cos": 4081,
      "Ġsem": 4082,
      "Ġdat": 4083,
      "ste": 4084,
      "Ġrefer": 4085,
      "ĠOpen": 4086,
      "Ġweight": 4087,
      "inese": 4088,
      "Ġmissing": 4089,
      "07": 4090,
      "AFS": 4091,
      "name": 4092,
      "ilities": 4093,
      "Ġeconom": 4094,
      "ĠHigh": 4095,
      "umer": 4096,
      "Ġtra": 4097,
      "Ġmanages": 4098,
      "ictor": 4099,
      "Ġfactor": 4100,
      "Ġeasily": 4101,
      "PS": 4102,
      "Ġcand": 4103,
      "Ġlatter": 4104,
      "urb": 4105,
      "teen": 4106,
      "Ġneeded": 4107,
      "Ġcourt": 4108,
      "Ġfeeling": 4109,
      "BI": 4110,
      "Par": 4111,
      "iance": 4112,
      "edia": 4113,
      "ĠSus": 4114,
      "Ġchurch": 4115,
      "Ġlearning": 4116,
      "ensity": 4117,
      "Ġlocation": 4118,
      "Ġlinear": 4119,
      "Ġstanding": 4120,
      "aton": 4121,
      "unn": 4122,
      "ĠWil": 4123,
      "Ġclim": 4124,
      "Ġfinding": 4125,
      "Ġteacher": 4126,
      "Ġcrowd": 4127,
      "Ġtalking": 4128,
      "Ġcommunity": 4129,
      "Ġexpected": 4130,
      "Ġheavy": 4131,
      "Ġwedding": 4132,
      "Ġwide": 4133,
      "Ġnone": 4134,
      "ournal": 4135,
      "Ġplaces": 4136,
      "gypt": 4137,
      "ĠAustralia": 4138,
      "31": 4139,
      "DF": 4140,
      "max": 4141,
      "write": 4142,
      "Ġwarm": 4143,
      "Ġdouble": 4144,
      "this": 4145,
      "Ġextr": 4146,
      "ĠScout": 4147,
      "Ġlearned": 4148,
      "Ġabsol": 4149,
      "Ġcomputer": 4150,
      "OT": 4151,
      "field": 4152,
      "king": 4153,
      "new": 4154,
      "ĠTheir": 4155,
      "Ġarbit": 4156,
      "Then": 4157,
      "Ġ==": 4158,
      "Ġsurr": 4159,
      "Ġtotal": 4160,
      "Ġsac": 4161,
      "Ġdam": 4162,
      "anda": 4163,
      "Ġphilos": 4164,
      "lambda": 4165,
      "Ġmouth": 4166,
      "idation": 4167,
      "ĠMark": 4168,
      "andon": 4169,
      "Ġconne": 4170,
      "ĠNovember": 4171,
      "Ġpositive": 4172,
      "Ġdeveloped": 4173,
      "Ġsuccessful": 4174,
      "Ġsummer": 4175,
      "Ġempty": 4176,
      "02": 4177,
      "IG": 4178,
      "ners": 4179,
      "ĠMal": 4180,
      "ĠHam": 4181,
      "ĠTheory": 4182,
      "unction": 4183,
      "Ġexch": 4184,
      "Ġsuppose": 4185,
      "netic": 4186,
      "rough": 4187,
      "asant": 4188,
      "ĠIII": 4189,
      "ĠBest": 4190,
      "Ġens": 4191,
      "Ġprime": 4192,
      "ugs": 4193,
      "stract": 4194,
      "Ġattackers": 4195,
      "Ġseparate": 4196,
      "born": 4197,
      "gar": 4198,
      "oom": 4199,
      "ued": 4200,
      "Ġice": 4201,
      "esh": 4202,
      "Ġhealth": 4203,
      "ĠChina": 4204,
      "Ġ2008": 4205,
      "Ġlibrary": 4206,
      "Ġofficial": 4207,
      "Ġjoin": 4208,
      "ĠTor": 4209,
      "ĠSan": 4210,
      "Ġconver": 4211,
      "thur": 4212,
      "ĠWell": 4213,
      "Ġdisappe": 4214,
      "2002": 4215,
      "sych": 4216,
      "Ġobserved": 4217,
      "44": 4218,
      "Ġbi": 4219,
      "ĠPress": 4220,
      "ĠChinese": 4221,
      "Ġsweet": 4222,
      "Ġancient": 4223,
      "hold": 4224,
      "Ġben": 4225,
      "Ġlack": 4226,
      "Ġrail": 4227,
      "abor": 4228,
      "ĠEgypt": 4229,
      "arden": 4230,
      "Ġspread": 4231,
      "ĠQue": 4232,
      "Ġadvant": 4233,
      "Ġconditions": 4234,
      "Ġfailed": 4235,
      "Ġcausing": 4236,
      "Ġhyp": 4237,
      "ĠSmith": 4238,
      "Ġmaximum": 4239,
      "Ġbomb": 4240,
      "ĠMath": 4241,
      "ulated": 4242,
      "Ġalt": 4243,
      "ĠEast": 4244,
      "Ġneck": 4245,
      "Ġowner": 4246,
      "mat": 4247,
      "Ġbrief": 4248,
      "achel": 4249,
      "ĠCouncil": 4250,
      "Ġneither": 4251,
      "pected": 4252,
      "Ġsymbol": 4253,
      "ĠAND": 4254,
      "Ġachie": 4255,
      "eral": 4256,
      "ico": 4257,
      "Ġreb": 4258,
      "ĠAcc": 4259,
      "Ġran": 4260,
      "Ġsuicide": 4261,
      "Ġdefault": 4262,
      "Ġlikely": 4263,
      "Why": 4264,
      "Ġfilled": 4265,
      "ĠMel": 4266,
      "ĠDet": 4267,
      "Ġrule": 4268,
      "ĠNight": 4269,
      "there": 4270,
      "Ġworked": 4271,
      "Ġguard": 4272,
      "Ġvariance": 4273,
      "Ġestim": 4274,
      "Ġconcern": 4275,
      "Ġwarn": 4276,
      "aken": 4277,
      "ĠRad": 4278,
      "ellow": 4279,
      "Ġgrav": 4280,
      "Ġagrees": 4281,
      "ĠBrown": 4282,
      "Ġexperiment": 4283,
      "09": 4284,
      "vered": 4285,
      "uration": 4286,
      "ĠFred": 4287,
      "ĠStud": 4288,
      "ĠVir": 4289,
      "Ġaddress": 4290,
      "2010": 4291,
      "Ġcontinue": 4292,
      "Ġoccasion": 4293,
      "Ġmusical": 4294,
      "Ġcertainly": 4295,
      "Ġmulti": 4296,
      "ID": 4297,
      "Ġnational": 4298,
      "ĠCons": 4299,
      "Ġplaced": 4300,
      "ĠStr": 4301,
      "Ġopens": 4302,
      "Ġclean": 4303,
      "iques": 4304,
      "ĠLouis": 4305,
      "rt": 4306,
      "erve": 4307,
      "icles": 4308,
      "ĠWhy": 4309,
      "Ġsomeone": 4310,
      "Ġteach": 4311,
      "Ġcrime": 4312,
      "ĠCollege": 4313,
      "Ġgentleman": 4314,
      "Ġtradition": 4315,
      "SM": 4316,
      "Ġfixed": 4317,
      "Ġseven": 4318,
      "Ġphysical": 4319,
      "Ġbottom": 4320,
      "ae": 4321,
      "gn": 4322,
      "Ġess": 4323,
      "Ġfem": 4324,
      "Ġhide": 4325,
      "ĠAward": 4326,
      "ĠCam": 4327,
      "Ġuncle": 4328,
      "rawn": 4329,
      "order": 4330,
      "Ġthroughout": 4331,
      "Ġdegree": 4332,
      "+\\": 4333,
      "]:": 4334,
      "jo": 4335,
      "sion": 4336,
      "}{\\": 4337,
      "Ġfoc": 4338,
      "Ġdoll": 4339,
      "Ġeat": 4340,
      "ĠST": 4341,
      "100": 4342,
      "65": 4343,
      "AD": 4344,
      "iate": 4345,
      "pir": 4346,
      "Ġmut": 4347,
      "vere": 4348,
      "Ġones": 4349,
      "ĠRose": 4350,
      "Ġspoke": 4351,
      "Ġcontinues": 4352,
      ")(": 4353,
      "IV": 4354,
      "aud": 4355,
      "hest": 4356,
      "Ġment": 4357,
      "ĠSen": 4358,
      "Ġalive": 4359,
      "ĠDem": 4360,
      "Ġconcept": 4361,
      "ĠThus": 4362,
      "ruary": 4363,
      "$$.": 4364,
      "Ġletters": 4365,
      "Ġmonth": 4366,
      "Ġtrees": 4367,
      "ini": 4368,
      "Ġhall": 4369,
      "Ġpen": 4370,
      "Ġbeat": 4371,
      "Ġdiscovered": 4372,
      "Ġavoid": 4373,
      "sim": 4374,
      "sum": 4375,
      "Ġtrust": 4376,
      "Ġ${\\": 4377,
      "Ġfamous": 4378,
      "Ġincluded": 4379,
      "Ġslowly": 4380,
      "68": 4381,
      "After": 4382,
      "eff": 4383,
      "log": 4384,
      "ito": 4385,
      "Ġfaith": 4386,
      "Ġplays": 4387,
      "Ġunable": 4388,
      "Ġclub": 4389,
      "Ġremains": 4390,
      "Ġrelative": 4391,
      "ĠUnion": 4392,
      "iamond": 4393,
      "enny": 4394,
      "Ġhistor": 4395,
      "Ġopportun": 4396,
      "Ġkidn": 4397,
      "Ġthinks": 4398,
      "ete": 4399,
      "plies": 4400,
      "Ġweap": 4401,
      "Ġroll": 4402,
      "ÂłÂłÂł": 4403,
      "Ġserver": 4404,
      "Ġextra": 4405,
      "Ġvector": 4406,
      "Ġtemperature": 4407,
      "Ġmerely": 4408,
      "LA": 4409,
      "zy": 4410,
      "inces": 4411,
      "struct": 4412,
      "ademy": 4413,
      "ĠHouse": 4414,
      "ĠBoy": 4415,
      "Ġcontain": 4416,
      "Ġinterpret": 4417,
      "Ġentered": 4418,
      "Ġequations": 4419,
      "ĠGermany": 4420,
      "55": 4421,
      "ao": 4422,
      "uous": 4423,
      "Ġreference": 4424,
      "Ġalgebra": 4425,
      "ĠRam": 4426,
      "ĠOh": 4427,
      "ĠâĢľâĢĺ": 4428,
      "Ġrose": 4429,
      "exception": 4430,
      "Ġremained": 4431,
      "apping": 4432,
      "ĠAlthough": 4433,
      "Ġinstance": 4434,
      "Ġsupposed": 4435,
      "Ġspecies": 4436,
      "Ġlarger": 4437,
      "Ġconstit": 4438,
      "Ġreceive": 4439,
      "Ġmission": 4440,
      "Ġdemonstr": 4441,
      "78": 4442,
      "EM": 4443,
      "Te": 4444,
      "Ġhous": 4445,
      "riev": 4446,
      "iller": 4447,
      "Ġsup": 4448,
      "Ġforms": 4449,
      "Ġopin": 4450,
      "Ġdepart": 4451,
      "Ġpurpose": 4452,
      "One": 4453,
      "spect": 4454,
      "ĠÂ": 4455,
      "Ġhung": 4456,
      "ĠĠĠĠĠĠĠĠĊ": 4457,
      "Ġnorth": 4458,
      "ĠSince": 4459,
      "ĠBart": 4460,
      "Ġ29": 4461,
      "aging": 4462,
      "ipal": 4463,
      "Ġdisp": 4464,
      "Ġ2000": 4465,
      "comp": 4466,
      "Ġmoving": 4467,
      "Ġproperty": 4468,
      "stitute": 4469,
      "Ġfavor": 4470,
      "gl": 4471,
      "Ġfool": 4472,
      "arks": 4473,
      "ette": 4474,
      "ĠSee": 4475,
      "ĠMont": 4476,
      "Ġrain": 4477,
      "ĠChurch": 4478,
      "ĠBlack": 4479,
      "Ġsuspic": 4480,
      "Ġestablish": 4481,
      "Ġarbitrary": 4482,
      ",\\": 4483,
      "Ġconsequ": 4484,
      "ĠGreat": 4485,
      "They": 4486,
      "Ġinterrupt": 4487,
      "Ġdefe": 4488,
      "Ġvictim": 4489,
      "With": 4490,
      "gment": 4491,
      "sq": 4492,
      "Ġhen": 4493,
      "ented": 4494,
      "Ġshop": 4495,
      "ago": 4496,
      "ossible": 4497,
      "Ġsecurity": 4498,
      "Ġtypes": 4499,
      "Ġmessage": 4500,
      "ĠSarah": 4501,
      "34": 4502,
      "HER": 4503,
      "eration": 4504,
      "Ġthick": 4505,
      "acc": 4506,
      "ĠJac": 4507,
      "Ġspot": 4508,
      "Ġuseful": 4509,
      "prime": 4510,
      "Ġartillery": 4511,
      "Ġpresented": 4512,
      "Ġfeelings": 4513,
      "fortun": 4514,
      "Ġpixels": 4515,
      "Ġcorner": 4516,
      "lock": 4517,
      "law": 4518,
      "Ġbear": 4519,
      "Ġforth": 4520,
      "sey": 4521,
      "Ġ([[": 4522,
      "ĠJew": 4523,
      "ĠOther": 4524,
      "Ġgroups": 4525,
      "ucle": 4526,
      "ĠArch": 4527,
      "ĠSteve": 4528,
      "Ġdespite": 4529,
      "ĠJapanese": 4530,
      "ĠCharlie": 4531,
      "bre": 4532,
      "rey": 4533,
      "Ġsumm": 4534,
      "imately": 4535,
      "ancing": 4536,
      "Ġ2005": 4537,
      "ĠEngine": 4538,
      "Ġresponse": 4539,
      ")=": 4540,
      "long": 4541,
      "rig": 4542,
      "atory": 4543,
      "lebr": 4544,
      "Ġgain": 4545,
      "Ġforget": 4546,
      "place": 4547,
      "Ġagree": 4548,
      "Ġaccomp": 4549,
      "ario": 4550,
      "Ġexpon": 4551,
      "2001": 4552,
      "Ġcauses": 4553,
      "{.": 4554,
      "atives": 4555,
      "Ġblow": 4556,
      "Ġmad": 4557,
      "ĠTwo": 4558,
      "amples": 4559,
      "igr": 4560,
      "ĠMajor": 4561,
      "opy": 4562,
      "Ġcovered": 4563,
      "obal": 4564,
      "Ġprovides": 4565,
      "Ġpursu": 4566,
      "Ġcaused": 4567,
      "ĠCommun": 4568,
      "58": 4569,
      "MC": 4570,
      "las": 4571,
      "uate": 4572,
      "ingu": 4573,
      "ĠMaster": 4574,
      "ĠBel": 4575,
      "ĠLaw": 4576,
      "Ġshare": 4577,
      "ĠJes": 4578,
      "Ġusers": 4579,
      "Ġ2014": 4580,
      "Ġconfig": 4581,
      "Ġsilent": 4582,
      "ĠThomas": 4583,
      "Ġdistrict": 4584,
      "Let": 4585,
      "eed": 4586,
      "Ġsitting": 4587,
      "ĠMex": 4588,
      "ayer": 4589,
      "semb": 4590,
      "Ġring": 4591,
      "Ġseason": 4592,
      "ĠRiver": 4593,
      "Ġcompl": 4594,
      "aste": 4595,
      "ĠString": 4596,
      "icked": 4597,
      "Ġintern": 4598,
      "Ġ50": 4599,
      "Ġprovided": 4600,
      "ÂłÂłÂłÂłÂłÂłÂłÂł": 4601,
      "Ġcompletely": 4602,
      "Of": 4603,
      "lor": 4604,
      "ses": 4605,
      "Ġtraining": 4606,
      "Ġusual": 4607,
      "Ġadministr": 4608,
      "Ġnewsp": 4609,
      "ĠArthur": 4610,
      "Ġconfess": 4611,
      "Ġaffair": 4612,
      "ĠBefore": 4613,
      "Ġcamera": 4614,
      "([": 4615,
      "based": 4616,
      "gence": 4617,
      "Ġid": 4618,
      "Ġwa": 4619,
      "Ġemer": 4620,
      "ĠGood": 4621,
      "atever": 4622,
      "Ġadvent": 4623,
      "Ġrelated": 4624,
      "Ġolder": 4625,
      "ĠScott": 4626,
      "Ġattacks": 4627,
      "66": 4628,
      "Sigma": 4629,
      "father": 4630,
      "kins": 4631,
      "python": 4632,
      "atively": 4633,
      "Ġthou": 4634,
      "Ġprove": 4635,
      "Ġagre": 4636,
      "aily": 4637,
      "Ġthrow": 4638,
      "$$,": 4639,
      "Ġinstit": 4640,
      "Ġopening": 4641,
      "ĠPresident": 4642,
      "burg": 4643,
      "df": 4644,
      "mother": 4645,
      "âĦ": 4646,
      "Ġplain": 4647,
      "Ġdism": 4648,
      "Ġobl": 4649,
      "Ġyounger": 4650,
      "Ġdelight": 4651,
      "Ġexistence": 4652,
      "By": 4653,
      "Gener": 4654,
      "Ġtim": 4655,
      "erk": 4656,
      "Ġfit": 4657,
      "ester": 4658,
      "omen": 4659,
      "states": 4660,
      "ĠSand": 4661,
      "ĠHy": 4662,
      "ĠDay": 4663,
      "Ġconce": 4664,
      "Ġru": 4665,
      "Ġshowed": 4666,
      "Ġschools": 4667,
      "bsite": 4668,
      "Ġobjects": 4669,
      "Ġarchitect": 4670,
      "VI": 4671,
      "boy": 4672,
      "init": 4673,
      "Ġhar": 4674,
      "Ġmap": 4675,
      "alle": 4676,
      "Ġlad": 4677,
      "Ġreward": 4678,
      "ĠAFS": 4679,
      "ĠBh": 4680,
      "oding": 4681,
      "Ġloved": 4682,
      "Ġunknown": 4683,
      "ĠVictor": 4684,
      "ĠArmy": 4685,
      "annel": 4686,
      "useum": 4687,
      "Ġincrease": 4688,
      "Ġprobability": 4689,
      "Ġcircum": 4690,
      "Ġarrested": 4691,
      "Transition": 4692,
      "59": 4693,
      "69": 4694,
      "Here": 4695,
      "beta": 4696,
      "data": 4697,
      "ns": 4698,
      "ĠJournal": 4699,
      "Ġenvironment": 4700,
      "Ġcalculate": 4701,
      "Ġassociated": 4702,
      "ĠFebruary": 4703,
      "Ġtax": 4704,
      "Ġdance": 4705,
      "unc": 4706,
      "ems": 4707,
      "Ġjud": 4708,
      "ogether": 4709,
      "raid": 4710,
      "Ġresist": 4711,
      "Ġoffer": 4712,
      "Ġspeech": 4713,
      "Ġhighly": 4714,
      "Ġfields": 4715,
      "ĠChristian": 4716,
      "Ġpractice": 4717,
      "41": 4718,
      "key": 4719,
      "Ġ//": 4720,
      "Ġrow": 4721,
      "aints": 4722,
      "ĠLady": 4723,
      "athan": 4724,
      "Ġremem": 4725,
      "Ġpassion": 4726,
      "Ġshowing": 4727,
      "Ġeffects": 4728,
      ".âĢĶ": 4729,
      "LL": 4730,
      "SD": 4731,
      "ĠĠĊ": 4732,
      "Ġstone": 4733,
      "ĠEr": 4734,
      "ocket": 4735,
      "Ġpoly": 4736,
      "Ġchem": 4737,
      "otten": 4738,
      "Ġparticip": 4739,
      "Ġholding": 4740,
      "ocrates": 4741,
      "Ġpixel": 4742,
      "Ġsequence": 4743,
      "Ġescapes": 4744,
      "Ġrapid": 4745,
      "word": 4746,
      "Ġharm": 4747,
      "asc": 4748,
      "Ġgas": 4749,
      "olic": 4750,
      "Ġ('": 4751,
      "Ġcontaining": 4752,
      "Ġyourself": 4753,
      "Ġtransl": 4754,
      "Ġequival": 4755,
      "Ġincludes": 4756,
      "ĠGrand": 4757,
      "ĠProfess": 4758,
      "State": 4759,
      "Ġmysterious": 4760,
      "75": 4761,
      "All": 4762,
      "onel": 4763,
      "Ġfashion": 4764,
      "Ġhun": 4765,
      "Ġtow": 4766,
      "ĠMike": 4767,
      "ĠBur": 4768,
      "urns": 4769,
      "eger": 4770,
      "Ġconstruction": 4771,
      "Ġinnoc": 4772,
      "Ġpublished": 4773,
      "CE": 4774,
      "OM": 4775,
      "TP": 4776,
      "Ġhuge": 4777,
      "Ġmale": 4778,
      "ali": 4779,
      "Ġreduction": 4780,
      "ĠSqu": 4781,
      "Ġye": 4782,
      "ĠDoug": 4783,
      "aine": 4784,
      "Ġnotice": 4785,
      "Ġcomedy": 4786,
      "Ġweeks": 4787,
      "Ġenemy": 4788,
      "Ġactual": 4789,
      "ĠPrince": 4790,
      "Ġaccepts": 4791,
      "Ġinfluence": 4792,
      "NE": 4793,
      "Ġsad": 4794,
      "Ġwave": 4795,
      "Ġfly": 4796,
      "stood": 4797,
      "utive": 4798,
      "ĠAwards": 4799,
      "ĠGovern": 4800,
      "ĠOx": 4801,
      "earch": 4802,
      "Ġbright": 4803,
      "Ġcoast": 4804,
      "Ġcrim": 4805,
      "Ġideas": 4806,
      "Ġstopped": 4807,
      "Ġcelebr": 4808,
      "board": 4809,
      "Ġconversation": 4810,
      "list": 4811,
      "upp": 4812,
      "Ġlie": 4813,
      "Ġgod": 4814,
      "verse": 4815,
      "ption": 4816,
      "Ġimages": 4817,
      "Ġsafe": 4818,
      "rael": 4819,
      "Ġanyone": 4820,
      "ught": 4821,
      "Ġplease": 4822,
      "ENT": 4823,
      "Ġillustr": 4824,
      "Ġrepeated": 4825,
      "iny": 4826,
      "Ġlink": 4827,
      "ĠSub": 4828,
      "Ġonto": 4829,
      "ĠKat": 4830,
      "Ġsomewhat": 4831,
      "Ġhyd": 4832,
      "ĠDepartment": 4833,
      "Ġindividual": 4834,
      "CT": 4835,
      "cks": 4836,
      "rish": 4837,
      "hered": 4838,
      "ĠSl": 4839,
      "Ġcomment": 4840,
      "ĠâĢĻ": 4841,
      "Ġloves": 4842,
      "Ġsoil": 4843,
      "Ġgrid": 4844,
      "arsh": 4845,
      "Ġdrama": 4846,
      "mathbf": 4847,
      "Ġstream": 4848,
      "Ġinterested": 4849,
      "Ġcreature": 4850,
      "Ġshoots": 4851,
      "hematical": 4852,
      "var": 4853,
      "ona": 4854,
      "Ġheaven": 4855,
      "ĠApp": 4856,
      "ĠPhys": 4857,
      "ĠDel": 4858,
      "ĠGo": 4859,
      "Ġcontrib": 4860,
      "Ġbuy": 4861,
      "Ġsilence": 4862,
      "Ġcorresponding": 4863,
      "Ġhttp": 4864,
      "ls": 4865,
      "uit": 4866,
      "Ġ@": 4867,
      "Ġterror": 4868,
      "Ġsell": 4869,
      "eds": 4870,
      "ano": 4871,
      "Ġthread": 4872,
      "amm": 4873,
      "illa": 4874,
      "ĠRos": 4875,
      "Ġaccom": 4876,
      "Ġstudies": 4877,
      "Ġarticle": 4878,
      "Ġinteresting": 4879,
      "Ġentirely": 4880,
      "Ġaudience": 4881,
      "sqrt": 4882,
      "ba": 4883,
      "Ġsouth": 4884,
      "Ġfat": 4885,
      "Ġcounter": 4886,
      "leg": 4887,
      "ician": 4888,
      "ilon": 4889,
      "Ġrestr": 4890,
      "ĠSun": 4891,
      "ĠPre": 4892,
      "ĠEdd": 4893,
      "Ġchall": 4894,
      "Ġremaining": 4895,
      "^{-": 4896,
      "Ġperformed": 4897,
      "ipped": 4898,
      "Ġproperties": 4899,
      "Ġorganization": 4900,
      "36": 4901,
      "IR": 4902,
      "pri": 4903,
      "ðĿ": 4904,
      "Ġerr": 4905,
      "alian": 4906,
      "Ġthy": 4907,
      "Ġ27": 4908,
      "Ġintended": 4909,
      "Ġupper": 4910,
      "Ġappoint": 4911,
      "Ġsubm": 4912,
      "Ġsnow": 4913,
      "Ġphilosop": 4914,
      ")^": 4915,
      "doc": 4916,
      "Ġpra": 4917,
      "Ġlaugh": 4918,
      "acity": 4919,
      "olk": 4920,
      "see": 4921,
      "Ġabandon": 4922,
      "Ġknowing": 4923,
      "Ġrecon": 4924,
      "event": 4925,
      "Ġinterview": 4926,
      "Ġdistinct": 4927,
      "Ġpassing": 4928,
      "Ġbreath": 4929,
      "Ġpowerful": 4930,
      "Ġwalked": 4931,
      "Ġbeauty": 4932,
      "Ġraised": 4933,
      "ĠGreek": 4934,
      "Param": 4935,
      "Don": 4936,
      "GE": 4937,
      "].": 4938,
      "iest": 4939,
      "ois": 4940,
      "Ġaim": 4941,
      "Ġcy": 4942,
      "Ġhidden": 4943,
      "Ġlies": 4944,
      "iforn": 4945,
      "ĠRed": 4946,
      "eps": 4947,
      "Ġcoordin": 4948,
      "Ġhorror": 4949,
      "Ġvolume": 4950,
      "Ġchoice": 4951,
      "Ġbehavior": 4952,
      "{.}$": 4953,
      "bin": 4954,
      "Ġtask": 4955,
      "Ġbub": 4956,
      "Ġbird": 4957,
      "Ġtouch": 4958,
      "Ġlat": 4959,
      "ĠHarry": 4960,
      "Ġaltern": 4961,
      "Ġconvent": 4962,
      "aked": 4963,
      "Ġshell": 4964,
      "Ġusbi": 4965,
      "Ġattend": 4966,
      "Ġcook": 4967,
      "Ġcalling": 4968,
      "Ġconscious": 4969,
      "Ġparameters": 4970,
      "Ġsends": 4971,
      "ĠMusic": 4972,
      "Ġepis": 4973,
      "BC": 4974,
      "delta": 4975,
      "Ġbill": 4976,
      "orter": 4977,
      "Ġmort": 4978,
      "Ġpsych": 4979,
      "Ġduty": 4980,
      "road": 4981,
      "Ġonline": 4982,
      "ĠPort": 4983,
      "ulate": 4984,
      "ĠRay": 4985,
      "they": 4986,
      "Ġflo": 4987,
      "Ġ2016": 4988,
      "Ġdrunk": 4989,
      "Ġpictures": 4990,
      "Ġangry": 4991,
      "Ġfully": 4992,
      "Def": 4993,
      "pi": 4994,
      "Ġtro": 4995,
      "Ġodd": 4996,
      "oms": 4997,
      "urrent": 4998,
      "ĠEvery": 4999,
      "ĠOut": 5000,
      "Ġsetting": 5001,
      "Ġrecent": 5002,
      "Ġcollect": 5003,
      "Ġ2018": 5004,
      "Ġartist": 5005,
      "Ġoperations": 5006,
      "Ġgrew": 5007,
      "Ġissue": 5008,
      "Ġissues": 5009,
      "yal": 5010,
      "Ġpure": 5011,
      "asy": 5012,
      "otes": 5013,
      "ĠPost": 5014,
      "ĠWal": 5015,
      "Ġlover": 5016,
      "Ġoffered": 5017,
      "Ġfinite": 5018,
      "Ġtrip": 5019,
      "Ġheads": 5020,
      "Ġrevenge": 5021,
      "Ġprompt": 5022,
      "Ġnegative": 5023,
      "Ġpowers": 5024,
      "stein": 5025,
      "Ġ00": 5026,
      "Ġ{\\": 5027,
      "Ġaward": 5028,
      "Ġsch": 5029,
      "Ġnarr": 5030,
      "rog": 5031,
      "ĠBoth": 5032,
      "ĠStreet": 5033,
      "ensions": 5034,
      "Ġfinished": 5035,
      "Ġdevice": 5036,
      "ĠSociety": 5037,
      "Ġdynam": 5038,
      "Ġadvantage": 5039,
      "Ġsample": 5040,
      "orough": 5041,
      "ĠDirect": 5042,
      "Ġshut": 5043,
      "Ġarts": 5044,
      "athy": 5045,
      "Ġfriendship": 5046,
      "2003": 5047,
      "print": 5048,
      "Ġexplain": 5049,
      "Ġclasses": 5050,
      "Ġdefinition": 5051,
      "ifornia": 5052,
      "cer": 5053,
      "mond": 5054,
      "Ġcere": 5055,
      "Ġstories": 5056,
      "html": 5057,
      "ĠRod": 5058,
      "Ġshad": 5059,
      "Ġinterface": 5060,
      "ĠAlso": 5061,
      "Ġedition": 5062,
      "who": 5063,
      "Ġsignal": 5064,
      "Ġsky": 5065,
      "04": 5066,
      "Ad": 5067,
      "ka": 5068,
      "some": 5069,
      "ĠMil": 5070,
      "gend": 5071,
      "Ġbrings": 5072,
      "Ġimpossible": 5073,
      "Ġsmile": 5074,
      "Ġhelps": 5075,
      "Ġdriver": 5076,
      "Ġparticularly": 5077,
      "Ġcritic": 5078,
      "Ġintegral": 5079,
      "hematics": 5080,
      "oured": 5081,
      "Ġstars": 5082,
      "ĠEven": 5083,
      "Ġagent": 5084,
      "ERT": 5085,
      "Ġmodul": 5086,
      "Ġfalling": 5087,
      "Ġattacked": 5088,
      "Ġdrives": 5089,
      "Ġmagn": 5090,
      "Ġfighting": 5091,
      "know": 5092,
      "lict": 5093,
      "sin": 5094,
      "yr": 5095,
      "Ġiron": 5096,
      "Ġbare": 5097,
      "Ġbond": 5098,
      "Ġhaz": 5099,
      "Ġrid": 5100,
      "ĠNov": 5101,
      "Ġproduce": 5102,
      "Ġintellig": 5103,
      "Ġroof": 5104,
      "ĠAnne": 5105,
      "Ġsmaller": 5106,
      "Ġserved": 5107,
      "Ġstreets": 5108,
      "Ġbecoming": 5109,
      "Ġpattern": 5110,
      "Ġclaims": 5111,
      "Ġengineering": 5112,
      "EG": 5113,
      "Ġwalks": 5114,
      "asons": 5115,
      "Ġ(\"": 5116,
      "Ġrisk": 5117,
      "ĠJane": 5118,
      "anted": 5119,
      "Ġwebsite": 5120,
      "ĠInst": 5121,
      "Ġqual": 5122,
      "Ġstruck": 5123,
      "rence": 5124,
      "Ġsuspect": 5125,
      "ĠEuropean": 5126,
      "ashington": 5127,
      "have": 5128,
      "spe": 5129,
      "Ġnucle": 5130,
      "Ġrot": 5131,
      "empl": 5132,
      "Ġvul": 5133,
      "ĠGreen": 5134,
      "ĠEll": 5135,
      "Ġjoy": 5136,
      "Ġschem": 5137,
      "Ġserious": 5138,
      "ĠOnce": 5139,
      "Ġbelieves": 5140,
      "Ġrequire": 5141,
      "Ġfemale": 5142,
      "Ġtall": 5143,
      "Ġsin": 5144,
      "Ġfig": 5145,
      "Ġpul": 5146,
      "stack": 5147,
      "ĠIV": 5148,
      "Ġrout": 5149,
      "Ġpregn": 5150,
      "ails": 5151,
      "Ġcool": 5152,
      "Ġforeign": 5153,
      "Ġcaptured": 5154,
      "}_{\\": 5155,
      "à¤": 5156,
      "Ġtor": 5157,
      "Ġought": 5158,
      "Ġmir": 5159,
      "Ġdrop": 5160,
      "Ġdrawn": 5161,
      "lend": 5162,
      "ila": 5163,
      "Ġreject": 5164,
      "ifying": 5165,
      "ĠInter": 5166,
      "orses": 5167,
      "Ġbackground": 5168,
      "Ġfeels": 5169,
      "Ġimpact": 5170,
      "Ġidentity": 5171,
      "Ġapparently": 5172,
      "Do": 5173,
      "times": 5174,
      "vin": 5175,
      "Ġpython": 5176,
      "icate": 5177,
      "enth": 5178,
      "Ġgather": 5179,
      "ĠAdd": 5180,
      "idents": 5181,
      "urt": 5182,
      "uries": 5183,
      "ria": 5184,
      "aks": 5185,
      "ĠFather": 5186,
      "Ġ\\\\": 5187,
      "ervice": 5188,
      "Ġsym": 5189,
      "lands": 5190,
      "Ġaccepted": 5191,
      "century": 5192,
      "Ġafraid": 5193,
      ",'": 5194,
      "57": 5195,
      "ees": 5196,
      "lib": 5197,
      "win": 5198,
      "Î¸": 5199,
      "alid": 5200,
      "Ġdu": 5201,
      "Ġult": 5202,
      "Ġrat": 5203,
      "unning": 5204,
      "Ġlargest": 5205,
      "Ġapprox": 5206,
      "ĠAdam": 5207,
      "ĠCalifornia": 5208,
      "Ġburst": 5209,
      "Ġutil": 5210,
      "ategory": 5211,
      "Com": 5212,
      "Line": 5213,
      "een": 5214,
      "uart": 5215,
      "zen": 5216,
      "âī": 5217,
      "icol": 5218,
      "omial": 5219,
      "igen": 5220,
      "char": 5221,
      "Ġ28": 5222,
      "onscious": 5223,
      "Ġtele": 5224,
      "Ġglad": 5225,
      "Ġvisits": 5226,
      "Ġrescue": 5227,
      "TA": 5228,
      "la": 5229,
      "mas": 5230,
      "Ġpapers": 5231,
      "Ġlock": 5232,
      "ĠMer": 5233,
      "ĠDef": 5234,
      "Ġspent": 5235,
      "Ġspring": 5236,
      "Ġminister": 5237,
      "ĠJohnson": 5238,
      "Ġsupported": 5239,
      "Ġapplications": 5240,
      "99": 5241,
      "noon": 5242,
      "Ġfurn": 5243,
      "Ġmob": 5244,
      "rie": 5245,
      "orthern": 5246,
      "Ġsail": 5247,
      "Ġkiller": 5248,
      "ĠWhite": 5249,
      "1999": 5250,
      "Ġresponsible": 5251,
      "row": 5252,
      "rise": 5253,
      "Ġsides": 5254,
      "Ġfresh": 5255,
      "Ġcart": 5256,
      "ctors": 5257,
      "ĠRet": 5258,
      "Ġvent": 5259,
      "ĠLove": 5260,
      "ĠOver": 5261,
      "Ġgrave": 5262,
      "Ġscenes": 5263,
      "Ġevident": 5264,
      "ĠYear": 5265,
      "Ġthrown": 5266,
      "ÂłÂłĊ": 5267,
      "Ġactors": 5268,
      "Ġturning": 5269,
      "Ġservices": 5270,
      "Ġaware": 5271,
      "ĠTechn": 5272,
      "Ġdrawing": 5273,
      "IA": 5274,
      "ping": 5275,
      "uild": 5276,
      "Ġfalse": 5277,
      "utation": 5278,
      "rible": 5279,
      "ĠWashington": 5280,
      "ĠFSM": 5281,
      "ĠGold": 5282,
      "ĠâĢ¢": 5283,
      "ĠJean": 5284,
      "Ġtruck": 5285,
      "outhern": 5286,
      "Ġunf": 5287,
      "Ġcompar": 5288,
      "Ġprepar": 5289,
      "Ġpoet": 5290,
      "ĠAnna": 5291,
      "2008": 5292,
      "bridge": 5293,
      "Ġwriter": 5294,
      "Ġsoldier": 5295,
      "Ġmovement": 5296,
      "Ġhighest": 5297,
      "ĠSupp": 5298,
      "Ġpackage": 5299,
      "Ġcomponent": 5300,
      "Ġexponential": 5301,
      "42": 5302,
      "OO": 5303,
      "gamma": 5304,
      "ho": 5305,
      "Ġtaught": 5306,
      "Ġpan": 5307,
      "Ġgar": 5308,
      "ĠHor": 5309,
      "ĠHall": 5310,
      "ĠDec": 5311,
      "ĠJun": 5312,
      "Ġ26": 5313,
      "Ġclothes": 5314,
      "Ġotherwise": 5315,
      "Ġflat": 5316,
      "Ġinstall": 5317,
      "Ġgreatest": 5318,
      "Ġcountries": 5319,
      "Ġhappens": 5320,
      "Ġmagnetic": 5321,
      "Ġfreed": 5322,
      "Ġreported": 5323,
      "Ġgeomet": 5324,
      ":\\": 5325,
      "ris": 5326,
      "Ġinqu": 5327,
      "Ġlangu": 5328,
      "Ġlaun": 5329,
      "Ġaspect": 5330,
      "ĠDE": 5331,
      "ĠFore": 5332,
      "Ġunless": 5333,
      "Ġmyst": 5334,
      "ĠUsing": 5335,
      "fty": 5336,
      "Ġstranger": 5337,
      "Ġhappen": 5338,
      "Ġconvinc": 5339,
      "Ġjoined": 5340,
      "Ġcritical": 5341,
      "Ġdrug": 5342,
      "Ġsafety": 5343,
      "ĠProfessor": 5344,
      "ĠEddie": 5345,
      "IX": 5346,
      "nes": 5347,
      "lem": 5348,
      "Ġconclud": 5349,
      "actor": 5350,
      "Ġcontract": 5351,
      "Ġobvious": 5352,
      "Ġfeed": 5353,
      "ĠIsrael": 5354,
      "Ġmaintain": 5355,
      "Ġprior": 5356,
      "Ġsignificant": 5357,
      "Ġopinion": 5358,
      "mi": 5359,
      "heart": 5360,
      "ouri": 5361,
      "static": 5362,
      "ushes": 5363,
      "ĠLife": 5364,
      "Ġproof": 5365,
      "Ġprogress": 5366,
      "Ġenters": 5367,
      "ucky": 5368,
      "Ġvoid": 5369,
      "ĠFranklin": 5370,
      "ĠSystem": 5371,
      "Ġdetails": 5372,
      "ĠCompany": 5373,
      "ĠAcademy": 5374,
      "Ġwealthy": 5375,
      "Ġopportunity": 5376,
      ")$$": 5377,
      "after": 5378,
      "tes": 5379,
      "works": 5380,
      "isions": 5381,
      "Ġhol": 5382,
      "sters": 5383,
      "ĠSocrates": 5384,
      "ĠMo": 5385,
      "illing": 5386,
      "unch": 5387,
      "ĠJake": 5388,
      "Ġlect": 5389,
      "Ġdesire": 5390,
      "erved": 5391,
      "Ġ2002": 5392,
      "Ġcenter": 5393,
      "Ġbelieved": 5394,
      "Ġgrowing": 5395,
      "Ġwalking": 5396,
      "Ġexecute": 5397,
      "Ġsurprise": 5398,
      "date": 5399,
      "rint": 5400,
      "Ġtears": 5401,
      "Ġmel": 5402,
      "Ġmoon": 5403,
      "icago": 5404,
      "âĢ¦": 5405,
      "ĠTurk": 5406,
      "ĠFig": 5407,
      "Ġlose": 5408,
      "izations": 5409,
      "Ġresol": 5410,
      "ĠScot": 5411,
      "Ġsimpl": 5412,
      "Ġreceives": 5413,
      "Ġarrived": 5414,
      "Ġofficers": 5415,
      "Ġnearby": 5416,
      "Ġmotion": 5417,
      "Ġpreviously": 5418,
      "Ġsuggests": 5419,
      "ĠRepublic": 5420,
      "Ġneighbor": 5421,
      "Ġcircumst": 5422,
      "Le": 5423,
      "ML": 5424,
      "isp": 5425,
      "Ġcru": 5426,
      "ora": 5427,
      "ĠBack": 5428,
      "ĠLos": 5429,
      "ella": 5430,
      "formation": 5431,
      "Ġaccur": 5432,
      "Ġ2004": 5433,
      "Ġtransition": 5434,
      "Ġassass": 5435,
      "Ġpersons": 5436,
      "Ġdegrees": 5437,
      "Ġconnection": 5438,
      "ĠQueen": 5439,
      "Cont": 5440,
      "De": 5441,
      "cat": 5442,
      "pass": 5443,
      "ĠâĪ": 5444,
      "Ġtrib": 5445,
      "Ġboss": 5446,
      "Ġtour": 5447,
      "elly": 5448,
      "Ġconstr": 5449,
      "ĠLin": 5450,
      "ĠJon": 5451,
      "ocol": 5452,
      "ĠUpon": 5453,
      "ighter": 5454,
      "Ġedges": 5455,
      "Ġexamples": 5456,
      "ĠComput": 5457,
      "Ġphone": 5458,
      "Ġsteam": 5459,
      "Ġmoves": 5460,
      "Ġviews": 5461,
      "Ġoption": 5462,
      "Ġrepresented": 5463,
      "Ġpredict": 5464,
      "claimed": 5465,
      "bon": 5466,
      "Ġghost": 5467,
      "hers": 5468,
      "chron": 5469,
      "ĠFFT": 5470,
      "ĠEduc": 5471,
      "ustring": 5472,
      "ĠYes": 5473,
      "Ġ2017": 5474,
      "string": 5475,
      "Ġstarting": 5476,
      "Ġfallen": 5477,
      "Ġhardly": 5478,
      "Ġstatement": 5479,
      "Ġprotect": 5480,
      "Ġmarket": 5481,
      "Ġjournal": 5482,
      "ĠSecret": 5483,
      "Ġmountain": 5484,
      "Ġcoefficient": 5485,
      "Ġhouses": 5486,
      "fg": 5487,
      "kin": 5488,
      "pack": 5489,
      "Ġfro": 5490,
      "Ġinh": 5491,
      "Ġdriving": 5492,
      "Ġdiamond": 5493,
      "Ġnice": 5494,
      "acle": 5495,
      "ĠWat": 5496,
      "ĠFinally": 5497,
      "ĠRel": 5498,
      "Ġexhib": 5499,
      "Ġscore": 5500,
      "ĠItalian": 5501,
      "Ġmonad": 5502,
      "Ġappropri": 5503,
      "Ġorigin": 5504,
      "Ġbroke": 5505,
      "Ġmedia": 5506,
      "Ġwinter": 5507,
      "ocratic": 5508,
      "Ġcopy": 5509,
      "Ġquantum": 5510,
      "Ġromantic": 5511,
      "SE": 5512,
      "Ġthee": 5513,
      "Ġtherm": 5514,
      "icated": 5515,
      "Ġnarrow": 5516,
      "ĠDuc": 5517,
      "Ġride": 5518,
      "Ġrise": 5519,
      "ĠFe": 5520,
      "Ġvel": 5521,
      "actions": 5522,
      "ĠChicago": 5523,
      "Ġflight": 5524,
      "Ġsymp": 5525,
      "azz": 5526,
      "show": 5527,
      "ĠTherefore": 5528,
      "Ġrevol": 5529,
      "True": 5530,
      "********": 5531,
      "$;": 5532,
      "EX": 5533,
      "En": 5534,
      "label": 5535,
      "tered": 5536,
      "Ġfaces": 5537,
      "leep": 5538,
      "about": 5539,
      "Ġexerc": 5540,
      "ĠEvent": 5541,
      "oviet": 5542,
      "Ġcommitted": 5543,
      "appy": 5544,
      "Ġteen": 5545,
      "Ġactor": 5546,
      "Ġexpressed": 5547,
      "Ġpossibly": 5548,
      "Ġanswers": 5549,
      "Ġcells": 5550,
      "aniel": 5551,
      "Ġmentioned": 5552,
      "Ġoblig": 5553,
      "cm": 5554,
      "Ġpil": 5555,
      "Ġpark": 5556,
      "riff": 5557,
      "ĠBet": 5558,
      "abase": 5559,
      "ĠRachel": 5560,
      "ĠNone": 5561,
      "inda": 5562,
      "ĠAsh": 5563,
      "Ġpresident": 5564,
      "Ġpersu": 5565,
      "Ġguess": 5566,
      "Ġlayer": 5567,
      "Ġwatching": 5568,
      "Ġrules": 5569,
      "chen": 5570,
      "nam": 5571,
      "pite": 5572,
      "Ġsick": 5573,
      "Ġcro": 5574,
      "Ġmode": 5575,
      "lease": 5576,
      "otic": 5577,
      "ĠSing": 5578,
      "https": 5579,
      "ĠJones": 5580,
      "berg": 5581,
      "Ġcompared": 5582,
      "Ġcontr": 5583,
      "theta": 5584,
      "Ġflash": 5585,
      "Ġreturning": 5586,
      "Ġregions": 5587,
      "Ġlocated": 5588,
      "ĠProt": 5589,
      "Ġprocessing": 5590,
      "Ġencour": 5591,
      "Ġinitially": 5592,
      "den": 5593,
      "Ġaunt": 5594,
      "anish": 5595,
      "Ġinstr": 5596,
      "Ġthin": 5597,
      "Ġlaid": 5598,
      "ĠList": 5599,
      "ĠLib": 5600,
      "oken": 5601,
      "Ġunits": 5602,
      "Ġcontroll": 5603,
      "Ġapplied": 5604,
      "Ġ2001": 5605,
      "Ġjustice": 5606,
      "anned": 5607,
      "Ġpossess": 5608,
      "Ġsolve": 5609,
      "Ġsolid": 5610,
      "Ġproposed": 5611,
      "Ġspeaking": 5612,
      "ĠCounty": 5613,
      "ĠDouglas": 5614,
      "IF": 5615,
      "don": 5616,
      "mes": 5617,
      "ĠÃĹ": 5618,
      "eries": 5619,
      "anation": 5620,
      "ĠAP": 5621,
      "Ġwhatever": 5622,
      "ulations": 5623,
      "ĠWood": 5624,
      "Ġvast": 5625,
      "Ġtrade": 5626,
      "Ġmanagement": 5627,
      "soft": 5628,
      "then": 5629,
      "Ġsubst": 5630,
      "encies": 5631,
      "Ġopposite": 5632,
      "Ġwalls": 5633,
      "}^{\\": 5634,
      "ealous": 5635,
      "Ġlaughed": 5636,
      "ĠVirgin": 5637,
      "Ġdollars": 5638,
      "(-": 5639,
      "61": 5640,
      "Can": 5641,
      "Ind": 5642,
      "size": 5643,
      "Ġbal": 5644,
      "ĠTim": 5645,
      "Ġgall": 5646,
      "ĠMem": 5647,
      "Ġareas": 5648,
      "ĠOffic": 5649,
      "ava": 5650,
      "Ġplat": 5651,
      "Ġdisapp": 5652,
      "Ġprote": 5653,
      "ĠMaria": 5654,
      "ĠGroup": 5655,
      "Ġsolutions": 5656,
      "Ġadvanced": 5657,
      "load": 5658,
      "Ġrespectively": 5659,
      "porary": 5660,
      "Ġadditional": 5661,
      "Ġobtained": 5662,
      "Ġfamiliar": 5663,
      "Or": 5664,
      "ooth": 5665,
      "itable": 5666,
      "Ġfix": 5667,
      "Ġded": 5668,
      "Ġdensity": 5669,
      "ashes": 5670,
      "Ġeager": 5671,
      "ĠAre": 5672,
      "Ġability": 5673,
      "ogue": 5674,
      "Ġcontext": 5675,
      "Ġended": 5676,
      "Ġcapital": 5677,
      "Ġelectron": 5678,
      "Ġintroduction": 5679,
      "Ġordinary": 5680,
      "ĠJimmy": 5681,
      "uzz": 5682,
      "det": 5683,
      "top": 5684,
      "Â¶": 5685,
      "Ġ!": 5686,
      "itiz": 5687,
      "Ġpaid": 5688,
      "Ġlying": 5689,
      "ĠSat": 5690,
      "urd": 5691,
      "odd": 5692,
      "ĠDis": 5693,
      "eman": 5694,
      "ĠFall": 5695,
      "Ġspin": 5696,
      "Ġroot": 5697,
      "Ġparties": 5698,
      "ĠBrad": 5699,
      "Ġconnect": 5700,
      "Ġimprove": 5701,
      "Ġaccompan": 5702,
      "Ġpregnant": 5703,
      "70": 5704,
      "90": 5705,
      "CHAPTER": 5706,
      "IL": 5707,
      "UD": 5708,
      "orry": 5709,
      "Ġdying": 5710,
      "Ġnative": 5711,
      "cean": 5712,
      "Ġrough": 5713,
      "isted": 5714,
      "ĠLew": 5715,
      "Ġspaces": 5716,
      "rete": 5717,
      "Ġdistingu": 5718,
      "Ġchildhood": 5719,
      "Ġrealize": 5720,
      "array": 5721,
      "riven": 5722,
      "Ġminute": 5723,
      "Ġresulting": 5724,
      "Ġputting": 5725,
      "ĠMinistry": 5726,
      "Ġconnected": 5727,
      "ipe": 5728,
      "mm": 5729,
      "Ġfirm": 5730,
      "Ġstret": 5731,
      "rial": 5732,
      "Ġrare": 5733,
      "Ġexists": 5734,
      "agg": 5735,
      "pping": 5736,
      "ogle": 5737,
      "ĠVol": 5738,
      "ĠUse": 5739,
      "ĠUnder": 5740,
      "ructions": 5741,
      "ailed": 5742,
      "Ġrecomm": 5743,
      "ĠConn": 5744,
      "Ġradio": 5745,
      "Ġlimited": 5746,
      "Ġutter": 5747,
      "Ġsoftware": 5748,
      "Ġreligious": 5749,
      "Ġbenef": 5750,
      "cel": 5751,
      "ker": 5752,
      "language": 5753,
      "Ġtal": 5754,
      "Ġwest": 5755,
      "Ġpp": 5756,
      "ĠMany": 5757,
      "Ġseat": 5758,
      "ĠRem": 5759,
      "Ġshape": 5760,
      "Ġcouldn": 5761,
      "type": 5762,
      "Ġpasseng": 5763,
      "Ġexplained": 5764,
      "ĠPrincess": 5765,
      "Ġguns": 5766,
      "ictionary": 5767,
      "Ġcollection": 5768,
      "Ġsongs": 5769,
      "transfer": 5770,
      "Ġpotential": 5771,
      "ĠJoseph": 5772,
      "har": 5773,
      "Ġhorses": 5774,
      "Ġlips": 5775,
      "iments": 5776,
      "ĠSP": 5777,
      "ĠSant": 5778,
      "urther": 5779,
      "ĠBook": 5780,
      "ĠDig": 5781,
      "Ġtroub": 5782,
      "Ġworse": 5783,
      "ĠUN": 5784,
      "uced": 5785,
      "Ġdise": 5786,
      "clock": 5787,
      "Ġrecently": 5788,
      "Ġmatters": 5789,
      "Ġthoughts": 5790,
      "Ġstands": 5791,
      "Ġholds": 5792,
      "Ġdesigned": 5793,
      "Ġbasic": 5794,
      "Ġaccidentally": 5795,
      "Ġsaved": 5796,
      "cdot": 5797,
      "Citation": 5798,
      "hai": 5799,
      "last": 5800,
      "mid": 5801,
      "Ġ</": 5802,
      "includ": 5803,
      "Ġwishes": 5804,
      "etime": 5805,
      "ĠCong": 5806,
      "ĠRoman": 5807,
      "ĠOff": 5808,
      "ĠVan": 5809,
      "Ġwouldn": 5810,
      "expected": 5811,
      "Ġdesper": 5812,
      "Ġregression": 5813,
      "Ġconflict": 5814,
      "Ġelder": 5815,
      "standing": 5816,
      "Ġkeeps": 5817,
      "ĠPolice": 5818,
      "Ġdreams": 5819,
      "Ġbeside": 5820,
      "Ġcabin": 5821,
      "ĠSusan": 5822,
      "when": 5823,
      "erted": 5824,
      "Ġwel": 5825,
      "Ġmaid": 5826,
      "Ġpet": 5827,
      "ĠPri": 5828,
      "Ġnotes": 5829,
      "Ġeval": 5830,
      "Ġthanks": 5831,
      "Ġunderstood": 5832,
      "Ġdecre": 5833,
      "arring": 5834,
      "Ġexplos": 5835,
      "Ġphase": 5836,
      "const": 5837,
      "Ġelection": 5838,
      "Ġideal": 5839,
      "Ġbasis": 5840,
      "ĠHarley": 5841,
      "ĠSuper": 5842,
      "ĠAfrican": 5843,
      "Ġnewspaper": 5844,
      "bered": 5845,
      "pace": 5846,
      "Ġwounded": 5847,
      "itar": 5848,
      "Ġegg": 5849,
      "Ġreun": 5850,
      "utch": 5851,
      "ĠMost": 5852,
      "ĠHaw": 5853,
      "ements": 5854,
      "acks": 5855,
      "ĠKhan": 5856,
      "Ġgoal": 5857,
      "Ġafternoon": 5858,
      "Ġreluct": 5859,
      "Ġdetection": 5860,
      "Ġcompleted": 5861,
      "ĠJohnny": 5862,
      "ART": 5863,
      "Ġelectric": 5864,
      "Ġfortune": 5865,
      "abbits": 5866,
      "Ġcandid": 5867,
      "Ġabsolute": 5868,
      "Ġschol": 5869,
      "ran": 5870,
      "ala": 5871,
      "Ġdry": 5872,
      "Ġliber": 5873,
      "ĠSpec": 5874,
      "olen": 5875,
      "Ġstuff": 5876,
      "ĠHill": 5877,
      "odies": 5878,
      "umes": 5879,
      "Ġshout": 5880,
      "ĠNav": 5881,
      "Ġsufficient": 5882,
      "orted": 5883,
      "Ġapart": 5884,
      "Ġinforms": 5885,
      "Ġbreaking": 5886,
      "orris": 5887,
      "Ġsuggested": 5888,
      "Ġdiag": 5889,
      "ĠHelen": 5890,
      "ĠRoyal": 5891,
      "Ġsurround": 5892,
      "ĠJacob": 5893,
      "VD": 5894,
      "uated": 5895,
      "uals": 5896,
      "Ġtone": 5897,
      "inent": 5898,
      "Ġsne": 5899,
      "Ġwins": 5900,
      "import": 5901,
      "ĠAv": 5902,
      "ĠDoc": 5903,
      "ĠStat": 5904,
      "Ġtwice": 5905,
      "Ġremoved": 5906,
      "Ġpurch": 5907,
      "Ġpleasure": 5908,
      "Ġstops": 5909,
      "Ġengaged": 5910,
      "Ġprograms": 5911,
      "color": 5912,
      "Ġdestroyed": 5913,
      "Ġprepared": 5914,
      "Ġdigital": 5915,
      "Ġcomponents": 5916,
      "Ġtheorem": 5917,
      "Ġlanguages": 5918,
      "NR": 5919,
      "Name": 5920,
      "RA": 5921,
      "aign": 5922,
      "Ġsen": 5923,
      "Ġbow": 5924,
      "orial": 5925,
      "Ġhill": 5926,
      "Ġdaily": 5927,
      "Ġthirty": 5928,
      "adem": 5929,
      "urse": 5930,
      "ĠNC": 5931,
      "ocal": 5932,
      "Ġmanage": 5933,
      "aret": 5934,
      "Ġdecision": 5935,
      "2005": 5936,
      "atically": 5937,
      "Ġmedical": 5938,
      "Ġhonest": 5939,
      "Ġprofessional": 5940,
      "Ġliterature": 5941,
      "Ġstruggle": 5942,
      "Ġculture": 5943,
      "Ġsacrif": 5944,
      "ĠEventually": 5945,
      "nof": 5946,
      "onic": 5947,
      "Ġwis": 5948,
      "isation": 5949,
      "ĠSind": 5950,
      "ĠMah": 5951,
      "Ġrank": 5952,
      "osh": 5953,
      "Ġjealous": 5954,
      "clusion": 5955,
      "Ġspr": 5956,
      "ĠYet": 5957,
      "Ġtransport": 5958,
      "ĠAndrew": 5959,
      "Ġvisual": 5960,
      "Ġparticles": 5961,
      "Ġexcell": 5962,
      "Ġgradient": 5963,
      "partial": 5964,
      "inema": 5965,
      "nofollow": 5966,
      "IM": 5967,
      "Post": 5968,
      "cut": 5969,
      "fall": 5970,
      "Ġ^": 5971,
      "Ġsed": 5972,
      "Ġsand": 5973,
      "Ġcow": 5974,
      "Ġcous": 5975,
      "Ġmole": 5976,
      "level": 5977,
      "Ġnation": 5978,
      "elve": 5979,
      "ĠSil": 5980,
      "ĠPo": 5981,
      "ĠFound": 5982,
      "Ġuns": 5983,
      "ishment": 5984,
      "force": 5985,
      "ĠYour": 5986,
      "merc": 5987,
      "Ġblind": 5988,
      "Ġdescend": 5989,
      "Ġacting": 5990,
      "Ġmostly": 5991,
      "Ġcorrel": 5992,
      "Ġsinging": 5993,
      "Ġ1990": 5994,
      "Ġphysics": 5995,
      "Ġshooting": 5996,
      "Ġfavour": 5997,
      "Ġinternational": 5998,
      "fghan": 5999,
      "88": 6000,
      "From": 6001,
      "eq": 6002,
      "Ġactions": 6003,
      "Ġflying": 6004,
      "Ġcard": 6005,
      "ĠSoviet": 6006,
      "ĠCast": 6007,
      "iform": 6008,
      "angers": 6009,
      "Ġclient": 6010,
      "Ġnoble": 6011,
      "ewart": 6012,
      "onto": 6013,
      "Ġactive": 6014,
      "omething": 6015,
      "Ġglance": 6016,
      "Ġfrequency": 6017,
      "bor": 6018,
      "jection": 6019,
      "pet": 6020,
      "war": 6021,
      "Ġfish": 6022,
      "Ġstor": 6023,
      "ĠTheatre": 6024,
      "ĠBrian": 6025,
      "Ġlev": 6026,
      "oked": 6027,
      "âĢĶâĢĿ": 6028,
      "anges": 6029,
      "Ġtea": 6030,
      "Ġputs": 6031,
      "Ġservant": 6032,
      "Ġencounter": 6033,
      "Ġrecorded": 6034,
      "Ġchoose": 6035,
      "Ġlogic": 6036,
      "Ġpressure": 6037,
      "ĠEducation": 6038,
      "Fr": 6039,
      "HT": 6040,
      "can": 6041,
      "ipl": 6042,
      "iency": 6043,
      "hent": 6044,
      "stra": 6045,
      "ira": 6046,
      "ĠPy": 6047,
      "ĠPublic": 6048,
      "Ġyield": 6049,
      "Ġafterwards": 6050,
      "Ġhandle": 6051,
      "aware": 6052,
      "Ġsubsequ": 6053,
      "2009": 6054,
      "rightarrow": 6055,
      "Ġpasses": 6056,
      "comm": 6057,
      "Ġsupply": 6058,
      "Ġplayer": 6059,
      "Ġrespond": 6060,
      "ĠCalcul": 6061,
      "Ġanimals": 6062,
      "Ġmurdered": 6063,
      "dim": 6064,
      "tag": 6065,
      "Ġdiver": 6066,
      "eline": 6067,
      "Ġgaz": 6068,
      "ĠRog": 6069,
      "ĠGil": 6070,
      "Ġchase": 6071,
      "ĠOur": 6072,
      "ĠOld": 6073,
      "ults": 6074,
      "Ġcoat": 6075,
      "ĠArts": 6076,
      "eeper": 6077,
      "2006": 6078,
      "Ġstudio": 6079,
      "Ġ1999": 6080,
      "Ġunderstanding": 6081,
      "Ġoccurred": 6082,
      "Ġwoods": 6083,
      "Ġdemands": 6084,
      "Ġexchange": 6085,
      "56": 6086,
      "aire": 6087,
      "rons": 6088,
      "writ": 6089,
      "onom": 6090,
      "ĠTV": 6091,
      "aming": 6092,
      "amber": 6093,
      "Ġatom": 6094,
      "osen": 6095,
      "Ġshock": 6096,
      "Ġsharp": 6097,
      "Ġneare": 6098,
      "ĠStan": 6099,
      "Ġthank": 6100,
      "Ġcoach": 6101,
      "ĠAnother": 6102,
      "Ġinstant": 6103,
      "Ġfrag": 6104,
      "eneath": 6105,
      "Ġarrange": 6106,
      "Ġincreased": 6107,
      "Ġunconscious": 6108,
      "New": 6109,
      "Ret": 6110,
      "case": 6111,
      "rical": 6112,
      "Ġ~": 6113,
      "Ġhast": 6114,
      "Ġmicro": 6115,
      "ĠSon": 6116,
      "ola": 6117,
      "ĠCup": 6118,
      "tering": 6119,
      "ĠHome": 6120,
      "Ġanx": 6121,
      "uman": 6122,
      "ĠWestern": 6123,
      "ĠLog": 6124,
      "Ġlegend": 6125,
      "Ġtrail": 6126,
      "Ġindex": 6127,
      "Ġsynt": 6128,
      "Ġapply": 6129,
      "Ġfinanc": 6130,
      "Ġleaders": 6131,
      "Ġcurrently": 6132,
      "Ġtools": 6133,
      "ĠAssoc": 6134,
      "ĠCourse": 6135,
      "matrix": 6136,
      "Ġcontrast": 6137,
      "((": 6138,
      "Eng": 6139,
      "SF": 6140,
      "Â°": 6141,
      "atural": 6142,
      "itan": 6143,
      "Ġmal": 6144,
      "Ġdrew": 6145,
      "ĠTw": 6146,
      "Ġgames": 6147,
      "Ġgarden": 6148,
      "ĠSher": 6149,
      "Ġstolen": 6150,
      "umph": 6151,
      "ĠRock": 6152,
      "ĠLy": 6153,
      "Ġcomplic": 6154,
      "ĠGre": 6155,
      "ello": 6156,
      "cccc": 6157,
      "ruit": 6158,
      "ugh": 6159,
      "Ġentertain": 6160,
      "Ġgenerate": 6161,
      "Ġinsp": 6162,
      "Ġcorrupt": 6163,
      "Ġvision": 6164,
      "Ġmotor": 6165,
      "doi": 6166,
      "ĠSecond": 6167,
      "Ġsurprised": 6168,
      "ĠDespite": 6169,
      "looking": 6170,
      "Ġslightly": 6171,
      "Ġindustry": 6172,
      "allel": 6173,
      "ĠOxford": 6174,
      "Ti": 6175,
      "[\\": 6176,
      "das": 6177,
      "ĠSund": 6178,
      "ĠMur": 6179,
      "aylor": 6180,
      "ĠHT": 6181,
      "unic": 6182,
      "ĠHeat": 6183,
      "Ġtriangle": 6184,
      "comple": 6185,
      "Ġkeeping": 6186,
      "Ġmistake": 6187,
      "ĠIrish": 6188,
      "Set": 6189,
      "Ġtab": 6190,
      "Ġaid": 6191,
      "Ġcos": 6192,
      "eling": 6193,
      "ĠTony": 6194,
      "ĠHal": 6195,
      "Ġanimal": 6196,
      "anging": 6197,
      "Ġadop": 6198,
      "Ġresources": 6199,
      "Ġspite": 6200,
      "Ġplayers": 6201,
      "Ġwindows": 6202,
      "Ġadvice": 6203,
      "Ġoptim": 6204,
      "Ġfootball": 6205,
      "Ġsettle": 6206,
      "Ġequivalent": 6207,
      "'.": 6208,
      "52": 6209,
      "Be": 6210,
      "fig": 6211,
      "length": 6212,
      "were": 6213,
      "orph": 6214,
      "Ġmerc": 6215,
      "Ġpages": 6216,
      "ĠTex": 6217,
      "Ġstaff": 6218,
      "ĠBuck": 6219,
      "Ġproport": 6220,
      "Ġchannel": 6221,
      "eping": 6222,
      "Ġpray": 6223,
      "Ġremove": 6224,
      "Ġeditor": 6225,
      "coming": 6226,
      "Ġlabor": 6227,
      "Ġpieces": 6228,
      "ĠSolutions": 6229,
      "ĠLewis": 6230,
      "SI": 6231,
      "ban": 6232,
      "Ġtort": 6233,
      "isms": 6234,
      "etch": 6235,
      "ĠBecause": 6236,
      "Ġwear": 6237,
      "anghai": 6238,
      "Ġpartner": 6239,
      "ĠItaly": 6240,
      "Ġgeneration": 6241,
      "Ġcurve": 6242,
      "Ġasking": 6243,
      "2011": 6244,
      "ĠColonel": 6245,
      "Ġveh": 6246,
      "Ġmaterials": 6247,
      "Ġflee": 6248,
      "97": 6249,
      "ga": 6250,
      "kind": 6251,
      "ville": 6252,
      "yer": 6253,
      "Ġbinary": 6254,
      "urally": 6255,
      "ĠFind": 6256,
      "Ġvac": 6257,
      "ĠGer": 6258,
      "resents": 6259,
      "ĠEach": 6260,
      "ĠNet": 6261,
      "ells": 6262,
      "ĠOl": 6263,
      "oking": 6264,
      "Ġgrass": 6265,
      "Ġunivers": 6266,
      "icken": 6267,
      "Ġ2003": 6268,
      "ducer": 6269,
      "Ġcourage": 6270,
      "ĠGrant": 6271,
      "Ġcentre": 6272,
      "Ġbitter": 6273,
      "Ġmarked": 6274,
      "ĠAlexand": 6275,
      "rishna": 6276,
      "Ġconvinced": 6277,
      "Mr": 6278,
      "RAN": 6279,
      "circ": 6280,
      "lar": 6281,
      "Ġdread": 6282,
      "Ġreaction": 6283,
      "ĠMen": 6284,
      "ĠMount": 6285,
      "abled": 6286,
      "Ġmanager": 6287,
      "grad": 6288,
      "Ġinvalid": 6289,
      "2007": 6290,
      "Ġoriginally": 6291,
      "Ġfails": 6292,
      "Ġcontinuous": 6293,
      "Ġanti": 6294,
      "alpha": 6295,
      "fortunately": 6296,
      "Ġepisode": 6297,
      "Ġfigures": 6298,
      "51": 6299,
      "Se": 6300,
      "gent": 6301,
      "mark": 6302,
      "title": 6303,
      "ye": 6304,
      "Ġfright": 6305,
      "entially": 6306,
      "ami": 6307,
      "iday": 6308,
      "Ġvess": 6309,
      "iece": 6310,
      "Ġproved": 6311,
      "ishop": 6312,
      "ulture": 6313,
      "clus": 6314,
      "Ġprefer": 6315,
      "ometimes": 6316,
      "mathcal": 6317,
      "Ġdeaths": 6318,
      "INE": 6319,
      "param": 6320,
      "Ġaffection": 6321,
      "Ġassistant": 6322,
      "ĠAngeles": 6323,
      "ĠStephen": 6324,
      "Ġaccompl": 6325,
      "53": 6326,
      "98": 6327,
      "Col": 6328,
      "LI": 6329,
      "requ": 6330,
      "Ġbath": 6331,
      "Ġcig": 6332,
      "ĠIre": 6333,
      "ros": 6334,
      "section": 6335,
      "rip": 6336,
      "ulous": 6337,
      "umps": 6338,
      "ĠDan": 6339,
      "ĠData": 6340,
      "istical": 6341,
      "ĠNick": 6342,
      "ĠKh": 6343,
      "ĠKong": 6344,
      "Ġloop": 6345,
      "Ġgrace": 6346,
      "them": 6347,
      "Ġremind": 6348,
      "Ġrepresents": 6349,
      "ĠMarie": 6350,
      "Ġboyfriend": 6351,
      "Ġsinger": 6352,
      "Ġsword": 6353,
      "Ġhandsome": 6354,
      "Ġtracks": 6355,
      "Ġperfectly": 6356,
      "Ġconfronts": 6357,
      "ĠRussian": 6358,
      "Ġdangerous": 6359,
      "Ġpolicy": 6360,
      "Ġnumerous": 6361,
      "Ġefficient": 6362,
      "ĠOpenAFS": 6363,
      "Ġfreedom": 6364,
      ")]": 6365,
      "54": 6366,
      "Ph": 6367,
      "iable": 6368,
      "nu": 6369,
      "would": 6370,
      "Ġwand": 6371,
      "athered": 6372,
      "aron": 6373,
      "Ġdust": 6374,
      "Ġnine": 6375,
      "igan": 6376,
      "Ġstorm": 6377,
      "Ġselect": 6378,
      "agers": 6379,
      "avan": 6380,
      "Ġgrown": 6381,
      "Ġadapt": 6382,
      "ultural": 6383,
      "iano": 6384,
      "Ġseek": 6385,
      "Ġ2015": 6386,
      "ĠGrace": 6387,
      "Ġcheer": 6388,
      "2012": 6389,
      "Ġpriest": 6390,
      "Ġoxidation": 6391,
      "Ġactivities": 6392,
      "Plot": 6393,
      "ĠCongress": 6394,
      "EE": 6395,
      "aver": 6396,
      "nomial": 6397,
      "world": 6398,
      "Ġfier": 6399,
      "Ġgate": 6400,
      "Ġbeach": 6401,
      "olan": 6402,
      "ĠMult": 6403,
      "Ġvir": 6404,
      "Ġkit": 6405,
      "ĠEqu": 6406,
      "Ġbranch": 6407,
      "Ġending": 6408,
      "Ġconsists": 6409,
      "ĠAnaly": 6410,
      "Ġshoulder": 6411,
      "Ġmetal": 6412,
      "Ġfunctional": 6413,
      "Ġglobal": 6414,
      "Ġincident": 6415,
      "block": 6416,
      "Ġsilver": 6417,
      "Ġsteal": 6418,
      "Ġincreasing": 6419,
      "Ġdropped": 6420,
      "Ġprincipal": 6421,
      "Ġsuitable": 6422,
      "ĠEngineering": 6423,
      "Ġhazard": 6424,
      "UR": 6425,
      "Where": 6426,
      "fers": 6427,
      "ja": 6428,
      "vis": 6429,
      "Ġsamples": 6430,
      "Ġhole": 6431,
      "Ġhaven": 6432,
      "Ġdressed": 6433,
      "asp": 6434,
      "elle": 6435,
      "ĠTi": 6436,
      "ĠTop": 6437,
      "ĠSal": 6438,
      "ĠAh": 6439,
      "ĠRome": 6440,
      "quer": 6441,
      "Ġchosen": 6442,
      "udget": 6443,
      "Ġjail": 6444,
      "ĠUncle": 6445,
      "ĠLeon": 6446,
      "Ġdivided": 6447,
      "Ġjoins": 6448,
      "Ġextremely": 6449,
      "ĠWilson": 6450,
      "Ġrapidly": 6451,
      "Ah": 6452,
      "CH": 6453,
      "Int": 6454,
      "UM": 6455,
      "faces": 6456,
      "split": 6457,
      "iner": 6458,
      "Ġfired": 6459,
      "ashed": 6460,
      "Ġstd": 6461,
      "ching": 6462,
      "emon": 6463,
      "Ġsevere": 6464,
      "Ġjudge": 6465,
      "ittee": 6466,
      "Ġbridge": 6467,
      "iana": 6468,
      "evin": 6469,
      "Ġcurious": 6470,
      "Ġcorre": 6471,
      "attered": 6472,
      "2013": 6473,
      "Ġcentral": 6474,
      "Ġdeliver": 6475,
      "AND": 6476,
      "Ġproperly": 6477,
      "isco": 6478,
      "ĠCarol": 6479,
      "Ġregarded": 6480,
      "ijay": 6481,
      "Ġefforts": 6482,
      "rieved": 6483,
      "Ġsons": 6484,
      "Ġhabit": 6485,
      "aned": 6486,
      "Ġdomin": 6487,
      "Ġlord": 6488,
      "imp": 6489,
      "imation": 6490,
      "ĠAut": 6491,
      "roat": 6492,
      "igs": 6493,
      "Ġstock": 6494,
      "Ġyellow": 6495,
      "geant": 6496,
      "emp": 6497,
      "owned": 6498,
      "ĠStewart": 6499,
      "mann": 6500,
      "Ġinstruct": 6501,
      "Ġminor": 6502,
      "Ġoperator": 6503,
      "Ġrequires": 6504,
      "Ġ2020": 6505,
      "Ġmoments": 6506,
      "Ġhurt": 6507,
      "hetic": 6508,
      "ĠMethod": 6509,
      "Ġachieve": 6510,
      "ĠAccording": 6511,
      "ĠGovernment": 6512,
      "ðĿĶ": 6513,
      "80": 6514,
      "Fs": 6515,
      "box": 6516,
      "tl": 6517,
      "za": 6518,
      "Ġer": 6519,
      "Ġbought": 6520,
      "Ġmos": 6521,
      "Ġpocket": 6522,
      "icit": 6523,
      "icular": 6524,
      "Ġhearing": 6525,
      "ĠType": 6526,
      "imin": 6527,
      "acter": 6528,
      "ada": 6529,
      "ĠIS": 6530,
      "ĠBilly": 6531,
      "ifferent": 6532,
      "ĠLie": 6533,
      "Ġnoted": 6534,
      "arts": 6535,
      "Ġ32": 6536,
      "ĠPlato": 6537,
      "Ġassigned": 6538,
      "Ġfounded": 6539,
      "Ġdrag": 6540,
      "Ġpossession": 6541,
      "Ġclearly": 6542,
      "Ġpleasant": 6543,
      "system": 6544,
      "Ġhonor": 6545,
      "Ġprivile": 6546,
      "None": 6547,
      "ji": 6548,
      "Ġ}}": 6549,
      "Ġrival": 6550,
      "Ġtail": 6551,
      "Ġtaste": 6552,
      "inity": 6553,
      "input": 6554,
      "ĠSid": 6555,
      "ceived": 6556,
      "ĠPM": 6557,
      "ĠBal": 6558,
      "ifies": 6559,
      "istol": 6560,
      "Ġsegment": 6561,
      "ĠLat": 6562,
      "Ġshel": 6563,
      "Ġarrival": 6564,
      "Ġplots": 6565,
      "ikip": 6566,
      "ĠUK": 6567,
      "ĠUp": 6568,
      "Ġquality": 6569,
      "theless": 6570,
      "ankar": 6571,
      "arliam": 6572,
      "Ġseconds": 6573,
      "Ġrooms": 6574,
      "ORD": 6575,
      "Ġdarkness": 6576,
      "Ġcombined": 6577,
      "Ġcapture": 6578,
      "Ġwidow": 6579,
      "icrosoft": 6580,
      "Ġcompanion": 6581,
      "Ġvirtue": 6582,
      "Ġannounced": 6583,
      "Ġcircumstances": 6584,
      "ĠBradley": 6585,
      "ikipedia": 6586,
      "eer": 6587,
      "Ġcitiz": 6588,
      "Ġtouc": 6589,
      "Ġmix": 6590,
      "ĠSur": 6591,
      "Ġstick": 6592,
      "ĠBec": 6593,
      "than": 6594,
      "ĠFar": 6595,
      "ĠLarry": 6596,
      "Ġunexpected": 6597,
      "Ġnose": 6598,
      "Ġdiss": 6599,
      "Ġtwelve": 6600,
      "into": 6601,
      "Ġscream": 6602,
      "Ġsport": 6603,
      "2004": 6604,
      "Ġdefine": 6605,
      "Ġcrash": 6606,
      "Ġexplanation": 6607,
      "rolog": 6608,
      "Ġpatient": 6609,
      "Ġcommands": 6610,
      "Ġrecords": 6611,
      "Ġliked": 6612,
      "Ġsuperior": 6613,
      "Ġfrequently": 6614,
      "Ġcarrying": 6615,
      "Ġimplementation": 6616,
      "Ġbubble": 6617,
      "stackrel": 6618,
      "CON": 6619,
      "IP": 6620,
      "first": 6621,
      "mosp": 6622,
      "inf": 6623,
      "Ġwire": 6624,
      "Ġfate": 6625,
      "entr": 6626,
      "Ġreasons": 6627,
      "ĠHind": 6628,
      "ĠPas": 6629,
      "ĠBugs": 6630,
      "umed": 6631,
      "ĠDaniel": 6632,
      "ushing": 6633,
      "Ġselected": 6634,
      "ested": 6635,
      "ĠJudge": 6636,
      "Ġclust": 6637,
      "ĠVer": 6638,
      "Ġadjust": 6639,
      "olds": 6640,
      "awa": 6641,
      "ĠShanghai": 6642,
      "Ġincor": 6643,
      "ĠAtt": 6644,
      "Ġapproaches": 6645,
      "ĠEdward": 6646,
      "Ġprisoner": 6647,
      "ĠSimon": 6648,
      "Ġderiv": 6649,
      "Ġdomain": 6650,
      "Ġexcellent": 6651,
      "NT": 6652,
      "Note": 6653,
      "bro": 6654,
      "non": 6655,
      "Ġbeneath": 6656,
      "Ġfault": 6657,
      "Ġpit": 6658,
      "Ġpec": 6659,
      "Ġloses": 6660,
      "Ġnav": 6661,
      "Ġnerv": 6662,
      "Ġash": 6663,
      "rient": 6664,
      "aped": 6665,
      "ĠJeff": 6666,
      "Ġlegs": 6667,
      "Ġmanif": 6668,
      "aren": 6669,
      "Ġ1926": 6670,
      "Ġinternal": 6671,
      "Ġmodule": 6672,
      "Ġequip": 6673,
      "Ġelected": 6674,
      "ĠChristmas": 6675,
      "Ġcircle": 6676,
      "amental": 6677,
      "--------": 6678,
      "Ġoccupied": 6679,
      "Ġscientific": 6680,
      "ĠAfrica": 6681,
      "Ġlevels": 6682,
      "arliament": 6683,
      "().": 6684,
      "db": 6685,
      "found": 6686,
      "Ġbag": 6687,
      "Ġcities": 6688,
      "icious": 6689,
      "ĠSet": 6690,
      "ĠService": 6691,
      "ĠCath": 6692,
      "ĠCamp": 6693,
      "ĠHell": 6694,
      "ĠPDF": 6695,
      "una": 6696,
      "ĠNever": 6697,
      "agger": 6698,
      "ĠOb": 6699,
      "ĠOt": 6700,
      "ĠInstitute": 6701,
      "ĠChief": 6702,
      "Ġproud": 6703,
      "axis": 6704,
      "Ġvalid": 6705,
      "Ġreality": 6706,
      "Ġoperating": 6707,
      "Ġextent": 6708,
      "Ġbelief": 6709,
      "Ġabsor": 6710,
      "Ġconvinces": 6711,
      "Ġoccurs": 6712,
      "ĠHolland": 6713,
      "Ġproducts": 6714,
      "Ġhopes": 6715,
      "ĠInstead": 6716,
      "Ġvulner": 6717,
      "ĠVirginia": 6718,
      "63": 6719,
      "iples": 6720,
      "}=": 6721,
      "Ġtu": 6722,
      "Ġwise": 6723,
      "Ġfant": 6724,
      "Ġloud": 6725,
      "ĠAir": 6726,
      "ĠAfghan": 6727,
      "Ġforty": 6728,
      "ĠMorris": 6729,
      "Ġyes": 6730,
      "cho": 6731,
      "Ġ(?": 6732,
      "abbit": 6733,
      "ĠLand": 6734,
      "Ġcommerc": 6735,
      "Ġchamp": 6736,
      "Ġdogs": 6737,
      "asts": 6738,
      "iki": 6739,
      "Ġunh": 6740,
      "Ġthrows": 6741,
      "ĠArab": 6742,
      "Ġdetect": 6743,
      "Ġhelped": 6744,
      "Ġserve": 6745,
      "Ġdepartment": 6746,
      "ĠReprint": 6747,
      "Ġtreated": 6748,
      "Ġfamilies": 6749,
      "Ġconstructed": 6750,
      "Ġinterrupted": 6751,
      "Generic": 6752,
      "Ġinnocent": 6753,
      "ĠIreland": 6754,
      "(&": 6755,
      "++": 6756,
      "Go": 6757,
      "Mar": 6758,
      "_\\": 6759,
      "cing": 6760,
      "je": 6761,
      "yo": 6762,
      "ĠSoph": 6763,
      "ĠBre": 6764,
      "Ġexclaimed": 6765,
      "ĠKings": 6766,
      "Ġgray": 6767,
      "Ġjump": 6768,
      "Ġuniform": 6769,
      "their": 6770,
      "Ġfriendly": 6771,
      "Ġassign": 6772,
      "Ġassume": 6773,
      "ĠXXX": 6774,
      "Ġmonster": 6775,
      "Ġrights": 6776,
      "ĠOnly": 6777,
      "Ġlisten": 6778,
      "Ġaffect": 6779,
      "Ġdescript": 6780,
      "Ġmagic": 6781,
      "Ġ1980": 6782,
      "Ġstatistics": 6783,
      "Ġcreating": 6784,
      "Ġstructures": 6785,
      "Ġwatched": 6786,
      "Ġassumed": 6787,
      "Ġreferred": 6788,
      "Ġscheme": 6789,
      "Ġkitchen": 6790,
      "OW": 6791,
      "mind": 6792,
      "ned": 6793,
      "uh": 6794,
      "Ġcore": 6795,
      "stone": 6796,
      "ĠTen": 6797,
      "Ġeast": 6798,
      "ĠSpr": 6799,
      "ĠSaint": 6800,
      "Ġassemb": 6801,
      "ĠWater": 6802,
      "istor": 6803,
      "ĠLo": 6804,
      "Ġchap": 6805,
      "ĠOper": 6806,
      "Ġdisgu": 6807,
      "Ġwilling": 6808,
      "ollowing": 6809,
      "Ġvalley": 6810,
      "ĠXV": 6811,
      "lessly": 6812,
      "Ġartists": 6813,
      "Ġswitch": 6814,
      "Ġpropag": 6815,
      "Ġfailure": 6816,
      "Ġcommonly": 6817,
      "LES": 6818,
      "Ġdifficulty": 6819,
      "Ġromance": 6820,
      "Ġbehavi": 6821,
      "Ġprimary": 6822,
      "Ġchemical": 6823,
      "ĠKatie": 6824,
      "Ġplatform": 6825,
      "ĠFoundation": 6826,
      "ĠTexas": 6827,
      "sl": 6828,
      "Ġ`": 6829,
      "rehen": 6830,
      "Ġsplit": 6831,
      "oras": 6832,
      "arian": 6833,
      "Ġltl": 6834,
      "ĠTime": 6835,
      "Ġgiant": 6836,
      "ĠSD": 6837,
      "ĠMas": 6838,
      "ĠMir": 6839,
      "Ġstated": 6840,
      "ĠPak": 6841,
      "ĠLiber": 6842,
      "Ġbrown": 6843,
      "Ġamaz": 6844,
      "Ġ40": 6845,
      "ĠAlbert": 6846,
      "ĠAndre": 6847,
      "ĠShort": 6848,
      "ĠWho": 6849,
      "Ġcreation": 6850,
      "ĠProble": 6851,
      "Ġestate": 6852,
      "space": 6853,
      "Ġdeclared": 6854,
      "Ġreviews": 6855,
      "Ġagreed": 6856,
      "Ġabandoned": 6857,
      "Ġthermal": 6858,
      "Ġcousin": 6859,
      ".[": 6860,
      "fast": 6861,
      "wr": 6862,
      "Ġtong": 6863,
      "only": 6864,
      "Ġbodies": 6865,
      "ĠĠĠĠĠĠĠĠĠĠĠ": 6866,
      "Ġlosing": 6867,
      "uten": 6868,
      "ĠSara": 6869,
      "ĠSOL": 6870,
      "ĠCu": 6871,
      "Ġatmosp": 6872,
      "Ġrabbits": 6873,
      "ĠRE": 6874,
      "Ġexception": 6875,
      "ĠEric": 6876,
      "Ġweather": 6877,
      "onder": 6878,
      "ensional": 6879,
      "Ġbegun": 6880,
      "ugg": 6881,
      "Ġreply": 6882,
      "Ġgenerated": 6883,
      "Ġfacts": 6884,
      "ĠProv": 6885,
      "Ġrestaur": 6886,
      "Ġreplaced": 6887,
      "Ġarguments": 6888,
      "Ġangle": 6889,
      "Ġseparated": 6890,
      "Ġdiscovery": 6891,
      "Ġraise": 6892,
      "ĠBarb": 6893,
      "ĠPhilip": 6894,
      "ĠLucy": 6895,
      "ĠJesus": 6896,
      "Ġconfiguration": 6897,
      "His": 6898,
      "bury": 6899,
      "Ġtheat": 6900,
      "Ġcm": 6901,
      "Ġdial": 6902,
      "ĠSuch": 6903,
      "ĠRy": 6904,
      "ĠLi": 6905,
      "Ġorph": 6906,
      "ĠNote": 6907,
      "open": 6908,
      "aved": 6909,
      "Ġplants": 6910,
      "Ġjew": 6911,
      "Ġunique": 6912,
      "ĠThough": 6913,
      "Ġresolution": 6914,
      "plex": 6915,
      "weight": 6916,
      "Ġcoff": 6917,
      "inking": 6918,
      "azine": 6919,
      "ĠShow": 6920,
      "Ġpassage": 6921,
      "ĠDecl": 6922,
      "Ġimportance": 6923,
      "Ġplanning": 6924,
      "Ġcalculator": 6925,
      "Ġ1970": 6926,
      "Ġversions": 6927,
      "Ġcarriage": 6928,
      "ĠCenter": 6929,
      "Ġcompetition": 6930,
      "']": 6931,
      "SC": 6932,
      "hus": 6933,
      "iations": 6934,
      "kes": 6935,
      "âĶ": 6936,
      "Ġ?": 6937,
      "Ġain": 6938,
      "Ġfancy": 6939,
      "orous": 6940,
      "Ġtoday": 6941,
      "Ġinher": 6942,
      "ĠTaylor": 6943,
      "ĠSoon": 6944,
      "ĠHarr": 6945,
      "ĠBud": 6946,
      "ĠDomin": 6947,
      "ocity": 6948,
      "eller": 6949,
      "okes": 6950,
      "usted": 6951,
      "ĠStand": 6952,
      "Ġagric": 6953,
      "Ġapprec": 6954,
      "psilon": 6955,
      "Ġtrial": 6956,
      "Ġbuff": 6957,
      "Ġcapacity": 6958,
      "Ġportion": 6959,
      "Ġintroduc": 6960,
      "Ġpolitics": 6961,
      "ĠMcC": 6962,
      "Ġdescribe": 6963,
      "ĠResearch": 6964,
      "Ġinvestigate": 6965,
      "Ġterrit": 6966,
      "Ġdisease": 6967,
      "ĠNCERT": 6968,
      "Ġfinancial": 6969,
      "dx": 6970,
      "iat": 6971,
      "mony": 6972,
      "ÏĪ": 6973,
      "Ġtick": 6974,
      "arg": 6975,
      "Ġhears": 6976,
      "Ġgathered": 6977,
      "utely": 6978,
      "ĠSn": 6979,
      "ĠSum": 6980,
      "Ġwithd": 6981,
      "Ġstability": 6982,
      "ĠHans": 6983,
      "ĠHundred": 6984,
      "Ġwasn": 6985,
      "ĠTheore": 6986,
      "odge": 6987,
      "agoras": 6988,
      "ĠKate": 6989,
      "ogram": 6990,
      "ĠIts": 6991,
      "Ġworkers": 6992,
      "Ġsmoke": 6993,
      "Ġreader": 6994,
      "ĠIndians": 6995,
      "Ġextended": 6996,
      "Ġperforming": 6997,
      "Ġdocuments": 6998,
      "ĠLaura": 6999,
      "Ġsuffering": 7000,
      "Ġdiscussion": 7001,
      "ĠAnton": 7002,
      "Ġquarter": 7003,
      "Ġconcerned": 7004,
      "Ġmystery": 7005,
      ".;": 7006,
      "92": 7007,
      "cross": 7008,
      "tical": 7009,
      "ws": 7010,
      "âŁ": 7011,
      "Ġsake": 7012,
      "Ġwished": 7013,
      "imer": 7014,
      "Ġreduced": 7015,
      "ĠSin": 7016,
      "amus": 7017,
      "ĠMP": 7018,
      "Ġgrows": 7019,
      "ika": 7020,
      "Ġsomewhere": 7021,
      "Ġsurvey": 7022,
      "Ġreflect": 7023,
      "Ġvariety": 7024,
      "Ġradiation": 7025,
      "Ġconcentr": 7026,
      "Ġordered": 7027,
      "ĠEliz": 7028,
      "Ġsettled": 7029,
      "Ġcampaign": 7030,
      "ĠCentral": 7031,
      "Ġsexual": 7032,
      "ĠToronto": 7033,
      "Ġweapons": 7034,
      "Ġphilosophy": 7035,
      "\";": 7036,
      ")*": 7037,
      "John": 7038,
      "erate": 7039,
      "itled": 7040,
      "Ġdriven": 7041,
      "ĠPan": 7042,
      "ĠBig": 7043,
      "ĠDick": 7044,
      "ĠDVD": 7045,
      "ĠWhere": 7046,
      "ĠFree": 7047,
      "ĠFBI": 7048,
      "quis": 7049,
      "estic": 7050,
      "ĠGet": 7051,
      "iven": 7052,
      "Ġpercent": 7053,
      "Ġattitude": 7054,
      "Ġblocks": 7055,
      "Ġapolog": 7056,
      "Ġsmooth": 7057,
      "ĠAlice": 7058,
      "Ġpointed": 7059,
      "Ġspecify": 7060,
      "Ġpaths": 7061,
      "Ġdivor": 7062,
      "Ġbringing": 7063,
      "stitution": 7064,
      "ĠCourt": 7065,
      "ĠMexico": 7066,
      "Ġpolynomial": 7067,
      "iates": 7068,
      "pat": 7069,
      "itors": 7070,
      "icans": 7071,
      "ilty": 7072,
      "Ġlake": 7073,
      "stairs": 7074,
      "ĠPop": 7075,
      "Ġalien": 7076,
      "ĠFour": 7077,
      "ĠLittle": 7078,
      "Ġbutton": 7079,
      "ĠKim": 7080,
      "ĠKore": 7081,
      "asty": 7082,
      "ĠChris": 7083,
      "Ġpresents": 7084,
      "console": 7085,
      "Ġparallel": 7086,
      "Ġlands": 7087,
      "Ġdescription": 7088,
      "ORE": 7089,
      "linear": 7090,
      "Ġpleased": 7091,
      "Ġplanet": 7092,
      "Ġbedroom": 7093,
      "ĠBaron": 7094,
      "Ġinvestigation": 7095,
      "Ġacquaint": 7096,
      "Ġextract": 7097,
      "ĠAssociation": 7098,
      "Gr": 7099,
      "Python": 7100,
      "bel": 7101,
      "mates": 7102,
      "uce": 7103,
      "zed": 7104,
      "infty": 7105,
      "Ġwine": 7106,
      "Ġban": 7107,
      "Ġhiding": 7108,
      "Ġmo": 7109,
      "Ġmath": 7110,
      "Ġgro": 7111,
      "etta": 7112,
      "ĠMass": 7113,
      "ĠCle": 7114,
      "ĠBern": 7115,
      "quar": 7116,
      "Ġnoticed": 7117,
      "osure": 7118,
      "Ġknife": 7119,
      "ĠThrough": 7120,
      "ĠPlan": 7121,
      "Ġactivity": 7122,
      "Ġrepro": 7123,
      "Ġexped": 7124,
      "upon": 7125,
      "Ġgreatly": 7126,
      "ounters": 7127,
      "Ġskin": 7128,
      "Ġmoral": 7129,
      "related": 7130,
      "ĠWalter": 7131,
      "Ġappropriate": 7132,
      "Ġadopted": 7133,
      "Jo": 7134,
      "Machine": 7135,
      "Per": 7136,
      "bold": 7137,
      "rd": 7138,
      "Ġow": 7139,
      "Ġmixed": 7140,
      "ĠAk": 7141,
      "ida": 7142,
      "Ġstable": 7143,
      "ĠHig": 7144,
      "ĠPict": 7145,
      "ĠBay": 7146,
      "ĠDanny": 7147,
      "ĠRon": 7148,
      "Ġshr": 7149,
      "Ġunw": 7150,
      "Ġprice": 7151,
      "Ġpool": 7152,
      "Ġrelation": 7153,
      "Ġhandling": 7154,
      "Ġreputation": 7155,
      "Ġdistant": 7156,
      "Ġinvention": 7157,
      "pson": 7158,
      "Ġhappiness": 7159,
      "Ġ1998": 7160,
      "ĠSpanish": 7161,
      "ĠRoad": 7162,
      "going": 7163,
      "Ġburied": 7164,
      "Ġpractical": 7165,
      "Conn": 7166,
      "ĠHolly": 7167,
      "Ġtechnology": 7168,
      "Ġmeasures": 7169,
      "Ġconstitution": 7170,
      "Ġarchitecture": 7171,
      "Ġceremony": 7172,
      "ĠOffice": 7173,
      "ais": 7174,
      "iro": 7175,
      "mail": 7176,
      "Ġast": 7177,
      "Ġsan": 7178,
      "ilst": 7179,
      "Ġla": 7180,
      "ĠIll": 7181,
      "ĠAM": 7182,
      "rose": 7183,
      "urance": 7184,
      "Ġaside": 7185,
      "ĠHot": 7186,
      "ĠDen": 7187,
      "ĠFox": 7188,
      "Ġshore": 7189,
      "ĠThai": 7190,
      "Ġcontained": 7191,
      "Ġoverflow": 7192,
      "Ġperfor": 7193,
      "Ġflu": 7194,
      "Ġdifferences": 7195,
      "Ġactress": 7196,
      "Ġmathematical": 7197,
      "}$.": 7198,
      "Ġelev": 7199,
      "Ġpromise": 7200,
      "ĠExp": 7201,
      "Ġsuccessfully": 7202,
      "Ġallowing": 7203,
      "Ġtests": 7204,
      "Ġlimits": 7205,
      "ĠKingdom": 7206,
      "ĠÂłĠÂł": 7207,
      "Ġflowers": 7208,
      "Ġtechniques": 7209,
      "Ġcoordinates": 7210,
      "ĠSecretary": 7211,
      "Ġpecul": 7212,
      "62": 7213,
      "89": 7214,
      "film": 7215,
      "gener": 7216,
      "lers": 7217,
      "rho": 7218,
      "})": 7219,
      "Ġq": 7220,
      "Ġsources": 7221,
      "Ġol": 7222,
      "Ġfestival": 7223,
      "ington": 7224,
      "Ġpale": 7225,
      "icine": 7226,
      "Ġnomin": 7227,
      "ĠTMC": 7228,
      "Ġears": 7229,
      "ĠCre": 7230,
      "ĠRom": 7231,
      "ĠEnd": 7232,
      "Ġnobody": 7233,
      "Ġattrib": 7234,
      "Ġentr": 7235,
      "Ġ500": 7236,
      "Ġguitar": 7237,
      "plications": 7238,
      "Ġlaws": 7239,
      "chestra": 7240,
      "Ġsuffer": 7241,
      "Ġcloser": 7242,
      "Ġterrible": 7243,
      "Ġinjured": 7244,
      "====": 7245,
      "âī¤": 7246,
      "77": 7247,
      "Im": 7248,
      "dev": 7249,
      "such": 7250,
      "isl": 7251,
      "Ġdwell": 7252,
      "ĠTimes": 7253,
      "Ġstored": 7254,
      "ĠBi": 7255,
      "ĠBell": 7256,
      "erer": 7257,
      "Ġnotices": 7258,
      "Ġload": 7259,
      "ĠVic": 7260,
      "ildren": 7261,
      "Ġreck": 7262,
      "Ġbusy": 7263,
      "ĠSpain": 7264,
      "Ġcalculated": 7265,
      "Ġabsence": 7266,
      "Ġoptions": 7267,
      "Ġ1960": 7268,
      "ĠHolmes": 7269,
      "Ġgrandmother": 7270,
      "Ġsurviv": 7271,
      "Ġfifty": 7272,
      "Ġtraditional": 7273,
      "Ġcriminal": 7274,
      "Ġnuclear": 7275,
      "lam": 7276,
      "rich": 7277,
      "Ġahead": 7278,
      "Ġcas": 7279,
      "lymp": 7280,
      "ĠMatt": 7281,
      "ĠHu": 7282,
      "ĠGab": 7283,
      "ĠJer": 7284,
      "ĠStar": 7285,
      "Ġknock": 7286,
      "ĠChand": 7287,
      "Ġbrut": 7288,
      "Ġnewly": 7289,
      "Ġkeen": 7290,
      "ĠIsland": 7291,
      "symbol": 7292,
      "Ġdiffusion": 7293,
      "Ġteams": 7294,
      "Ġprojects": 7295,
      "Ġboundary": 7296,
      "Ġbirths": 7297,
      "Ġemployed": 7298,
      "ĠNorman": 7299,
      "Ġdatabase": 7300,
      "ĠCambridge": 7301,
      "Ġladies": 7302,
      "Ġtroops": 7303,
      "Ġpilot": 7304,
      "ĠAnalysis": 7305,
      "Ġcommercial": 7306,
      "93": 7307,
      "OD": 7308,
      "bles": 7309,
      "foot": 7310,
      "mate": 7311,
      "master": 7312,
      "sit": 7313,
      "ygen": 7314,
      "Ġ;": 7315,
      "Ġwaves": 7316,
      "Ġfond": 7317,
      "Ġfinger": 7318,
      "anth": 7319,
      "Ġmaps": 7320,
      "alog": 7321,
      "ota": 7322,
      "Ġgay": 7323,
      "ĠPed": 7324,
      "ĠBra": 7325,
      "ĠRick": 7326,
      "Ġexceed": 7327,
      "ĠGreg": 7328,
      "ĠEmp": 7329,
      "ĠJu": 7330,
      "ĠKar": 7331,
      "ango": 7332,
      "ĠYam": 7333,
      "Ġdesert": 7334,
      "Ġphr": 7335,
      "Ġreveal": 7336,
      "Ġpropos": 7337,
      "ĠEdition": 7338,
      "Ġradix": 7339,
      "Ġsecretly": 7340,
      "Ġviolence": 7341,
      "Ġphotograph": 7342,
      "ĠMadame": 7343,
      "Ġhttps": 7344,
      "Ġdrugs": 7345,
      "Ġexperimental": 7346,
      "Ġexercise": 7347,
      "Pe": 7348,
      "]]": 7349,
      "dir": 7350,
      "Ġsought": 7351,
      "Ġsorry": 7352,
      "Ġbold": 7353,
      "ingers": 7354,
      "ĠTre": 7355,
      "ĠSix": 7356,
      "uls": 7357,
      "Ġrub": 7358,
      "ĠWall": 7359,
      "ĠFire": 7360,
      "quito": 7361,
      "ĠEst": 7362,
      "Ġwheel": 7363,
      "avel": 7364,
      "Ġalloy": 7365,
      "Ġabstract": 7366,
      "izer": 7367,
      "ĠStill": 7368,
      "Ġcomposed": 7369,
      "Ġpoison": 7370,
      "Ġhousehold": 7371,
      "arrass": 7372,
      "uthors": 7373,
      "Ġminimum": 7374,
      "Ġadvance": 7375,
      "Ġexisting": 7376,
      "ĠAgain": 7377,
      "ĠBobby": 7378,
      "arcely": 7379,
      "Ġreligion": 7380,
      "ĠBerlin": 7381,
      "Ġadventure": 7382,
      "Ġremembered": 7383,
      "NESS": 7384,
      "ĠPhysics": 7385,
      "QL": 7386,
      "Will": 7387,
      "nov": 7388,
      "wide": 7389,
      "Ġtalks": 7390,
      "Ġtender": 7391,
      "itr": 7392,
      "Ġmach": 7393,
      "ela": 7394,
      "ĠMort": 7395,
      "Ġtrick": 7396,
      "Ġunus": 7397,
      "ĠVijay": 7398,
      "Ġadvert": 7399,
      "ibr": 7400,
      "Ġroyal": 7401,
      "redited": 7402,
      "Ġflood": 7403,
      "Ġadding": 7404,
      "ĠClaud": 7405,
      "Ġinfo": 7406,
      "Ġestimate": 7407,
      "Ġaffairs": 7408,
      "ĠAdministr": 7409,
      "Ġmainly": 7410,
      "success": 7411,
      "Ġlawyer": 7412,
      "Ġcircuit": 7413,
      "Ġtransferred": 7414,
      "ĠEnter": 7415,
      "metric": 7416,
      "Ġpalace": 7417,
      "Ġhistorical": 7418,
      "Ġdisappoint": 7419,
      "Ġrestaurant": 7420,
      "BSD": 7421,
      "^{\\": 7422,
      "cs": 7423,
      "ds": 7424,
      "gie": 7425,
      "Ġaston": 7426,
      "Ġfiction": 7427,
      "ilton": 7428,
      "ĠTer": 7429,
      "ĠTerry": 7430,
      "Ġreaches": 7431,
      "rosc": 7432,
      "amps": 7433,
      "ĠHard": 7434,
      "Ġalc": 7435,
      "apes": 7436,
      "ĠLight": 7437,
      "ĠLeg": 7438,
      "ĠJud": 7439,
      "ĠNaz": 7440,
      "Ġjoint": 7441,
      "active": 7442,
      "uez": 7443,
      "ĠVI": 7444,
      "rait": 7445,
      "exe": 7446,
      "exp": 7447,
      "Ġformal": 7448,
      "ribed": 7449,
      "return": 7450,
      "too": 7451,
      "Ġgeneric": 7452,
      "Ġprofession": 7453,
      "Ġprogramming": 7454,
      "Ġeasier": 7455,
      "Ġstatus": 7456,
      "Ġrepresentation": 7457,
      "Ġadmits": 7458,
      "Ġfairly": 7459,
      "ĠSocial": 7460,
      "Ġaxis": 7461,
      "Ġsucceeded": 7462,
      "Ġhence": 7463,
      "ĠSindh": 7464,
      "Ġvessel": 7465,
      "Ġequipment": 7466,
      "'],": 7467,
      "El": 7468,
      "Er": 7469,
      "Mus": 7470,
      "Str": 7471,
      "nie": 7472,
      "rid": 7473,
      "ufact": 7474,
      "Ġ###": 7475,
      "Ġtheatre": 7476,
      "rell": 7477,
      "Ġocean": 7478,
      "Ġbudget": 7479,
      "Ġmask": 7480,
      "Ġdign": 7481,
      "Ġthrew": 7482,
      "Ġluck": 7483,
      "Ġliqu": 7484,
      "uting": 7485,
      "iger": 7486,
      "Ġrising": 7487,
      "ĠFre": 7488,
      "Ġsevent": 7489,
      "iveness": 7490,
      "ocation": 7491,
      "Ġplate": 7492,
      "Ġmanaged": 7493,
      "Ġclerk": 7494,
      "cles": 7495,
      "Ġrelax": 7496,
      "Ġequally": 7497,
      "Ġdram": 7498,
      "Ġpossessed": 7499,
      "plication": 7500,
      "raph": 7501,
      "Ġsigns": 7502,
      "Ġ1994": 7503,
      "Ġdelay": 7504,
      "Ġstrike": 7505,
      "1980": 7506,
      "Ġneighbour": 7507,
      "handle": 7508,
      "Ġignor": 7509,
      "Ġteaching": 7510,
      "Ġultimately": 7511,
      "boldsymbol": 7512,
      "bec": 7513,
      "post": 7514,
      "sigma": 7515,
      "will": 7516,
      "reck": 7517,
      "Ġwestern": 7518,
      "Ġhint": 7519,
      "Ġthorough": 7520,
      "Ġnodes": 7521,
      "ĠMuseum": 7522,
      "ĠPet": 7523,
      "anded": 7524,
      "ĠDiv": 7525,
      "ĠLine": 7526,
      "ĠElect": 7527,
      "ansas": 7528,
      "Ġuniversity": 7529,
      "Ġdesired": 7530,
      "Ġimpress": 7531,
      "anche": 7532,
      "Ġcharges": 7533,
      "Ġenthus": 7534,
      "Ġfinish": 7535,
      "ĠSciences": 7536,
      "Ġexpans": 7537,
      "2017": 7538,
      "Ġservants": 7539,
      "Ġexperi": 7540,
      "uffer": 7541,
      "Ġconvince": 7542,
      "Ġclosely": 7543,
      "Ġefficiency": 7544,
      "Ġmental": 7545,
      "Ġerrors": 7546,
      "ĠDirector": 7547,
      "utenant": 7548,
      "/(": 7549,
      "110": 7550,
      "Ge": 7551,
      "Some": 7552,
      "TO": 7553,
      "dy": 7554,
      "gal": 7555,
      "lik": 7556,
      "vant": 7557,
      "Ġtend": 7558,
      "Ġsisters": 7559,
      "erver": 7560,
      "ati": 7561,
      "Ġho": 7562,
      "Ġlens": 7563,
      "lyss": 7564,
      "ĠMull": 7565,
      "ĠCat": 7566,
      "ĠPage": 7567,
      "ĠDie": 7568,
      "Ġrig": 7569,
      "akers": 7570,
      "Ġwearing": 7571,
      "pper": 7572,
      "Ġattached": 7573,
      "Ġaccord": 7574,
      "Ġremov": 7575,
      "Ġacts": 7576,
      "Ġpresently": 7577,
      "ĠAnderson": 7578,
      "Ġslope": 7579,
      "Ġ60": 7580,
      "Ġguilty": 7581,
      "Ġbread": 7582,
      "Ġfactors": 7583,
      "Ġconstantly": 7584,
      "ĠYoung": 7585,
      "elopment": 7586,
      "Ġauthent": 7587,
      "Ġadmir": 7588,
      "Ġcombat": 7589,
      "Ġreports": 7590,
      "ĠValue": 7591,
      "ĠDoctor": 7592,
      "ĠPeople": 7593,
      "Ġwonderful": 7594,
      "Ġburning": 7595,
      "Ġweapon": 7596,
      "ĠCommunist": 7597,
      "Returns": 7598,
      "Ab": 7599,
      "cor": 7600,
      "count": 7601,
      "five": 7602,
      "vest": 7603,
      "Ġtied": 7604,
      "Ġawards": 7605,
      "iler": 7606,
      "imon": 7607,
      "Ġstairs": 7608,
      "Ġanger": 7609,
      "chief": 7610,
      "ĠWhe": 7611,
      "ĠRoss": 7612,
      "Ġshared": 7613,
      "ĠKen": 7614,
      "ĠHeaven": 7615,
      "Ġunm": 7616,
      "Ġadj": 7617,
      "ĠChamp": 7618,
      "Ġ31": 7619,
      "Ġshoulders": 7620,
      "Ġtransm": 7621,
      "Ġdeck": 7622,
      "Ġentry": 7623,
      "Ġemot": 7624,
      "ĠMarc": 7625,
      "Ġswim": 7626,
      "ĠColumb": 7627,
      "Ġrevealing": 7628,
      "Ġpromised": 7629,
      "Ġeffective": 7630,
      "Ġkeys": 7631,
      "Ġcombination": 7632,
      "Ġsending": 7633,
      "Ġsleeping": 7634,
      "ĠAlexander": 7635,
      "Ġescaped": 7636,
      "ĠAustralian": 7637,
      "Ġprofessor": 7638,
      "Ġtreatment": 7639,
      "Ġhydro": 7640,
      "Ġappointed": 7641,
      "Ġgeometry": 7642,
      "Ġcruel": 7643,
      "=(": 7644,
      "Ed": 7645,
      "away": 7646,
      "named": 7647,
      "source": 7648,
      "uo": 7649,
      "real": 7650,
      "Ġbin": 7651,
      "ado": 7652,
      "ĠPen": 7653,
      "oded": 7654,
      "andy": 7655,
      "ĠFinite": 7656,
      "agu": 7657,
      "ourse": 7658,
      "Ġcompact": 7659,
      "Ġprev": 7660,
      "versaries": 7661,
      "Ġcommit": 7662,
      "ERS": 7663,
      "events": 7664,
      "Ġconsc": 7665,
      "ĠAny": 7666,
      "Ġsecure": 7667,
      "Ġcharming": 7668,
      "Ġslave": 7669,
      "Ġbelieving": 7670,
      "Ġcarefully": 7671,
      "Ġprocesses": 7672,
      "ropical": 7673,
      "fficients": 7674,
      "Ġsecretary": 7675,
      "Ġdescribes": 7676,
      "Ġcastle": 7677,
      "Ġviolent": 7678,
      "Ġmountains": 7679,
      "Ġhoping": 7680,
      "Ġmajority": 7681,
      "Ġwaters": 7682,
      "Ġwatches": 7683,
      "ĠJulie": 7684,
      "Ġgravity": 7685,
      "StateMachine": 7686,
      ".:": 7687,
      "86": 7688,
      "CR": 7689,
      "Good": 7690,
      "iy": 7691,
      "ĠÂ·": 7692,
      "Ġhal": 7693,
      "Ġhits": 7694,
      "Ġmas": 7695,
      "ĠBab": 7696,
      "ums": 7697,
      "Ġshook": 7698,
      "Ġinteger": 7699,
      "Ġmaybe": 7700,
      "Ġregret": 7701,
      "Ġconfusion": 7702,
      "Ġ1995": 7703,
      "Ġzomb": 7704,
      "Ġcalm": 7705,
      "ipping": 7706,
      "Ġmultip": 7707,
      "Ġorganizations": 7708,
      "Ġdistributed": 7709,
      "Ġdeeply": 7710,
      "AMP": 7711,
      "Ġattracted": 7712,
      "Ġassistance": 7713,
      "operat": 7714,
      "Ġcolumns": 7715,
      "Ġlaughing": 7716,
      "Ġhanging": 7717,
      "Ġchalleng": 7718,
      "Ġbehaviour": 7719,
      ")}$": 7720,
      "76": 7721,
      "History": 7722,
      "dist": 7723,
      "door": 7724,
      "public": 7725,
      "table": 7726,
      "wind": 7727,
      "Ġtact": 7728,
      "Ġhipp": 7729,
      "Ġdictionary": 7730,
      "adr": 7731,
      "ĠAmy": 7732,
      "ĠBas": 7733,
      "ĠDor": 7734,
      "emporary": 7735,
      "Ġdebut": 7736,
      "Ġshift": 7737,
      "Ġshocked": 7738,
      "ĠNik": 7739,
      "Ġtruly": 7740,
      "avi": 7741,
      "Ġbrill": 7742,
      "Ġrope": 7743,
      "Ġstrings": 7744,
      "Ġowned": 7745,
      "Ġ2019": 7746,
      "Ġcharm": 7747,
      "orname": 7748,
      "Ġdetective": 7749,
      "}}\\": 7750,
      "Ġconfidence": 7751,
      "thony": 7752,
      "Ġlights": 7753,
      "ĠConst": 7754,
      "1990": 7755,
      "Ġcopper": 7756,
      "Ġnaturally": 7757,
      "uki": 7758,
      "Ġcuts": 7759,
      "Ġexecution": 7760,
      "Ġprisoners": 7761,
      "Ġgrandfather": 7762,
      "ĠDevdas": 7763,
      "Ġcredits": 7764,
      "optim": 7765,
      "Ġpulls": 7766,
      "Ġresistance": 7767,
      "Ġawarded": 7768,
      "ĠRetrieved": 7769,
      "ĠBarbara": 7770,
      "operatorname": 7771,
      "TE": 7772,
      "bach": 7773,
      "dec": 7774,
      "ĠÏ": 7775,
      "Ġtag": 7776,
      "Ġtale": 7777,
      "Ġtempt": 7778,
      "Ġwakes": 7779,
      "Ġcir": 7780,
      "Ġmac": 7781,
      "Ġinner": 7782,
      "Ġnurse": 7783,
      "start": 7784,
      "Ġasleep": 7785,
      "ĠWork": 7786,
      "Ġcomments": 7787,
      "ĠJess": 7788,
      "Ġarmed": 7789,
      "ĠStory": 7790,
      "ĠVen": 7791,
      "never": 7792,
      "Ġbetray": 7793,
      "Ġmayor": 7794,
      "obe": 7795,
      "Ġstrict": 7796,
      "Ġflag": 7797,
      "Ġimpr": 7798,
      "Ġimpression": 7799,
      "Ġinsists": 7800,
      "ĠTrue": 7801,
      "Ġvisible": 7802,
      "2014": 7803,
      "ĠSea": 7804,
      "Ġaffected": 7805,
      "enna": 7806,
      "Ġfourth": 7807,
      "Ġlabels": 7808,
      "Ġencounters": 7809,
      "END": 7810,
      "Ġannoy": 7811,
      "Ġmistress": 7812,
      "ponential": 7813,
      "ĠReview": 7814,
      "Ġforgotten": 7815,
      "Ġtower": 7816,
      "Ġ(?),": 7817,
      "!!": 7818,
      "?âĢĻ": 7819,
      "RS": 7820,
      "bing": 7821,
      "hire": 7822,
      "range": 7823,
      "Ġbell": 7824,
      "Ġfed": 7825,
      "Ġfires": 7826,
      "ĠTod": 7827,
      "ĠSyl": 7828,
      "ĠHo": 7829,
      "ĠPac": 7830,
      "Ġ()": 7831,
      "ĠField": 7832,
      "ĠGirl": 7833,
      "Ġlets": 7834,
      "Ġdoors": 7835,
      "ĠKer": 7836,
      "Ġcompos": 7837,
      "Ġcomposite": 7838,
      "Ġblank": 7839,
      "$$\\": 7840,
      "Ġrefused": 7841,
      "Ġsigned": 7842,
      "1998": 7843,
      "value": 7844,
      "Ġawak": 7845,
      "While": 7846,
      "ĠRecords": 7847,
      "Ġintelligence": 7848,
      "Ġpulled": 7849,
      "Ġevidently": 7850,
      "Ġinhabit": 7851,
      "Ġpassengers": 7852,
      "Ġatmosphere": 7853,
      "Ġpeculiar": 7854,
      "Bl": 7855,
      "Cast": 7856,
      "IO": 7857,
      "](": 7858,
      "bour": 7859,
      "cite": 7860,
      "nel": 7861,
      "tan": 7862,
      "Ġsession": 7863,
      "Ġboot": 7864,
      "Ġfill": 7865,
      "Ġcup": 7866,
      "Ġmm": 7867,
      "icing": 7868,
      "Ġisol": 7869,
      "ĠAD": 7870,
      "oln": 7871,
      "Ġforb": 7872,
      "ĠCall": 7873,
      "Ġasyn": 7874,
      "riel": 7875,
      "usiness": 7876,
      "Ġvoy": 7877,
      "ĠEPS": 7878,
      "ĠNathan": 7879,
      "Ġleaf": 7880,
      "Ġintent": 7881,
      "Ġplanned": 7882,
      "ĠHeart": 7883,
      "ostrad": 7884,
      "Ġenh": 7885,
      "ĠThree": 7886,
      "Ġscarcely": 7887,
      "Ġsplend": 7888,
      "ube": 7889,
      "thel": 7890,
      "Ġrecall": 7891,
      "Ġrelatively": 7892,
      "Ġteeth": 7893,
      "ĠAsia": 7894,
      "Ġembr": 7895,
      "Ġstudied": 7896,
      "Ġguide": 7897,
      "Ġvisited": 7898,
      "Ġpurs": 7899,
      "ertific": 7900,
      "Example": 7901,
      "Ġbuildings": 7902,
      "Ġmotiv": 7903,
      "Ġresemb": 7904,
      "Ġimagination": 7905,
      "Ġkids": 7906,
      "Ġrobber": 7907,
      "Ġfulf": 7908,
      "Ġfundamental": 7909,
      "Ġaltogether": 7910,
      "spector": 7911,
      "ĠRodrig": 7912,
      "ĠWatson": 7913,
      "Ġcorrelation": 7914,
      "ĠSOLNESS": 7915,
      "ĠTheorem": 7916,
      "ĠHollywood": 7917,
      "CO": 7918,
      "First": 7919,
      "Sp": 7920,
      "vare": 7921,
      "zz": 7922,
      "}+": 7923,
      "rep": 7924,
      "oned": 7925,
      "Ġwings": 7926,
      "Ġfruit": 7927,
      "Ġmood": 7928,
      "Ġgross": 7929,
      "acious": 7930,
      "ĠCivil": 7931,
      "Ġstarring": 7932,
      "ĠBul": 7933,
      "Ġalarm": 7934,
      "ĠDi": 7935,
      "ĠFurther": 7936,
      "ĠGal": 7937,
      "Ġshif": 7938,
      "ĠEle": 7939,
      "ĠEve": 7940,
      "ĠOs": 7941,
      "ĠKum": 7942,
      "Ġplt": 7943,
      "Ġlov": 7944,
      "Ġmansion": 7945,
      "sely": 7946,
      "Ġwhereas": 7947,
      "Ġformation": 7948,
      "Ġinstalled": 7949,
      "Ġglory": 7950,
      "Ġchest": 7951,
      "Ġinfinite": 7952,
      "incoln": 7953,
      "Ġ1996": 7954,
      "Ġattempted": 7955,
      "Ġchanging": 7956,
      "Ġdistributions": 7957,
      "Ġdenial": 7958,
      "istrict": 7959,
      "Ġexecutive": 7960,
      "Ġmassive": 7961,
      "ĠSeries": 7962,
      "rified": 7963,
      "Ġbesides": 7964,
      "ĠGolden": 7965,
      "ĠScotland": 7966,
      "Ġaccompanied": 7967,
      "Ġdiagram": 7968,
      "Ġinspired": 7969,
      "ĠDeclan": 7970,
      "({": 7971,
      "During": 7972,
      "SP": 7973,
      "could": 7974,
      "cond": 7975,
      "fle": 7976,
      "gi": 7977,
      "hot": 7978,
      "phe": 7979,
      "sf": 7980,
      "try": 7981,
      "Ġing": 7982,
      "Ġtear": 7983,
      "inst": 7984,
      "Ġsits": 7985,
      "Ġcov": 7986,
      "Ġcraft": 7987,
      "Ġhired": 7988,
      "Ġdual": 7989,
      "ellect": 7990,
      "Ġeigen": 7991,
      "Ġreform": 7992,
      "tery": 7993,
      "ĠFun": 7994,
      "Ġvs": 7995,
      "Ġvary": 7996,
      "ĠEarl": 7997,
      "ĠJenn": 7998,
      "ocamp": 7999,
      "ivered": 8000,
      "Ġworst": 8001,
      "Ġimper": 8002,
      "Ġadopt": 8003,
      "Ġcoal": 8004,
      "ervation": 8005,
      "ĠClub": 8006,
      "Ġseriously": 8007,
      "ructure": 8008,
      "Ġcapable": 8009,
      "ĠAtl": 8010,
      "aughters": 8011,
      "2018": 8012,
      "Ġrefers": 8013,
      "Ġconcer": 8014,
      "Ġauthority": 8015,
      "Ġauthorities": 8016,
      "Ġconsiderable": 8017,
      "Ġhonour": 8018,
      "Ġimagine": 8019,
      "Ġsequences": 8020,
      "Ġderived": 8021,
      "Ġreconc": 8022,
      "Ġlatest": 8023,
      "Ġshadow": 8024,
      "Ġratio": 8025,
      "Ġlecture": 8026,
      "Ġprotection": 8027,
      "English": 8028,
      "ĠPakistan": 8029,
      "Ġimprison": 8030,
      "Br": 8031,
      "CM": 8032,
      "UE": 8033,
      "fit": 8034,
      "two": 8035,
      "uv": 8036,
      "Ġtables": 8037,
      "Ġble": 8038,
      "orious": 8039,
      "Ġmail": 8040,
      "ĠTri": 8041,
      "etic": 8042,
      "Ġstir": 8043,
      "ĠBattle": 8044,
      "aka": 8045,
      "Ġvon": 8046,
      "ĠGord": 8047,
      "Ġships": 8048,
      "clop": 8049,
      "Ġoverall": 8050,
      "Ġ->": 8051,
      "Ġcolon": 8052,
      "Ġemotion": 8053,
      "Ġhappily": 8054,
      "Ġswift": 8055,
      "Ġextension": 8056,
      "Ġpromises": 8057,
      "ĠReal": 8058,
      "ATHER": 8059,
      "Ġadmitted": 8060,
      "Ġregarding": 8061,
      "reshold": 8062,
      "Ġpermission": 8063,
      "Ġdrinking": 8064,
      "ĠDemocratic": 8065,
      "Ġinstitutions": 8066,
      "OOK": 8067,
      "Ġobliged": 8068,
      "Ġtouched": 8069,
      "ĠPedro": 8070,
      "94": 8071,
      "Rem": 8072,
      "RIC": 8073,
      "^*": 8074,
      "ln": 8075,
      "pes": 8076,
      "rat": 8077,
      "onely": 8078,
      "Ġborder": 8079,
      "Ġfaster": 8080,
      "Ġdict": 8081,
      "Ġreduce": 8082,
      "oles": 8083,
      "ĠMicrosoft": 8084,
      "ulas": 8085,
      "Ġyer": 8086,
      "ands": 8087,
      "ldots": 8088,
      "Ġconvert": 8089,
      "usc": 8090,
      "aksh": 8091,
      "ĠFin": 8092,
      "ĠFed": 8093,
      "Ġsear": 8094,
      "ĠLook": 8095,
      "ptim": 8096,
      "ĠKansas": 8097,
      "Ġsomehow": 8098,
      "issions": 8099,
      "Ġrecover": 8100,
      "everal": 8101,
      "Ġsubplot": 8102,
      "Ġtriumph": 8103,
      "ificial": 8104,
      "Ġdifferential": 8105,
      "Ġsingular": 8106,
      "Ġ1997": 8107,
      "ĠLeague": 8108,
      "Ġpatients": 8109,
      "Ġdivision": 8110,
      "ĠHenri": 8111,
      "ĠPerhaps": 8112,
      "Ġdrops": 8113,
      "Ġdocumentary": 8114,
      "Ġpicked": 8115,
      "Ġfifteen": 8116,
      "Ġconcepts": 8117,
      "Ġvictims": 8118,
      "Ġalcoh": 8119,
      "ostradamus": 8120,
      "!âĢĻ": 8121,
      "95": 8122,
      "Delta": 8123,
      "Since": 8124,
      "Write": 8125,
      "rum": 8126,
      "Ġeld": 8127,
      "Ġsaves": 8128,
      "Ġbatter": 8129,
      "Ġfol": 8130,
      "Ġpipe": 8131,
      "lets": 8132,
      "eland": 8133,
      "std": 8134,
      "eting": 8135,
      "ĠMovie": 8136,
      "uma": 8137,
      "tha": 8138,
      "Ġseats": 8139,
      "ĠLab": 8140,
      "ĠLincoln": 8141,
      "ĠGi": 8142,
      "ĠNon": 8143,
      "Ġabroad": 8144,
      "oston": 8145,
      "ector": 8146,
      "Ġclimate": 8147,
      "ilda": 8148,
      "Ġaccel": 8149,
      "ĠAnthony": 8150,
      "Ġ&=": 8151,
      "Ġexplicit": 8152,
      "attack": 8153,
      "Ġcenturies": 8154,
      "Ġclever": 8155,
      "Ġinterests": 8156,
      "Ġincreases": 8157,
      "Ġadmit": 8158,
      "1970": 8159,
      "ĠSergeant": 8160,
      "ĠPhilipp": 8161,
      "Ġalgorithms": 8162,
      "Ġbirthday": 8163,
      "lementary": 8164,
      "ĠBroad": 8165,
      "ĠModel": 8166,
      "Ġeconomic": 8167,
      "Ġfocus": 8168,
      "TeX": 8169,
      "Ġsuspicious": 8170,
      "Default": 8171,
      "Ġassassin": 8172,
      "Ġvehicle": 8173,
      ".).": 8174,
      "AB": 8175,
      "Sub": 8176,
      "keeper": 8177,
      "might": 8178,
      "Ġtight": 8179,
      "Ġtheater": 8180,
      "Ġtheories": 8181,
      "Ġbos": 8182,
      "orney": 8183,
      "aning": 8184,
      "Ġpm": 8185,
      "Ġlux": 8186,
      "Ġnin": 8187,
      "enter": 8188,
      "ĠSouthern": 8189,
      "ĠPerm": 8190,
      "ĠBank": 8191,
      "abeth": 8192,
      "ĠRub": 8193,
      "ĠLast": 8194,
      "Ġnotion": 8195,
      "ĠOm": 8196,
      "Ġupset": 8197,
      "ĠKevin": 8198,
      "phi": 8199,
      "Ġacknow": 8200,
      "ĠAlgebra": 8201,
      "Ġ*/": 8202,
      "Ġeverywhere": 8203,
      "aneous": 8204,
      "ĠBrother": 8205,
      "Ġ1993": 8206,
      "ĠExponential": 8207,
      "Ġwarning": 8208,
      "Ġarranged": 8209,
      "values": 8210,
      "ĠRober": 8211,
      "Ġinvolving": 8212,
      "Ġcreatures": 8213,
      "addy": 8214,
      "Ġexcited": 8215,
      "Ġnamespace": 8216,
      "ĠMatthe": 8217,
      "Ġheavily": 8218,
      "Ġautomaton": 8219,
      "Ġflees": 8220,
      "Ġembarrass": 8221,
      "Ġdebt": 8222,
      "ĠScouts": 8223,
      "Ġensure": 8224,
      "Ġhypothes": 8225,
      "Ġutilized": 8226,
      "Ġcomplicated": 8227,
      "ĠSunday": 8228,
      ")}": 8229,
      "BUS": 8230,
      "List": 8231,
      "Mod": 8232,
      "Out": 8233,
      "ez": 8234,
      "life": 8235,
      "mad": 8236,
      "Ġtang": 8237,
      "orse": 8238,
      "asingly": 8239,
      "oma": 8240,
      "omorph": 8241,
      "stat": 8242,
      "ĠTH": 8243,
      "Ġreception": 8244,
      "ĠAT": 8245,
      "ĠMoh": 8246,
      "sem": 8247,
      "ĠFair": 8248,
      "ieve": 8249,
      "Ġchamber": 8250,
      "Ġintention": 8251,
      "Ġclock": 8252,
      "Ġcliff": 8253,
      "Ġadap": 8254,
      "Ġagents": 8255,
      "Ġpride": 8256,
      "atherine": 8257,
      "Ġsmiled": 8258,
      "Ġconsult": 8259,
      "Ġdistract": 8260,
      "nergy": 8261,
      "track": 8262,
      "Ġproviding": 8263,
      "Ġparticle": 8264,
      "ORT": 8265,
      "ambod": 8266,
      "Ġstrongly": 8267,
      "Ġidentified": 8268,
      "Ġsurvive": 8269,
      "Ġdimensions": 8270,
      "Att": 8271,
      "Ġmechanism": 8272,
      "Ġthreatens": 8273,
      "Ġbroadcast": 8274,
      "Ġmeasured": 8275,
      "Ġframework": 8276,
      "ENTS": 8277,
      "Ġsurrounding": 8278,
      "ademic": 8279,
      ",-": 8280,
      ":âĢĶ": 8281,
      "Fig": 8282,
      "^\\": 8283,
      "finite": 8284,
      "gely": 8285,
      "rick": 8286,
      "yes": 8287,
      "~~": 8288,
      "isa": 8289,
      "Ġfingers": 8290,
      "otimes": 8291,
      "Ġgift": 8292,
      "owth": 8293,
      "ĠMiller": 8294,
      "aying": 8295,
      "ĠHad": 8296,
      "ĠPers": 8297,
      "aki": 8298,
      "ĠRag": 8299,
      "Ġexternal": 8300,
      "ĠJO": 8301,
      "Ġneut": 8302,
      "acts": 8303,
      "Ġwhenever": 8304,
      "Ġcomprehen": 8305,
      "ĠView": 8306,
      "Ġscre": 8307,
      "Ġspoken": 8308,
      "Ġamuse": 8309,
      "Ġflies": 8310,
      "aws": 8311,
      "anches": 8312,
      "Ġ45": 8313,
      "Ġassault": 8314,
      "should": 8315,
      "Ġconfir": 8316,
      "bye": 8317,
      "2015": 8318,
      "Ġdeliber": 8319,
      "Ġforever": 8320,
      "Ġsentence": 8321,
      "Ġwrites": 8322,
      "ĠOrgan": 8323,
      "Ġsquad": 8324,
      "Ġclaimed": 8325,
      "Ġdepending": 8326,
      "Ġcoefficients": 8327,
      "Ġextreme": 8328,
      "Ġdefeat": 8329,
      "ĠTechnology": 8330,
      "Ġvelocity": 8331,
      "ĠAfghanistan": 8332,
      "Ġtongue": 8333,
      "varepsilon": 8334,
      "!âĢĶ": 8335,
      "DON": 8336,
      "Res": 8337,
      "bet": 8338,
      "good": 8339,
      "jango": 8340,
      "lcr": 8341,
      "pol": 8342,
      "pse": 8343,
      "wan": 8344,
      "ystem": 8345,
      "Î¼": 8346,
      "Ġcategory": 8347,
      "oration": 8348,
      "Ġmuseum": 8349,
      "Ġincl": 8350,
      "Ġdancing": 8351,
      "ĠTra": 8352,
      "amily": 8353,
      "olph": 8354,
      "ĠHaving": 8355,
      "ĠPoint": 8356,
      "Ġwaste": 8357,
      "ulf": 8358,
      "ĠDutch": 8359,
      "Ġrabbit": 8360,
      "ĠLen": 8361,
      "Ġdece": 8362,
      "001": 8363,
      "ĠKal": 8364,
      "Ġ$(": 8365,
      "Ġgrabs": 8366,
      "Ġ1950": 8367,
      "Ġscar": 8368,
      "ĠArk": 8369,
      "Ġourselves": 8370,
      "Ġexposed": 8371,
      "Ġedited": 8372,
      "}}{": 8373,
      "Ġreads": 8374,
      "rapper": 8375,
      "Ġrevolution": 8376,
      "Ġhumans": 8377,
      "Ġforehead": 8378,
      "iverse": 8379,
      "ATION": 8380,
      "Ġtempor": 8381,
      "Ġrecording": 8382,
      "Ġwooden": 8383,
      "Ġlegal": 8384,
      "Ġpublisher": 8385,
      "Ġpermitted": 8386,
      "Ġsignificantly": 8387,
      "Ġquietly": 8388,
      "Ġearnest": 8389,
      "Ġrailway": 8390,
      "Ġchallenge": 8391,
      "Ġcandidate": 8392,
      "Ġexpedition": 8393,
      "Ġlovely": 8394,
      "Ne": 8395,
      "dict": 8396,
      "made": 8397,
      "machine": 8398,
      "Ġtired": 8399,
      "Ġsales": 8400,
      "Ġwound": 8401,
      "Ġbull": 8402,
      "Ġfaint": 8403,
      "Ġcouncil": 8404,
      "Ġear": 8405,
      "ĠAz": 8406,
      "amin": 8407,
      "amil": 8408,
      "ĠMoon": 8409,
      "sect": 8410,
      "through": 8411,
      "quote": 8412,
      "ĠNat": 8413,
      "âĢĿ,": 8414,
      "Ġgrat": 8415,
      "raham": 8416,
      "Ġ37": 8417,
      "Ġinterval": 8418,
      "Ġ64": 8419,
      "Ġconfused": 8420,
      "Exp": 8421,
      "Ġvolt": 8422,
      "Ġsuffered": 8423,
      "Ġrecognized": 8424,
      "Ġgolden": 8425,
      "Ġvictory": 8426,
      "Ġproceeds": 8427,
      "Ġdismiss": 8428,
      "rieve": 8429,
      "Ġdistinguished": 8430,
      "Ġtalent": 8431,
      "Ġunusual": 8432,
      "Ġexpansion": 8433,
      "87": 8434,
      "Brit": 8435,
      "CC": 8436,
      "Min": 8437,
      "SU": 8438,
      "girl": 8439,
      "sk": 8440,
      "Ġille": 8441,
      "Ġastr": 8442,
      "Ġfought": 8443,
      "Ġhook": 8444,
      "Ġdare": 8445,
      "Ġdaughters": 8446,
      "astern": 8447,
      "Ġgau": 8448,
      "Ġrect": 8449,
      "ĠCP": 8450,
      "Ġstro": 8451,
      "ĠBon": 8452,
      "ĠBos": 8453,
      "ĠBru": 8454,
      "ĠDistrict": 8455,
      "ĠFisher": 8456,
      "ĠRud": 8457,
      "Ġvain": 8458,
      "ĠLake": 8459,
      "Ġchain": 8460,
      "ĠOlymp": 8461,
      "Ġmanufact": 8462,
      "Ġsole": 8463,
      "ansfer": 8464,
      "ĠHealth": 8465,
      "Ġcomposition": 8466,
      "Ġcomprise": 8467,
      "ĠThanks": 8468,
      "Ġpartly": 8469,
      "Ġattended": 8470,
      "graph": 8471,
      "pective": 8472,
      "inson": 8473,
      "ĠUnfortunately": 8474,
      "Ġcharged": 8475,
      "Inst": 8476,
      "Ġsurre": 8477,
      "techn": 8478,
      "Ġcrack": 8479,
      "Ġgloom": 8480,
      "Ġguest": 8481,
      "Ġattempting": 8482,
      "Ġskills": 8483,
      "Ġinvolve": 8484,
      "timeout": 8485,
      "Ġidentify": 8486,
      "ĠMathematics": 8487,
      "agonal": 8488,
      "Ġthousands": 8489,
      "Ġgentlemen": 8490,
      "Ġuncertain": 8491,
      "Ġfortun": 8492,
      "Ġstruggling": 8493,
      "ĠDetective": 8494,
      "Ġestimated": 8495,
      "Ġconsequence": 8496,
      "Ġinstrument": 8497,
      "quarters": 8498,
      ",[": 8499,
      "free": 8500,
      "little": 8501,
      "ĠâĪĴ": 8502,
      "Ġfiance": 8503,
      "Ġcash": 8504,
      "Ġhides": 8505,
      "Ġpounds": 8506,
      "omed": 8507,
      "access": 8508,
      "Ġbearing": 8509,
      "Ġwhilst": 8510,
      "ĠHart": 8511,
      "ĠBarn": 8512,
      "chi": 8513,
      "ĠFort": 8514,
      "ĠLI": 8515,
      "ĠLinda": 8516,
      "antom": 8517,
      "Ġproced": 8518,
      "udes": 8519,
      "Ġspo": 8520,
      "ordan": 8521,
      "Ġ35": 8522,
      "Ġretired": 8523,
      "Ġcolour": 8524,
      "arrie": 8525,
      "Ġcurios": 8526,
      "Ġarticles": 8527,
      "white": 8528,
      "Ġlargely": 8529,
      "ĠAmericans": 8530,
      "2019": 8531,
      "ĠConf": 8532,
      "Ġreceiving": 8533,
      "Ġexperiences": 8534,
      "Ġpleas": 8535,
      "Ġsurely": 8536,
      "ĠDavis": 8537,
      "affy": 8538,
      "Ġcritics": 8539,
      "Ġtechnical": 8540,
      "Ġprepare": 8541,
      "Ġdepends": 8542,
      "vania": 8543,
      "books": 8544,
      "Ġdisappeared": 8545,
      "Ġconfesses": 8546,
      "Ġalternative": 8547,
      "Ġwisdom": 8548,
      "ĠRodriguez": 8549,
      "AF": 8550,
      "Best": 8551,
      "big": 8552,
      "cre": 8553,
      "des": 8554,
      "disc": 8555,
      "iens": 8556,
      "oard": 8557,
      "Ġ]": 8558,
      "Ġtrem": 8559,
      "Ġauthors": 8560,
      "erable": 8561,
      "Ġok": 8562,
      "Ġca": 8563,
      "Ġhaun": 8564,
      "Ġpuzz": 8565,
      "Ġlic": 8566,
      "Ġgained": 8567,
      "uther": 8568,
      "ĠSi": 8569,
      "ĠAff": 8570,
      "ĠMic": 8571,
      "ĠCross": 8572,
      "ĠChem": 8573,
      "ĠBoston": 8574,
      "ĠDisc": 8575,
      "Ġconj": 8576,
      "Ġraid": 8577,
      "ĠLear": 8578,
      "ĠLuke": 8579,
      "ĠEss": 8580,
      "ĠEthel": 8581,
      "ĠNancy": 8582,
      "pling": 8583,
      "again": 8584,
      "Ġloose": 8585,
      "ictions": 8586,
      "Ġdesk": 8587,
      "Ġmodified": 8588,
      "Ġentering": 8589,
      "}}$": 8590,
      "rivate": 8591,
      "pendicular": 8592,
      "Ġsupports": 8593,
      "Ġtalked": 8594,
      "Ġlibr": 8595,
      "ĠManagement": 8596,
      "ĠAbb": 8597,
      "Ġcreates": 8598,
      "Ġacquired": 8599,
      "Ġtransformation": 8600,
      "ĠFlor": 8601,
      "Ġfeatured": 8602,
      "________": 8603,
      "ĠBarton": 8604,
      "ĠJewish": 8605,
      "Ġgods": 8606,
      "Parameter": 8607,
      "ourier": 8608,
      "Ġterritory": 8609,
      "ĠEmpire": 8610,
      ")+": 8611,
      "Man": 8612,
      "craft": 8613,
      "eav": 8614,
      "spec": 8615,
      "something": 8616,
      "walk": 8617,
      "iture": 8618,
      "Ġcattle": 8619,
      "anie": 8620,
      "inging": 8621,
      "Ġpy": 8622,
      "Ġnorm": 8623,
      "ima": 8624,
      "imm": 8625,
      "ĠSS": 8626,
      "ĠSong": 8627,
      "ĠAunt": 8628,
      "ĠHon": 8629,
      "ĠBang": 8630,
      "ĠDave": 8631,
      "iston": 8632,
      "ĠRa": 8633,
      "osc": 8634,
      "ĠJos": 8635,
      "allow": 8636,
      "Ġtrig": 8637,
      "Ġtrapped": 8638,
      "ĠOnt": 8639,
      "Ġtheme": 8640,
      "Ġsched": 8641,
      "formed": 8642,
      "Ġimpat": 8643,
      "phone": 8644,
      "Ġinvites": 8645,
      "Ġrealized": 8646,
      "Ġfactory": 8647,
      "bras": 8648,
      "scape": 8649,
      "Ġafford": 8650,
      "hematic": 8651,
      "ĠPhill": 8652,
      "sued": 8653,
      "process": 8654,
      "Ġairport": 8655,
      "Ġsites": 8656,
      "Ġdiscussed": 8657,
      "Ġcatches": 8658,
      "ĠKeith": 8659,
      "Ġscientists": 8660,
      "piration": 8661,
      "Ġbirds": 8662,
      "Ġhippocamp": 8663,
      ">,": 8664,
      ">>": 8665,
      "CD": 8666,
      "MA": 8667,
      "WE": 8668,
      "dt": 8669,
      "lov": 8670,
      "wid": 8671,
      "Ġ_{": 8672,
      "inction": 8673,
      "inals": 8674,
      "Ġwore": 8675,
      "Ġfishing": 8676,
      "Ġcra": 8677,
      "enly": 8678,
      "Ġhills": 8679,
      "Ġpaus": 8680,
      "Ġlamp": 8681,
      "Ġlocked": 8682,
      "Ġnorthern": 8683,
      "ĠTar": 8684,
      "ĠSE": 8685,
      "ĠSk": 8686,
      "ĠSep": 8687,
      "ctr": 8688,
      "ĠMA": 8689,
      "ĠMu": 8690,
      "ĠCub": 8691,
      "ĠPower": 8692,
      "ĠPete": 8693,
      "Ġ120": 8694,
      "ĠDaffy": 8695,
      "ĠWolf": 8696,
      "ĠRat": 8697,
      "ĠKelly": 8698,
      "ĠVari": 8699,
      "ĠVII": 8700,
      "Ġquery": 8701,
      "ĠWeb": 8702,
      "ĠWhich": 8703,
      "Ġrefuge": 8704,
      "Ġreflection": 8705,
      "ĠIslam": 8706,
      "Ġvoices": 8707,
      "ĠSpace": 8708,
      "Ġreplace": 8709,
      "Ġinvolves": 8710,
      "Ġprotocol": 8711,
      "Char": 8712,
      "Ġstrip": 8713,
      "Ġnetworks": 8714,
      "Ġkingdom": 8715,
      "Ġprinciple": 8716,
      "cyclop": 8717,
      "ĠRevolution": 8718,
      "Ġmidst": 8719,
      "Ġindustrial": 8720,
      "Ġfavorite": 8721,
      "Ġneighborhood": 8722,
      "ĠLinux": 8723,
      "ĠBetty": 8724,
      "Ġmosquito": 8725,
      "Ġorphan": 8726,
      "Ġcoffee": 8727,
      ".(": 8728,
      "101": 8729,
      "91": 8730,
      "ko": 8731,
      "md": 8732,
      "said": 8733,
      "Ġ}{": 8734,
      "Ġsaving": 8735,
      "nding": 8736,
      "Ġthreshold": 8737,
      "vector": 8738,
      "urbed": 8739,
      "Ġstress": 8740,
      "ĠBond": 8741,
      "ĠFile": 8742,
      "ĠLong": 8743,
      "ĠNorthern": 8744,
      "Ġproves": 8745,
      "Ġbutter": 8746,
      "Ġtricks": 8747,
      "atha": 8748,
      "Ġscored": 8749,
      "Ġspat": 8750,
      "hess": 8751,
      "ighters": 8752,
      "Ġimpressed": 8753,
      "ribe": 8754,
      "Ġeverybody": 8755,
      "empty": 8756,
      "Ġmighty": 8757,
      "ĠIndeed": 8758,
      "Ġeleg": 8759,
      "Ġradius": 8760,
      "ĠAmong": 8761,
      "ĠCommission": 8762,
      "Ġsounds": 8763,
      "âĢ²,": 8764,
      "Ġtypical": 8765,
      "Ġdetailed": 8766,
      "Ġgenius": 8767,
      "Ġforests": 8768,
      "Ġwitnesses": 8769,
      "Ġwarns": 8770,
      "Ġalgebraic": 8771,
      "document": 8772,
      "Ġdesperate": 8773,
      "Ġstorage": 8774,
      "Ġcorrection": 8775,
      "Ġcitizens": 8776,
      "roscopy": 8777,
      "British": 8778,
      "ĠOntario": 8779,
      ")-": 8780,
      "Pol": 8781,
      "map": 8782,
      "water": 8783,
      "zo": 8784,
      "Î±": 8785,
      "ãĢ": 8786,
      "Ġtunn": 8787,
      "Ġwet": 8788,
      "itement": 8789,
      "Ġbars": 8790,
      "Ġfold": 8791,
      "Ġmil": 8792,
      "alink": 8793,
      "icy": 8794,
      "Ġthroat": 8795,
      "Ġlonely": 8796,
      "Ġrent": 8797,
      "aman": 8798,
      "ctic": 8799,
      "ĠMill": 8800,
      "Ġstup": 8801,
      "Ġstatic": 8802,
      "ulating": 8803,
      "ĠBu": 8804,
      "ĠBall": 8805,
      "ĠWang": 8806,
      "emed": 8807,
      "ĠGen": 8808,
      "ĠNostradamus": 8809,
      "oping": 8810,
      "pless": 8811,
      "Ġintellect": 8812,
      "Ġsheep": 8813,
      "output": 8814,
      "Ġunaware": 8815,
      "Ġperpendicular": 8816,
      "Ġundert": 8817,
      "Ġworker": 8818,
      "upin": 8819,
      "Ġsimult": 8820,
      "Ġexamine": 8821,
      "Ġpersist": 8822,
      "ĠZw": 8823,
      "Ġoccas": 8824,
      "Ġmarries": 8825,
      "Ġadvances": 8826,
      "Ġconsidering": 8827,
      "Ġindepend": 8828,
      "Ġfights": 8829,
      "Ġconcert": 8830,
      "ocracy": 8831,
      "Ġtravels": 8832,
      "ACE": 8833,
      "ĠSteuart": 8834,
      "Who": 8835,
      "Ġproducer": 8836,
      "Ġabsolutely": 8837,
      "Ġpreparing": 8838,
      "ĠComputer": 8839,
      "ĠAPI": 8840,
      "Ġdivorce": 8841,
      ",$": 8842,
      "500": 8843,
      "PE": 8844,
      "Reg": 8845,
      "UN": 8846,
      "bur": 8847,
      "has": 8848,
      "mo": 8849,
      "maker": 8850,
      "via": 8851,
      "}.": 8852,
      "Ġtut": 8853,
      "Ġtens": 8854,
      "Ġfest": 8855,
      "Ġcave": 8856,
      "Ġdut": 8857,
      "Ġhell": 8858,
      "etric": 8859,
      "ĠSally": 8860,
      "roduction": 8861,
      "ainted": 8862,
      "ĠRalph": 8863,
      "ĠNa": 8864,
      "pled": 8865,
      "angles": 8866,
      "Ġunp": 8867,
      "ĠInspector": 8868,
      "ĠThose": 8869,
      "Ġtimeout": 8870,
      "issy": 8871,
      "Ġfrustr": 8872,
      "}}_{": 8873,
      "anna": 8874,
      "ĠClark": 8875,
      "Ġhelping": 8876,
      "ĠProject": 8877,
      "Ġgrey": 8878,
      "Ġengagement": 8879,
      "ographer": 8880,
      "ĠAllen": 8881,
      "Ġmagazine": 8882,
      "Ġincreasingly": 8883,
      "Ġnegot": 8884,
      "Ġgradually": 8885,
      "Ġcollabor": 8886,
      "Ġfiltering": 8887,
      "Ġworthy": 8888,
      "Ġcredit": 8889,
      "Ġwelcome": 8890,
      "Ġexplosion": 8891,
      "RANSF": 8892,
      "Ġvulnerability": 8893,
      "ĠFiniteStateMachine": 8894,
      "Ġinhabitants": 8895,
      "BE": 8896,
      "CA": 8897,
      "Dav": 8898,
      "Dia": 8899,
      "Direct": 8900,
      "hard": 8901,
      "iper": 8902,
      "oice": 8903,
      "ture": 8904,
      "wen": 8905,
      "yard": 8906,
      "Ð¸": 8907,
      "Ġera": 8908,
      "Ġbatt": 8909,
      "Ġnom": 8910,
      "oting": 8911,
      "ĠTable": 8912,
      "Ġeating": 8913,
      "etr": 8914,
      "ĠMain": 8915,
      "ĠCart": 8916,
      "ĠCrit": 8917,
      "ules": 8918,
      "Ġconven": 8919,
      "Ġrush": 8920,
      "ĠFollowing": 8921,
      "Ġvamp": 8922,
      "ategy": 8923,
      "ĠJe": 8924,
      "ĠJava": 8925,
      "Ġmanip": 8926,
      "beros": 8927,
      "Ġunsuccess": 8928,
      "Ġcontest": 8929,
      "Ġoverl": 8930,
      "Ġcolors": 8931,
      "Ġinvited": 8932,
      "Ġpoll": 8933,
      "Ġbund": 8934,
      "Ġconfident": 8935,
      "Ġinfant": 8936,
      "Ġhearts": 8937,
      "onym": 8938,
      "Ġstatements": 8939,
      "Ġwinning": 8940,
      "ĠBritain": 8941,
      "Ġsorts": 8942,
      "ĠEncyclop": 8943,
      "Ġwidely": 8944,
      "ĠMuslim": 8945,
      "Ġautomatically": 8946,
      "ĠWilliams": 8947,
      "Ġcompanies": 8948,
      "Ġcomfortable": 8949,
      "Ġremarkable": 8950,
      "Ġsurrounded": 8951,
      "ÂłÂłÂłÂłÂłÂłÂłÂłÂłÂłÂł": 8952,
      "burgh": 8953,
      "uncredited": 8954,
      "Ġbalance": 8955,
      "ĠOfficer": 8956,
      "Ġprivileges": 8957,
      "Ġsurvivors": 8958,
      ")}^{\\": 8959,
      "74": 8960,
      "Net": 8961,
      "Your": 8962,
      "cular": 8963,
      "dam": 8964,
      "run": 8965,
      "say": 8966,
      "uations": 8967,
      "wa": 8968,
      "wart": 8969,
      "woman": 8970,
      "your": 8971,
      "}\",": 8972,
      "Ġtiny": 8973,
      "Ġpaint": 8974,
      "icip": 8975,
      "ications": 8976,
      "Ġhesit": 8977,
      "otte": 8978,
      "ĠTy": 8979,
      "ĠTal": 8980,
      "ĠTest": 8981,
      "ĠCH": 8982,
      "ifier": 8983,
      "ĠDid": 8984,
      "ĠWay": 8985,
      "Ġexcess": 8986,
      "peror": 8987,
      "Ġknocked": 8988,
      "Ġ1920": 8989,
      "ionship": 8990,
      "ordinary": 8991,
      "version": 8992,
      "Ġfeat": 8993,
      "eldon": 8994,
      "Ġdevoted": 8995,
      "ĠGray": 8996,
      "Ġminim": 8997,
      "Ġchecks": 8998,
      "ĠProgram": 8999,
      "ircraft": 9000,
      "Ġshortly": 9001,
      "ĠQuant": 9002,
      "Ġintroduce": 9003,
      "Ġlikes": 9004,
      "headed": 9005,
      "Ġintegration": 9006,
      "ĠTransfer": 9007,
      "Ġtechnique": 9008,
      "model": 9009,
      "Ġimmediate": 9010,
      "Ġprinciples": 9011,
      "factory": 9012,
      "Ġsymbols": 9013,
      "ĠMexican": 9014,
      "Ġsympathy": 9015,
      "ĠProtagoras": 9016,
      "Ġscholars": 9017,
      "ĠRoger": 9018,
      "Ġcuriosity": 9019,
      "RANSFER": 9020,
      ".{{": 9021,
      "79": 9022,
      "Doc": 9023,
      "Get": 9024,
      "Val": 9025,
      "];": 9026,
      "bow": 9027,
      "cons": 9028,
      "mut": 9029,
      "words": 9030,
      "Ġà¤": 9031,
      "Ġsadd": 9032,
      "Ġoil": 9033,
      "itical": 9034,
      "Ġcort": 9035,
      "Ġholy": 9036,
      "icians": 9037,
      "Ġnode": 9038,
      "ĠMason": 9039,
      "Ġiter": 9040,
      "ĠBeng": 9041,
      "ĠFriend": 9042,
      "ĠRan": 9043,
      "esty": 9044,
      "ĠEnergy": 9045,
      "ĠJenny": 9046,
      "Ġpros": 9047,
      "ĠInformation": 9048,
      "Ġinstinct": 9049,
      "Ġmathematics": 9050,
      "prise": 9051,
      "Ġmemories": 9052,
      "ĠColl": 9053,
      "Ġbreakfast": 9054,
      "Ġhistogram": 9055,
      "Ġexpectancy": 9056,
      "Ġbands": 9057,
      "Ġsubjects": 9058,
      "Ġmistaken": 9059,
      "Nothing": 9060,
      "Ġpurposes": 9061,
      "Ġkidnapped": 9062,
      "ĠHTTP": 9063,
      "Ġexperienced": 9064,
      "lysses": 9065,
      "BUSB": 9066,
      "Acc": 9067,
      "Because": 9068,
      "MP": 9069,
      "TH": 9070,
      "Two": 9071,
      "current": 9072,
      "four": 9073,
      "natural": 9074,
      "uable": 9075,
      "uates": 9076,
      "west": 9077,
      "Ġcinema": 9078,
      "arse": 9079,
      "Ġinfer": 9080,
      "acs": 9081,
      "lyn": 9082,
      "ĠCambod": 9083,
      "irs": 9084,
      "seen": 9085,
      "gebras": 9086,
      "ĠDaug": 9087,
      "Ġconclusion": 9088,
      "abin": 9089,
      "abet": 9090,
      "ĠEN": 9091,
      "ĠEconom": 9092,
      "occ": 9093,
      "âĢĿ.": 9094,
      "Ġtrap": 9095,
      "Ġtrace": 9096,
      "ĠOp": 9097,
      "ureau": 9098,
      "ĠKaz": 9099,
      "ĠKnow": 9100,
      "Ġmankind": 9101,
      "These": 9102,
      "Ġgrim": 9103,
      "iko": 9104,
      "Ġ1921": 9105,
      "Ġimplies": 9106,
      "Ġresign": 9107,
      "Ġpartners": 9108,
      "phas": 9109,
      "Ġtransitions": 9110,
      "Ġdiscipl": 9111,
      "Ġhelic": 9112,
      "Ġexplo": 9113,
      "())": 9114,
      "}$,": 9115,
      "ĠPrime": 9116,
      "2016": 9117,
      "Ġapproached": 9118,
      "ĠSequ": 9119,
      "ĠDragon": 9120,
      "ĠExpl": 9121,
      "ĠTommy": 9122,
      "Ġsilk": 9123,
      "Ġtopics": 9124,
      "umbull": 9125,
      "Ġmusicians": 9126,
      "Ġcommunication": 9127,
      "Ġprotest": 9128,
      "ĠJackson": 9129,
      "ĠEnvironment": 9130,
      "Ġaccessible": 9131,
      "ltl": 9132,
      "ĠDevelopment": 9133,
      "Ġquantity": 9134,
      "Ġmarks": 9135,
      "Ġdespair": 9136,
      "Ġbottle": 9137,
      "Ġliterary": 9138,
      "University": 9139,
      "Ġexpressions": 9140,
      "Ġdamage": 9141,
      "Ġdisappear": 9142,
      "Ġfatal": 9143,
      "ðĿĶ¤": 9144,
      "Ġintroduces": 9145,
      "Ġacquaintance": 9146,
      "People": 9147,
      "ATHERINE": 9148,
      "83": 9149,
      "GA": 9150,
      "Hel": 9151,
      "ULL": 9152,
      "aunt": 9153,
      "lan": 9154,
      "site": 9155,
      "test": 9156,
      "Ġbat": 9157,
      "Ġpars": 9158,
      "ilarly": 9159,
      "stal": 9160,
      "ĠMarsh": 9161,
      "Ġstiff": 9162,
      "ĠDu": 9163,
      "ĠDown": 9164,
      "ĠDuke": 9165,
      "Ġrage": 9166,
      "Ġvig": 9167,
      "osis": 9168,
      "ĠNumber": 9169,
      "rying": 9170,
      "ĠVIII": 9171,
      "ulty": 9172,
      "Ġscen": 9173,
      "icking": 9174,
      "issue": 9175,
      "lesh": 9176,
      "Ġmodify": 9177,
      "ĠArm": 9178,
      "Ġinstances": 9179,
      "ĠForm": 9180,
      "ĠClient": 9181,
      "Ġguards": 9182,
      "ĠTrumbull": 9183,
      "herent": 9184,
      "Ġminds": 9185,
      "Ġfellows": 9186,
      "Ġ1989": 9187,
      "Ġreplies": 9188,
      "ĠHarvey": 9189,
      "âĢ²+": 9190,
      "Ġpainting": 9191,
      "Constr": 9192,
      "Ġspirits": 9193,
      "Ġrequests": 9194,
      "Ġattractive": 9195,
      "Ġconducted": 9196,
      "Ġconsistent": 9197,
      "ĠFrancisco": 9198,
      "umerate": 9199,
      "Ġinterpreted": 9200,
      "Ġconsequences": 9201,
      "Ġinstitution": 9202,
      "Ġhunting": 9203,
      "writer": 9204,
      "ĠMatthew": 9205,
      "Ġgauge": 9206,
      "ĠZwie": 9207,
      "Ġhelicop": 9208,
      "Am": 9209,
      "File": 9210,
      "May": 9211,
      "Mrs": 9212,
      "OC": 9213,
      "Public": 9214,
      "\\,": 9215,
      "bal": 9216,
      "bell": 9217,
      "files": 9218,
      "ui": 9219,
      "women": 9220,
      "Ġ##": 9221,
      "inth": 9222,
      "Ġbapt": 9223,
      "Ġhoney": 9224,
      "Ġpiano": 9225,
      "Ġdull": 9226,
      "ĠĠĠĠĠĠĠĠĠĠ": 9227,
      "image": 9228,
      "ĠPeg": 9229,
      "ĠPenn": 9230,
      "ulpt": 9231,
      "change": 9232,
      "ĠFil": 9233,
      "Ġvote": 9234,
      "oren": 9235,
      "ights": 9236,
      "ĠNap": 9237,
      "ĠNature": 9238,
      "opher": 9239,
      "acket": 9240,
      "ĠKam": 9241,
      "ĠKnight": 9242,
      "âĢĶâĢľ": 9243,
      "actory": 9244,
      "Ġcompr": 9245,
      "ucks": 9246,
      "Ġbranches": 9247,
      "Ġpreced": 9248,
      "Ġendeav": 9249,
      "Ġwanting": 9250,
      "eyed": 9251,
      "Ġemp": 9252,
      "Ġdevil": 9253,
      "Ġguests": 9254,
      "been": 9255,
      "Ġ90": 9256,
      "Ġprophe": 9257,
      "Ġportrait": 9258,
      "Ġspeaks": 9259,
      "poration": 9260,
      "Console": 9261,
      "Ġsensitive": 9262,
      "mitre": 9263,
      "Ġsatisfied": 9264,
      "Ġremarked": 9265,
      "Ġofficials": 9266,
      "Ġpursuit": 9267,
      "Ġagreement": 9268,
      "ĠStanley": 9269,
      "Ġagricultural": 9270,
      "Error": 9271,
      "Ġasynchron": 9272,
      "Ġvoltage": 9273,
      "ĠEncyclopedia": 9274,
      "ĠZwiebach": 9275,
      ")}\\": 9276,
      "73": 9277,
      "84": 9278,
      "Last": 9279,
      "cell": 9280,
      "Ġ_": 9281,
      "Ġbom": 9282,
      "Ġbarn": 9283,
      "Ġfasc": 9284,
      "Ġcav": 9285,
      "Ġhate": 9286,
      "Ġtourn": 9287,
      "stream": 9288,
      "Ġrend": 9289,
      "acles": 9290,
      "ĠSlo": 9291,
      "vering": 9292,
      "ĠCur": 9293,
      "ĠCatherine": 9294,
      "term": 9295,
[...]
